#version: 0.2
으 로</w>
에 서</w>
0 0
하 고</w>
韩 国</w>
다 고</w>
니 다</w>
2 00
进 行</w>
表 示</w>
다 는</w>
没 有</w>
지 만</w>
1 0</w>
美 国</w>
0 0</w>
들 이</w>
我 们</w>
이 라
政 府</w>
에 게</w>
中 国</w>
如 果</w>
중 국</w>
国 家</w>
정 부</w>
우 리</w>
问 题</w>
한 국</w>
까 지</w>
1 9
북 한</w>
미 국</w>
에 는</w>
韩 元</w>
사 람</w>
하 지</w>
대 통
因 此</w>
总 统</w>
企 业</w>
开 始</w>
经 济</w>
2 0</w>
公 司</w>
하 기</w>
可 以</w>
면 서</w>
一 个</w>
대 한</w>
00 0</w>
문 제</w>
日 本</w>
위 해</w>
但 是</w>
이라 고</w>
他 们</w>
因 为</w>
대통 령</w>
什 么</w>
대 해</w>
自 己</w>
서 는</w>
3 0</w>
그 녀</w>
1 2</w>
습 니다</w>
世 界</w>
通 过</w>
지 난
调 查</w>
大 学</w>
可 能</w>
1 1</w>
부 터</w>
举 行</w>
虽 然</w>
情 况</w>
去 年</w>
为 了</w>
기 업</w>
보 다</w>
成 为</w>
모 두</w>
正 在</w>
今 年</w>
이 번</w>
时 间</w>
工 作</w>
한 국
现 在</w>
首 尔</w>
委 员
나 라</w>
그 의</w>
非 常</w>
已 经</w>
생 각</w>
일 본</w>
시 간</w>
그 러
比 赛</w>
出 现</w>
세 계</w>
5 0</w>
不 是</w>
这 个</w>
관 계</w>
서 울</w>
计 划</w>
不 能</w>
这 样</w>
는 다</w>
1 5</w>
아 니</w>
경 제</w>
增 加</w>
所 以</w>
사 람
认 为</w>
그러 나</w>
시 작</w>
美 元</w>
决 定</w>
市 场</w>
라 고</w>
하 지만</w>
2 0
는 데</w>
最 近</w>
지난 해</w>
다 른</w>
当 天</w>
地 区</w>
달 러</w>
国 民</w>
시 장</w>
가 장</w>
니 까</w>
应 该</w>
경 기</w>
19 9
따 라</w>
에 도</w>
매 우</w>
그 들</w>
이 미</w>
동 안</w>
이 나</w>
人 士</w>
活 动</w>
이 런</w>
相 关</w>
위 원
가 능</w>
1 00</w>
어 요</w>
国 际</w>
发 生</w>
学 生</w>
方 面</w>
社 会</w>
함 께</w>
가 지</w>
자 는</w>
时 候</w>
문 에</w>
때 문에</w>
政 策</w>
우 리
최 근</w>
提 出</w>
대 표</w>
很 多</w>
这 种</w>
에 서는</w>
조 사</w>
이 후</w>
대 로</w>
자 신</w>
2 5</w>
통 해</w>
관 련</w>
由 于</w>
올 해</w>
아 이</w>
경 우</w>
회 사</w>
而 且</w>
서 도</w>
많 은</w>
地 方</w>
1 6</w>
关 系</w>
生 活</w>
参 加</w>
汽 车</w>
委员 会</w>
1 3</w>
당 신</w>
银 行</w>
국 민</w>
朝 鲜</w>
部 分</w>
一 起</w>
다 면</w>
孩 子</w>
作 为</w>
처 럼</w>
국 가</w>
目 前</w>
회 의</w>
때 문</w>
다 며</w>
으 면</w>
结 果</w>
필 요</w>
으 로
1 4</w>
获 得</w>
사 회</w>
의 원</w>
一 样</w>
지 금</w>
1 8</w>
事 情</w>
학 생</w>
라 는</w>
接 受</w>
得 到</w>
金 融</w>
없 이</w>
事 件</w>
시 아</w>
해 서</w>
지 역</w>
정 도</w>
之 后</w>
需 要</w>
적 이</w>
就 是</w>
상 황</w>
다 시</w>
国 内</w>
的 话</w>
要 求</w>
4 0</w>
렇 게</w>
경 제
知 道</w>
계 획</w>
으 며</w>
현 재</w>
议 员</w>
1 7</w>
하 나</w>
会 谈</w>
소 리</w>
이라 는</w>
학 교</w>
另 外</w>
减 少</w>
这 些</w>
此 次</w>
정 책</w>
위 기</w>
보 고</w>
投 资</w>
会 议</w>
希 望</w>
회 담</w>
결 과</w>
政 治</w>
거 리</w>
일 부</w>
하 여</w>
너 무</w>
장 관</w>
受 到</w>
이 에</w>
만 들</w>
았 다</w>
않 았다</w>
선 수</w>
使 用</w>
2 1</w>
국 내</w>
1 9</w>
어 서</w>
一 直</w>
选 手</w>
은 행</w>
지 난</w>
위 한</w>
进 入</w>
지 원</w>
이 라</w>
도 록</w>
代 表</w>
사 실</w>
2 4</w>
不 会</w>
명 이</w>
之 间</w>
也 是</w>
처 음</w>
사 건</w>
资 金</w>
모 든</w>
报 道</w>
危 机</w>
자 리</w>
结 束</w>
많 이</w>
价 格</w>
内 容</w>
200 0</w>
同 时</w>
마 음</w>
国 会</w>
教 育</w>
6 0</w>
只 有</w>
技 术</w>
起 来</w>
一 次</w>
이 상</w>
성 이</w>
아 직</w>
提 供</w>
결 정</w>
选 举</w>
之 前</w>
感 到</w>
사람 들</w>
발 표</w>
卢 武
根 据</w>
2 2</w>
못 하</w>
卢武 铉</w>
机 关</w>
以 上</w>
연 구
어 떻
发 展</w>
인 터
총 리</w>
中 心</w>
无 法</w>
对 于</w>
2 3</w>
达 到</w>
계 속</w>
주 의</w>
解 决</w>
어 떤</w>
2 6</w>
有 关</w>
어떻 게</w>
一 位</w>
主 要</w>
대 회</w>
过 去</w>
다 가</w>
教 授</w>
开 发</w>
左 右</w>
2 7</w>
따 르</w>
사 업</w>
부 분</w>
회 장</w>
기 록</w>
2 8</w>
예 정</w>
내 용</w>
还 是</w>
主 义</w>
所 有</w>
교 수</w>
주 장</w>
대 학</w>
研 究</w>
产 品</w>
프 로
새 로</w>
자 가</w>
정 말</w>
过 程</w>
개 발</w>
发 表</w>
가 운
学 校</w>
업 체</w>
가운 데</w>
0 %</w>
其 他</w>
不 同</w>
讨 论</w>
후 보</w>
方 案</w>
不 要</w>
规 模</w>
2 9</w>
准 备</w>
5 00</w>
투 자</w>
行 为</w>
어 지</w>
8 0</w>
사 용</w>
包 括</w>
감 독</w>
영 화</w>
경 찰</w>
记 者</w>
평 가</w>
는 지</w>
三 星</w>
으 나</w>
提 高</w>
규 모</w>
研 究
公 开</w>
文 化</w>
위원 회</w>
随 着</w>
이 를</w>
자 기</w>
당 시</w>
특 히</w>
人 员</w>
现 代</w>
历 史</w>
即 使</w>
当 时</w>
친 구</w>
分 析</w>
국 인</w>
今 天</w>
重 要</w>
아 주</w>
요 구</w>
밖 에</w>
머 니</w>
主 张</w>
가 격</w>
검 찰</w>
考 虑</w>
方 式</w>
看 到</w>
기 술</w>
바 로</w>
人 们</w>
보 이</w>
오 늘</w>
朋 友</w>
喜 欢</w>
민 주
모 습</w>
만 큼</w>
建 设</w>
명 의</w>
候 选
정 치</w>
李 明
시 키</w>
이 렇게</w>
교 육</w>
是 否</w>
전 망</w>
아 니다</w>
국 제
团 体</w>
사람 은</w>
과 정</w>
候选 人</w>
국 회</w>
설 명</w>
那 个</w>
보 인</w>
7 0</w>
管 理</w>
集 团</w>
李明 博</w>
个 人</w>
电 影</w>
展 开</w>
생 활</w>
合 作</w>
일 본
에 서도</w>
오 후</w>
활 동</w>
그 런</w>
이 유</w>
据 悉</w>
媒 体</w>
一 天</w>
사 진</w>
중 요</w>
i n
到 了</w>
首 次</w>
수 준</w>
外 交</w>
努 力</w>
이 는</w>
사 이</w>
成 功</w>
生 产</w>
措 施</w>
特 别</w>
수 도</w>
대 상</w>
超 过</w>
一 定</w>
보 도</w>
那 么</w>
重 新</w>
能 力</w>
1 .
原 因</w>
이 상
指 出</w>
지 도</w>
学 习</w>
战 争</w>
组 织</w>
확 인</w>
事 业</w>
어 나</w>
포 함</w>
인 사</w>
한 나라</w>
분 석</w>
正 式</w>
影 响</w>
这 里</w>
전 문
아 들</w>
라 도</w>
访 问</w>
자 동
1 0
运 动</w>
방 안</w>
대통 령
对 象</w>
2 00</w>
200 6</w>
电 子</w>
金 正
l g</w>
最 终</w>
같 이</w>
지 는</w>
다 음</w>
베 이
t a</w>
여 기</w>
그 룹</w>
女 性</w>
여 성</w>
자 금</w>
产 业</w>
委员 长</w>
信 息</w>
以 后</w>
한 편</w>
200 5</w>
很 难</w>
올 림
1 000</w>
明 年</w>
怎 么</w>
방 문</w>
取 得</w>
检 察</w>
制 度</w>
民 主
必 须</w>
아 시아</w>
기 간</w>
어 진</w>
出 口</w>
제 품</w>
做 出</w>
处 理</w>
금 융</w>
가 족</w>
表 现</w>
위원 장</w>
전 화</w>
공 개</w>
关 注</w>
기 관</w>
내 년</w>
3 1</w>
下 午</w>
수 사</w>
拥 有</w>
단 체</w>
전 히</w>
여 자</w>
对 此</w>
만 에</w>
사 랑</w>
200 2</w>
这 次</w>
얼 굴</w>
一 些</w>
变 化</w>
再 次</w>
最 高</w>
共 同</w>
위 원</w>
东 西</w>
개 월</w>
상 태</w>
한국 의</w>
各 种</w>
청 와
어 야</w>
全 国</w>
领 域</w>
下 降</w>
有 人</w>
청와 대</w>
最 大</w>
职 员</w>
青 瓦
青瓦 台</w>
f ta</w>
에 선</w>
推 进</w>
국 제</w>
정 상
长 官</w>
이 란</w>
实 现</w>
진 행</w>
아 가</w>
中 央</w>
성 공</w>
评 价</w>
아 버
出 来</w>
家 庭</w>
导 致</w>
사 이
만 원</w>
나 오</w>
制 定</w>
意 见</w>
전 쟁</w>
올림 픽</w>
部 长</w>
200 4</w>
정 치
전 체</w>
장 은</w>
月 份</w>
해 도</w>
城 市</w>
행 사</w>
最 后</w>
나 가</w>
贸 易</w>
차 례</w>
自 由</w>
발 생</w>
担 任</w>
反 对</w>
成 绩</w>
安 全</w>
总 理</w>
电 视
协 议</w>
준 비</w>
지난 달</w>
아버 지</w>
서 울
产 生</w>
200 7</w>
자동 차</w>
처 리</w>
려 고</w>
마 다</w>
어 가</w>
습 니까</w>
协 商</w>
지 적</w>
采 取</w>
为 止</w>
그 리
小 时</w>
정 보</w>
解 释</w>
a n
海 外</w>
任 何</w>
기 도</w>
만 나</w>
전 자</w>
그 것</w>
린 다</w>
部 门</w>
상 대</w>
아 무
增 长</w>
利 用</w>
생 산</w>
事 实</w>
教 练</w>
支 援</w>
관 리</w>
如 此</w>
时 代</w>
令 人</w>
바 람</w>
发 现</w>
예 상</w>
能 够</w>
직 접</w>
최 고</w>
훈 련</w>
이 제</w>
사 장</w>
발 전</w>
基 础</w>
방 법</w>
北 京</w>
머 리</w>
무 엇</w>
마 련</w>
남 자</w>
달 라</w>
5 %</w>
하 루</w>
오 전</w>
购 买</w>
对 策</w>
2 .
으 니</w>
一 点</w>
还 有</w>
협 상</w>
에 게
费 用</w>
一 下</w>
— —</w>
方 法</w>
消 息</w>
운 동</w>
5 000</w>
기 준</w>
조 치</w>
인터 넷</w>
专 家</w>
직 원</w>
외 교</w>
등 에</w>
과 의</w>
의 견</w>
어 렵</w>
改 革</w>
运 会</w>
联 合
당 국</w>
책 임</w>
规 定</w>
继 续</w>
大 家</w>
存 在</w>
只 是</w>
具 有</w>
해 결</w>
세 계
民主 党</w>
扩 大</w>
b s</w>
입 장</w>
第 一</w>
200 3</w>
얘 기</w>
强 调</w>
해 외</w>
200 8</w>
기 로</w>
신 문</w>
3 00</w>
t v</w>
中 的</w>
기 대</w>
时 期</w>
전 국</w>
外 国</w>
作 用</w>
帮 助</w>
미 국
방 송</w>
하 자</w>
严 重</w>
其 中</w>
南 北</w>
여 러</w>
项 目</w>
자 의</w>
职 业</w>
水 平</w>
네 가</w>
다 리</w>
도 시</w>
韩 国
新 闻</w>
배 우</w>
首 脑</w>
法 律</w>
현 대</w>
반 대</w>
대통령 의</w>
추 진</w>
经 营</w>
万 亿</w>
照 片</w>
经 常</w>
负 责</w>
交 易</w>
서 로</w>
而 是</w>
우 려</w>
문 화</w>
积 极</w>
机 构</w>
金正 日</w>
그 래
나 무</w>
수 출</w>
강 조</w>
모 르</w>
开 放</w>
효 과</w>
冠 军</w>
a r
작 년</w>
레 이
성 장</w>
参 与</w>
거 나</w>
보 내</w>
上 午</w>
노 력</w>
시 대</w>
负 责
很 大</w>
负责 人</w>
이 것</w>
국 방
训 练</w>
삼 성
공 사</w>
选 择</w>
어 느</w>
베이 징</w>
困 难</w>
s k</w>
참 여</w>
罗 斯</w>
중 이</w>
연 구</w>
관 심</w>
完 全</w>
就 是
才 能</w>
나 서</w>
3 .
相 比</w>
亚 洲</w>
确 认</w>
以 及</w>
更 加</w>
就是 说</w>
标 准</w>
공 격</w>
竞 争</w>
더 욱</w>
网 络</w>
평 균</w>
1 8
고 기</w>
平 均</w>
이 고</w>
特 别
변 화</w>
不 仅</w>
预 计</w>
电 话</w>
拉 克</w>
工 会</w>
노 동
俄 罗斯</w>
上 升</w>
两 个</w>
금 융
어 디</w>
건 설</w>
정 권</w>
산 업</w>
支 持</w>
以 来</w>
유 지</w>
주 요</w>
이 름</w>
o r
制 作</w>
如 何</w>
논 의</w>
服 务</w>
变 得</w>
预 测</w>
奥 运会</w>
제 도</w>
전문 가</w>
랜 드</w>
려 는</w>
武 器</w>
应 对</w>
现 象</w>
검 토</w>
显 示</w>
스 럽</w>
선 거</w>
责 任</w>
19 8
먼 저</w>
容 易</w>
느 냐</w>
期 间</w>
全 部</w>
언 론</w>
시 험</w>
持 续</w>
本 月</w>
销 售</w>
9 0</w>
收 入</w>
能 性</w>
최 대</w>
恢 复</w>
반 드
반드 시</w>
민주 당</w>
의 사</w>
条 件</w>
이 야
衣 服</w>
态 度</w>
一 步</w>
回 答</w>
是 因为</w>
는 가</w>
可 能性</w>
스 타</w>
수 가</w>
直 接</w>
영 향</w>
世 界
기 가</w>
능 력</w>
实 施</w>
그 램</w>
분 야</w>
원 이</w>
의 미</w>
民 主</w>
아 야</w>
只 要</w>
공 장</w>
o n
개 인</w>
스 트</w>
4 .
军 事</w>
改 变</w>
합 의</w>
战 略</w>
증 가</w>
联 合</w>
调 整</w>
机 会</w>
英 国</w>
身 体</w>
물 론</w>
아 서</w>
环 境</w>
1 5
分 钟</w>
b c</w>
上 涨</w>
국 가
经 过</w>
警 方</w>
目 标</w>
대 표
不 断</w>
带 来</w>
法 院</w>
立 场</w>
사 고</w>
전 략</w>
기 자</w>
限 制</w>
리 아</w>
政 权</w>
特别 是</w>
결 국</w>
누 구</w>
인 지</w>
科 学</w>
担 心</w>
来 说</w>
달 리</w>
방 침</w>
방 식</w>
강 화</w>
개 혁</w>
참 석</w>
대 화</w>
상 품</w>
무 슨</w>
商 品</w>
现 场</w>
健 康</w>
거 래</w>
교 육
代 表
力 量</w>
피 해</w>
역 사</w>
导 弹</w>
必 要</w>
医 院</w>
新 的</w>
외 국인</w>
차 지</w>
0 .
别 人</w>
和 平</w>
수 입</w>
이 전</w>
示 威</w>
老 师</w>
似 乎</w>
우리 가</w>
内 部</w>
병 원</w>
중 인</w>
e r
甚 至</w>
设 施</w>
伊 拉克</w>
노 무
3 5</w>
住 宅</w>
考 试</w>
인 가</w>
手 机</w>
확 대</w>
협 력</w>
그리 고</w>
今 后</w>
섰 다</w>
사 태</w>
演 员</w>
어 머니</w>
러 시아</w>
资 料</w>
운 영</w>
巴 马</w>
务 员</w>
状 态</w>
프로 그램</w>
대 책</w>
다 니</w>
政 党</w>
김 정
基 金</w>
公 共</w>
球 队</w>
이 용</w>
国 人</w>
추 가</w>
노무 현</w>
역 시</w>
这 么</w>
3 000</w>
선 생
각 각</w>
비 해</w>
결 혼</w>
高 中</w>
서 비
为 什么</w>
建 立</w>
作 品</w>
每 天</w>
이 기</w>
실 시</w>
이야 기</w>
프 랑
영 국</w>
부 담</w>
지 나</w>
完 成</w>
表 明</w>
申 请</w>
이 명
인 정</w>
대 부분</w>
下 来</w>
얼 마
会 长</w>
网 站</w>
200 1</w>
大 部分</w>
공 동</w>
联合 国</w>
分 别</w>
반 면</w>
精 神</w>
세 요</w>
작 업</w>
안 보</w>
检 察
선생 님</w>
지 지</w>
父 母</w>
이 르</w>
工 厂</w>
그 렇게</w>
드 라
제 공</w>
유 럽</w>
무 기</w>
市 民</w>
稳 定</w>
혐 의</w>
대 북</w>
居 民</w>
대 신</w>
军 队</w>
출 신</w>
이 지</w>
축 구</w>
연 기</w>
欧 洲</w>
采 访</w>
贷 款</w>
总 裁</w>
거 의</w>
부 족</w>
当 地</w>
电 视</w>
과 거</w>
上 月</w>
통 신</w>
e r</w>
이명 박</w>
事 故</w>
자 체</w>
국 무
6 .
대 한
劳 动
사 상</w>
오 르</w>
대 비</w>
기 회</w>
경 쟁</w>
1 7
4 5</w>
환 경</w>
외 국</w>
全 球</w>
공 식</w>
정 상</w>
비 판</w>
非 法</w>
觉 得</w>
행 동</w>
达 成</w>
离 开</w>
우 승</w>
透 露</w>
足 球</w>
건 강</w>
未 来</w>
大 幅</w>
요 즘</w>
综 合</w>
世 纪</w>
센 터</w>
大 韩</w>
제 기</w>
并 不</w>
当 局</w>
이라 크</w>
자 료</w>
引 起</w>
외 교
发 射</w>
행 위</w>
造 成</w>
广 播</w>
确 定</w>
引 发</w>
측 은</w>
首 先</w>
妈 妈</w>
我 国</w>
突 然</w>
领 导
사 일</w>
시 설</w>
不 到</w>
적 극</w>
회 복</w>
판 단</w>
가 치</w>
역 할</w>
중 심</w>
빨 리</w>
카 드</w>
공 부</w>
地 产</w>
개 의</w>
중 앙
참 가</w>
우리 의</w>
그 동안</w>
观 众</w>
首 都</w>
이 곳</w>
원 의</w>
议 会</w>
의 장</w>
美 军</w>
현 지</w>
성 과</w>
주 민</w>
판 매</w>
警 察</w>
사 무
财 政</w>
父 亲</w>
节 目</w>
물 건</w>
부 시</w>
报 告</w>
房 地产</w>
死 亡</w>
在 内</w>
4 00</w>
陷 入</w>
有 所</w>
단 계</w>
여 전히</w>
비 롯</w>
召 开</w>
현 장</w>
发 言</w>
인 트</w>
양 국</w>
예 산</w>
行 政</w>
미 사일</w>
반 기</w>
保 护</w>
관 계
으로 는</w>
公 务员</w>
那 样</w>
了 解</w>
려 면</w>
外 汇</w>
인 도</w>
结 婚</w>
每 年</w>
负 担</w>
시 오</w>
와 의</w>
好 的</w>
这 件</w>
삼 성</w>
잘 못</w>
半 岛</w>
第 三</w>
체 제</w>
조 건</w>
价 值</w>
介 绍</w>
统 一</w>
c d</w>
s t
시 즌</w>
理 由</w>
걱 정</w>
이 해</w>
서비 스</w>
放 弃</w>
앞 서</w>
创 造</w>
经 济
劳 动</w>
3 %</w>
儿 子</w>
비 용</w>
比 较</w>
5 .
预 算</w>
아 요</w>
시 위</w>
검 사</w>
成 员</w>
之 一</w>
부 동
목 표</w>
法 国</w>
대 응</w>
비 교</w>
나 이</w>
总 是</w>
检 查</w>
布 什</w>
进 口</w>
c o
프랑 스</w>
부 모</w>
进 一步</w>
感 觉</w>
想 法</w>
对 话</w>
第 二</w>
자 회담</w>
감 사</w>
釜 山</w>
人 数</w>
음 식</w>
에 서
스 트
얼마 나</w>
附 近</w>
制 造</w>
어 도</w>
힘 들</w>
效 果</w>
实 际
加 强</w>
작 품</w>
损 失</w>
故 事</w>
도 움</w>
结 构</w>
원 인</w>
이 야</w>
조 금</w>
多 少</w>
攻 击</w>
实际 上</w>
을 까</w>
경 쟁
환 자</w>
3 2</w>
마 지
2 %</w>
情 报</w>
통 일</w>
工 业</w>
재 정</w>
각 종</w>
요 청</w>
남 북</w>
批 评</w>
발 언</w>
文 章</w>
상 승</w>
되 기</w>
여 행</w>
失 败</w>
对 方</w>
母 亲</w>
只 能</w>
许 多</w>
이 익</w>
e n
내 놓</w>
错 误</w>
기 구</w>
반 도</w>
宣 传</w>
분 기</w>
한 미</w>
以 前</w>
双 方</w>
현 실</w>
월 드
德 国</w>
连 续</w>
투 자
上 述</w>
1 6
보 기</w>
더 라도</w>
중 국
1 %</w>
아 내</w>
과 학</w>
人 民</w>
포 인트</w>
발 견</w>
경 기
사 회
여 부</w>
拒 绝</w>
季 度</w>
진 출</w>
제 대로</w>
어 제</w>
수 록</w>
글 로
유 엔</w>
업 무</w>
무 리</w>
相 反</w>
높 이</w>
우 선</w>
시 기</w>
다 양</w>
公 布</w>
일 정</w>
십 시오</w>
아 름
电视 剧</w>
越 来
越来 越</w>
노 조</w>
정 보
世界 杯</w>
마지 막</w>
실 패</w>
문 화
实 际</w>
독 일</w>
核 心</w>
대 사</w>
구 성</w>
保 持</w>
라 인</w>
최 고
이 트</w>
안 정</w>
소 식</w>
运 营</w>
세 대</w>
4 %</w>
从 而</w>
국 정</w>
하 늘</w>
系 统</w>
期 待</w>
파 트</w>
声 音</w>
消 费
你 们</w>
来 到</w>
스 로</w>
面 临</w>
들 어가</w>
一 年</w>
除 了</w>
a t
글로 벌</w>
英 语</w>
중 단</w>
不 好</w>
열 리</w>
强 烈</w>
称 为</w>
조 직</w>
불 법</w>
旅 游</w>
纽 约</w>
具 体</w>
이 며</w>
自 然</w>
나 요</w>
有 些</w>
集 中</w>
년 대</w>
汉 城</w>
几 乎</w>
下 去</w>
改 善</w>
미 군</w>
대 가</w>
协 会</w>
선 택</w>
아 이
드라 마</w>
找 到</w>
우리 나라</w>
女 子</w>
o n</w>
평 화</w>
아 지</w>
점 이</w>
경 험</w>
尔 夫</w>
委 员</w>
호 텔</w>
대 선</w>
失 去</w>
비 가</w>
안 전</w>
위 험</w>
音 乐</w>
하 도</w>
부 인</w>
阶 段</w>
이 와</w>
禁 止</w>
데 도</w>
월드 컵</w>
现 实</w>
证 券</w>
누 가</w>
支 付</w>
시 절</w>
土 地</w>
公 寓</w>
주 택</w>
高 尔夫</w>
经 历</w>
行 动</w>
위 안</w>
너 지</w>
状 况</w>
公 里</w>
제 가</w>
발 사</w>
患 者</w>
半 年</w>
일 반</w>
시 스
자 유</w>
한 번</w>
排 名</w>
구 조</w>
年 前</w>
组 成</w>
나 와</w>
记 录</w>
논 란</w>
出 售</w>
8 %</w>
아 래</w>
加 入</w>
인 기</w>
휴 대
집 중</w>
k m</w>
意 义</w>
宪 法</w>
援 助</w>
가 서</w>
확 보</w>
维 持</w>
3 3</w>
평 양</w>
고 려</w>
의 혹</w>
真 的</w>
마 치</w>
계 약</w>
사 랑
全 面</w>
民 间</w>
부 장</w>
협 의</w>
불 과</w>
7 %</w>
提 交</w>
3 4</w>
보 호</w>
意 思</w>
投 入</w>
3 6</w>
말 로</w>
大 会</w>
도 입</w>
소 비
年 代</w>
아 파트</w>
자 인</w>
조 정</w>
통 과</w>
노 래</w>
拍 摄</w>
首 席</w>
体 制</w>
然 后</w>
犯 罪</w>
真 是</w>
부 가</w>
方 向</w>
昨 天</w>
도 착</w>
名 字</w>
총 장</w>
행 복</w>
지 도
희 망</w>
정상 회담</w>
相 信</w>
大 选</w>
来 看</w>
영 어</w>
势 力</w>
핵 심</w>
掌 握</w>
김정 일</w>
汇 率</w>
爱 情</w>
기 자
威 胁</w>
6 %</w>
i t</w>
연구 원</w>
한 반도</w>
스 스로</w>
실 험</w>
趋 势</w>
幸 福</w>
天 气</w>
경 영</w>
개 선</w>
恐 怖</w>
胜 利</w>
차 이</w>
工 资</w>
개 국</w>
자 주</w>
자 유
国 务
환 율</w>
규 정</w>
세 상</w>
说 明</w>
防 止</w>
목 소리</w>
메 달</w>
아 침</w>
紧 急</w>
미국 은</w>
인 상</w>
국 민
人 事</w>
제 시</w>
人 权</w>
히 려</w>
오 히려</w>
표 현</w>
약 속</w>
신 청</w>
부동 산</w>
i c
리 그</w>
일본 의</w>
지 금
질 문</w>
올 리</w>
大 型</w>
不 过</w>
선 언</w>
业 务</w>
소 개</w>
赛 季</w>
台 湾</w>
항 상</w>
正 确</w>
민 주</w>
이 지만</w>
明 星</w>
逐 渐</w>
民 族</w>
그래 서</w>
人 口</w>
i s
19 7
고 서</w>
도 로</w>
5 5</w>
是 个</w>
구 체</w>
飞 机</w>
로 는</w>
행 정</w>
홍 콩</w>
r e
해 주</w>
制 裁</w>
해 지</w>
대 만</w>
라 며</w>
大 规模</w>
部 队</w>
갑 자기</w>
一 切</w>
宣 布</w>
소 속</w>
成 立</w>
立 即</w>
20 10</w>
현 상</w>
长 期</w>
金 某</w>
대 출</w>
出 席</w>
天 安</w>
로 부터</w>
의 회</w>
경 영
几 个</w>
실 제</w>
벌 이</w>
제 재</w>
机 场</w>
工 程</w>
게 임</w>
当 然</w>
주 변</w>
일 어</w>
설 치</w>
무 대</w>
游 戏</w>
대 중</w>
治 疗</w>
대 변
무 역
200 9</w>
i m
그 러</w>
仪 式</w>
香 港</w>
国 防</w>
법 원</w>
认 识</w>
제 출</w>
심 각</w>
지 방</w>
승 리</w>
国 政</w>
부 산</w>
떠 나</w>
소 비</w>
生 命</w>
원 칙</w>
一 般</w>
시스 템</w>
基 本</w>
마 을</w>
修 改</w>
태 도</w>
별 로</w>
만 약</w>
대변 인</w>
공 무
言 人</w>
利 亚</w>
程 度</w>
비 슷</w>
明 确</w>
성 적</w>
速 度</w>
放 在</w>
하 니</w>
7 .
1 4
성 장
消费 者</w>
留 下</w>
세 력</w>
危 险</w>
全 体</w>
특 별</w>
听 到</w>
眼 睛</w>
현 대
不 可</w>
材 料</w>
움 직
여 야</w>
건 물</w>
主 席</w>
晚 上</w>
천 안</w>
부 문</w>
매 일</w>
지금 까지</w>
关 于</w>
i t
전 달</w>
以 下</w>
当 选</w>
指 数</w>
3 8</w>
제 한</w>
방 향</w>
규 제</w>
航 空</w>
3 7</w>
포 기</w>
라 면</w>
人 类</w>
주 세</w>
최 종</w>
내 부</w>
가 슴</w>
利 益</w>
차 원</w>
아 하</w>
공 연</w>
보 다는</w>
사 가</w>
정 신</w>
인 의</w>
날 씨</w>
棒 球</w>
반 응</w>
协 定</w>
研究 所</w>
女 人</w>
学 院</w>
인 간</w>
出 身</w>
消 费</w>
전 해</w>
어 린</w>
目 的</w>
压 力</w>
9 .
대표 팀</w>
화 가</w>
미 래</w>
家 人</w>
다 르</w>
变 成</w>
m bc</w>
理 解</w>
巨 大</w>
教 师</w>
떨 어지</w>
矛 盾</w>
万 人</w>
하 락</w>
传 统</w>
秘 密</w>
高 层</w>
法 案</w>
男 人</w>
争 议</w>
삼성 전자</w>
지 를</w>
테 러</w>
관계 자</w>
라 서</w>
怎 么
해 당</w>
权 力</w>
竞 争
제 외</w>
寻 找</w>
치 료</w>
位 置</w>
의 지</w>
업 계</w>
중 앙</w>
한국 인</w>
좋 아하</w>
운 드</w>
레 이</w>
医 生</w>
发 言人</w>
9 %</w>
执 行</w>
말 고</w>
4 000</w>
타 고</w>
대 형</w>
협 정</w>
교 사</w>
구 나</w>
食 品</w>
体 育</w>
어 질</w>
내 일</w>
또 는</w>
样 子</w>
设 计</w>
外 国人</w>
남 편</w>
终 于</w>
시 민</w>
전 혀</w>
공 급</w>
企 划</w>
谈 判</w>
담 당</w>
위 로</w>
엄 마</w>
未 能</w>
电 脑</w>
공 항</w>
내 리</w>
기 억</w>
나 타
此 前</w>
8 .
전 문</w>
조 선
금 지</w>
因 素</w>
不 少</w>
소 득</w>
의 식</w>
지 방
사 실
저 녁</w>
经 理</w>
货 币</w>
不 足</w>
欢 迎</w>
확 정</w>
분 위기</w>
联 盟</w>
十 分</w>
针 对</w>
形 象</w>
불 안</w>
酒 店</w>
之 外</w>
牛 肉</w>
补 充</w>
真 正</w>
联 赛</w>
见 面</w>
세 금</w>
하 거</w>
一 家</w>
주 시</w>
根 本</w>
바 꾸</w>
正 常</w>
原 则</w>
감 소</w>
销 售
秘 书
다 운</w>
이 루</w>
人 物</w>
인 구</w>
好 像</w>
迅 速</w>
줄 이</w>
普 通</w>
길 이</w>
주 가</w>
范 围</w>
回 到</w>
아 프
스 타
199 8</w>
保 险</w>
출 전</w>
景 气</w>
位 于</w>
비 율</w>
오 래</w>
a l
就 业</w>
处 于</w>
동 생</w>
c e
음 악</w>
컴 퓨
按 照</w>
d p</w>
少 年</w>
文 件</w>
기 존</w>
예 요</w>
제 안</w>
增 长
사이 트</w>
면 서도</w>
소 년</w>
관 광
보 유</w>
위 협</w>
舆 论</w>
더 니</w>
마 시</w>
明 天</w>
오 른</w>
国 防
연 속</w>
广 告</w>
라 이
활 용</w>
주 문</w>
k bs</w>
버 리</w>
知 识</w>
难 以</w>
협 회</w>
中 断</w>
촬 영</w>
가 구</w>
눈 물</w>
6 00</w>
요 일</w>
吸 引</w>
形 成</w>
专 业</w>
경 찰
房 子</w>
주 식</w>
增长 率</w>
금 리</w>
毕 业</w>
丈 夫</w>
实 力</w>
培 养</w>
선 물</w>
에 너지</w>
언 제</w>
부 상</w>
편 지</w>
공 동
国防 部</w>
바 다</w>
당 선</w>
整 个</w>
周 围</w>
서 관</w>
개 성</w>
생 산
주 도</w>
高 兴</w>
程 序</w>
年 轻</w>
利 率</w>
성 은</w>
6 5</w>
이 달</w>
承 认</w>
으로 부터</w>
훨 씬</w>
부 의</w>
心 情</w>
经 验</w>
남 아</w>
4 6</w>
얼 마</w>
g a</w>
紧 张</w>
加 上</w>
어 들</w>
경쟁 력</w>
消 失</w>
공 단</w>
年 龄</w>
妻 子</w>
그 렇
고 객</w>
인터 뷰</w>
园 区</w>
官 员</w>
两 人</w>
4 4</w>
선 거
제 작</w>
가 득</w>
전 부</w>
一 半</w>
那 些</w>
u n
漂 亮</w>
신 고</w>
o s
投 票</w>
확 산</w>
본 부</w>
阻 止</w>
执 政党</w>
뉴 욕</w>
顾 客</w>
无 论</w>
마 음
연구 소</w>
反 而</w>
에 만</w>
컴퓨 터</w>
优 秀</w>
동 의</w>
试 验</w>
이 면</w>
东 亚</w>
공무 원</w>
竞争 力</w>
회 견</w>
外 交
사 망</w>
출 발</w>
지 수</w>
연 합</w>
인 물</w>
基 地</w>
声 明</w>
专 门</w>
자 로</w>
金 大
仍 然</w>
允 许</w>
办 公
성 격</w>
报 纸</w>
의 해</w>
주 인</w>
또 한</w>
거 야</w>
印 度</w>
身 份</w>
단 지</w>
比 起</w>
자 원</w>
부 대</w>
받 아들</w>
发 挥</w>
确 保</w>
앞 두</w>
更 多</w>
3 9</w>
사 례</w>
邀 请</w>
降 低</w>
기 능</w>
휴대 전화</w>
人 生</w>
推 出</w>
완 전히</w>
고 도</w>
一 部</w>
距 离</w>
1 50</w>
사 라</w>
家 里</w>
交 通</w>
即 将</w>
投 资
기 술
那 里</w>
承 诺</w>
혼 자</w>
파 악</w>
학 원</w>
조 선</w>
建 筑</w>
资 产</w>
에게 는</w>
物 价</w>
意 识</w>
罢 工</w>
演 出</w>
범 죄</w>
그 림</w>
r a
旅 行</w>
通 信</w>
点 儿</w>
법 안</w>
暴 力</w>
주 목</w>
道 路</w>
控 制</w>
사실 상</w>
돌 아가</w>
등 장</w>
江 南</w>
인 수</w>
속 도</w>
냐 는</w>
坚 持</w>
마 리</w>
적 용</w>
소 재</w>
同 样</w>
c h
4 2</w>
지 구</w>
사 과</w>
자 연</w>
디 어</w>
의 도</w>
명 은</w>
同 意</w>
上 海</w>
游 客</w>
인 식</w>
부 처</w>
财 产</w>
버 스</w>
8 00</w>
이 자</w>
合 同</w>
不 知</w>
检察 厅</w>
심 히</w>
一 致</w>
제 로</w>
거 부</w>
4 8</w>
감 정</w>
겨 울</w>
避 免</w>
仁 川</w>
4 7</w>
기 본</w>
므 로</w>
痛 苦</w>
球 场</w>
남 성</w>
股 市</w>
女 儿</w>
당 의</w>
报 告
领导 人</w>
느 낌</w>
세 우</w>
기 업
관 광</w>
199 9</w>
군 사
设 备</w>
激 烈</w>
相 当</w>
日 报</w>
바 닥</w>
违 反</w>
선 정</w>
扩 散</w>
各 国</w>
적 지</w>
并 称</w>
最 好</w>
最 多</w>
主 教练</w>
민 국</w>
여 명</w>
4 9</w>
4 3</w>
지 키</w>
기 사</w>
股 票</w>
收 购</w>
장 기</w>
告 诉</w>
특 별
第 二
지 속</w>
作 战</w>
갈 등</w>
纪 录</w>
引 进</w>
6 000</w>
华 盛
파 업</w>
길 을</w>
개 최</w>
맞 아</w>
대 의</w>
순 간</w>
律 师</w>
岗 位</w>
주 로</w>
儿 童</w>
학 자</w>
워 싱
모 델</w>
保 障</w>
4 1</w>
判 断</w>
a s
研究 院</w>
들 어
梦 想</w>
男 性</w>
接 触</w>
此 外</w>
쇠 고기</w>
石 油</w>
l e
사 의</w>
停 止</w>
g dp</w>
反 应</w>
接 近</w>
实 行</w>
려 움</w>
敌 人</w>
咨 询</w>
차 량</w>
이 하</w>
报告 书</w>
比 率</w>
약 간</w>
直 到</w>
하 나
华盛 顿</w>
권 력</w>
광 고</w>
子 女</w>
스 포
商 店</w>
每 个</w>
배 치</w>
사 전</w>
그 리</w>
舞 台</w>
充 满</w>
大 量</w>
周 年</w>
보 고서</w>
心 理</w>
关 心</w>
多 数</w>
출 연</w>
展 示</w>
메 이
挑 战</w>
부 부</w>
试 图</w>
人 才</w>
说 话</w>
海 军</w>
다 면서</w>
行 业</w>
일 자리</w>
학 과</w>
统 计</w>
목 적</w>
属 于</w>
大 使</w>
동 시
发 达</w>
金大 中</w>
核 武器</w>
注 意</w>
재 산</w>
만 이</w>
드 러
위 치</w>
平 壤</w>
통 화</w>
장 면</w>
대한 민국</w>
大 赛</w>
무 역</w>
수 단</w>
明 显</w>
드 리</w>
관 리
마 이
조 원</w>
能 源</w>
斗 争</w>
직 후</w>
대 체</w>
통 합</w>
그 대로</w>
근 무</w>
선 진
199 7</w>
a n</w>
心 里</w>
데 다</w>
形 式</w>
유 명</w>
资 本</w>
증 시</w>
군 사</w>
开 城</w>
기 다리</w>
国 务</w>
美 丽</w>
20 12</w>
领 导</w>
시 도</w>
여 름</w>
充 分</w>
混 乱</w>
북 핵</w>
并 且</w>
비 난</w>
마 디</w>
절 차</w>
국 내
느 끼</w>
信 用
도 전</w>
电视 台</w>
日 子</w>
임 금</w>
남 북
하 시</w>
休 息</w>
月 末</w>
어 린
홍 보</w>
哪 里</w>
시 행</w>
哥 哥</w>
열 심히</w>
존 재</w>
8 000</w>
干 部</w>
해 진</w>
嫌 疑</w>
과 는</w>
5 3</w>
기 지</w>
야 구</w>
韩国 队</w>
북 측</w>
恶 化</w>
办公 室</w>
取 消</w>
민 족</w>
사 업
p ga</w>
본 격</w>
人 民
코 스</w>
男 子</w>
摆 脱</w>
据 说</w>
老 人</w>
사 관</w>
끝 나</w>
보 장</w>
여 주</w>
局 面</w>
골 프</w>
不 安</w>
연 히</w>
运 动
颜 色</w>
개 정</w>
中 小</w>
5 6</w>
주 석</w>
彻 底</w>
통 상</w>
이 사</w>
바 뀌</w>
l l</w>
투 표</w>
벌 써</w>
당 초</w>
분 명</w>
金 额</w>
语 言</w>
인 권</w>
돌 아
1 00
发 行</w>
증 권</w>
小 说</w>
이 끌</w>
브 랜드</w>
7 000</w>
信 任</w>
인 해</w>
联 系</w>
조 차</w>
in g</w>
公 社</w>
剩 下</w>
6 6</w>
계 기</w>
教 育
7 00</w>
设 立</w>
消 除</w>
总 经理</w>
e u</w>
성장 률</w>
医 疗</w>
결 코</w>
시 다</w>
下 跌</w>
빠 르</w>
언 급</w>
인 력</w>
지 시</w>
의 자</w>
调 查
手 术</w>
队 员</w>
전 통</w>
成 了</w>
추 정</w>
동시 에</w>
回 来</w>
기 획</w>
전 환</w>
손 님</w>
구 속</w>
상 당</w>
信 用</w>
수 업</w>
레 스</w>
疑 惑</w>
功 能</w>
인 생</w>
노 인</w>
기자 회견</w>
월 부</w>
组 合</w>
나 도</w>
s bs</w>
推 迟</w>
提 议</w>
股 价</w>
외 국
그 렇</w>
능 성</w>
소 설</w>
원 하</w>
오 른
r o
n e
a m
일 로</w>
尽 管</w>
생 기</w>
爸 爸</w>
成 果</w>
都 会</w>
出 去</w>
5 2</w>
证 明</w>
부 정</w>
국방 부</w>
地 位</w>
出 发</w>
케 이
投资 者</w>
名 单</w>
항 공</w>
5 4</w>
资 源</w>
任 务</w>
분 이</w>
院 长</w>
数 量</w>
절 대</w>
절 반</w>
反 映</w>
동 원</w>
给 予</w>
민 간</w>
全 世界</w>
모 양</w>
发 出</w>
바 라</w>
방 송
매 년</w>
그 런
独 立</w>
涉 嫌</w>
对 手</w>
지 고</w>
斯 坦</w>
보 험</w>
5 1</w>
표 시</w>
在 野
展 现</w>
전 력</w>
在野 党</w>
议 长</w>
具 备</w>
물 가</w>
京 畿</w>
年 内</w>
작 가</w>
피 부</w>
会 上</w>
그런 데</w>
品 牌</w>
执 政</w>
중 소
선 발</w>
워싱 턴</w>
遗 憾</w>
诉 讼</w>
面 前</w>
交 流</w>
표 정</w>
享 受</w>
정 확</w>
인 천</w>
阶 层</w>
拘 留</w>
7 2</w>
前 往</w>
过 来</w>
일 단</w>
先 生</w>
구 매</w>
언 제
5 8</w>
침 체</w>
키 로</w>
정 리</w>
方 针</w>
纷 纷</w>
穿 着</w>
竞 选</w>
머 지</w>
移 动</w>
자 세</w>
사 원</w>
진 정</w>
에서 의</w>
任 命</w>
5 7</w>
审 判</w>
艺 术</w>
강 력</w>
고 용</w>
批 准</w>
근 로
或 者</w>
왼 쪽</w>
식 품</w>
小 学</w>
국 회
日 程</w>
가 능성</w>
公 园</w>
曾 经</w>
创 下</w>
상 자</w>
세 기</w>
房 间</w>
불 리</w>
担 忧</w>
정 당</w>
전 기</w>
외 환</w>
성 의</w>
金 牌</w>
废 除</w>
근 거</w>
부 르</w>
二 次</w>
반 영</w>
고 는</w>
개 방</w>
실 적</w>
투 입</w>
食 物</w>
이라 도</w>
5 0
이상 의</w>
税 金</w>
招 待
유 리</w>
尽 快</w>
接 着</w>
主 导</w>
사 정</w>
대 기업</w>
로 운</w>
亲 自</w>
아름 다운</w>
a l</w>
追 加</w>
7 5</w>
서울 대</w>
6 3</w>
등 학교</w>
纪 念</w>
으로 써</w>
생 명</w>
手 段</w>
有 效</w>
소 송</w>
실 장</w>
다 만</w>
가 정</w>
还 要</w>
指 定</w>
식 사</w>
스 탄</w>
决 赛</w>
场 面</w>
事 务</w>
有 点</w>
克 服</w>
대 답</w>
추 진
业 绩</w>
원 자
상 의</w>
억 달러</w>
시 각</w>
도 권</w>
수 술</w>
나 머지</w>
평 소</w>
가 까
值 得</w>
적 자</w>
信用 卡</w>
취 업</w>
真 相</w>
派 遣</w>
으로 도</w>
전 날</w>
议 案</w>
졸 업</w>
일 보</w>
9 9</w>
3 0
상 당
짜 리</w>
그 때</w>
安 保</w>
受 伤</w>
산 업
보 여주</w>
差 距</w>
奖 金</w>
나타 나</w>
收 到</w>
观 看</w>
暂 时</w>
人民 币</w>
바 탕</w>
성 명</w>
自 治</w>
여 러
백 화
감 안</w>
밝 히</w>
粮 食</w>
은 이</w>
抓 住</w>
설 립</w>
아무 리</w>
네 요</w>
独 岛</w>
든 지</w>
운 동
수 출
业 界</w>
导 演</w>
年 级</w>
提 前</w>
최 초</w>
销售 额</w>
유 치</w>
设 置</w>
体 系</w>
원 장</w>
주 일</w>
어 려움</w>
年 末</w>
韩 日</w>
绝 对</w>
网 上</w>
不 起</w>
연 결</w>
이 동
연 간</w>
놀 라</w>
각 국</w>
위 반</w>
지 급</w>
브 리
전 면</w>
人 气</w>
6 4</w>
平 时</w>
교 체</w>
进 军</w>
촉 구</w>
警 察
러 한</w>
马 上</w>
在 于</w>
집 단</w>
o e
g 20</w>
모 임</w>
종 합</w>
만 명</w>
所 属</w>
화 제</w>
늘 어나</w>
판 매
비 행
指 示</w>
争 论</w>
흔 들</w>
매 출</w>
나 선</w>
相 同</w>
招待 会</w>
주 년</w>
악 화</w>
礼 物</w>
노 동</w>
유 가</w>
건 설
잠 시</w>
이 용
펀 드</w>
가 수</w>
작 용</w>
나 누</w>
호 사</w>
풀 이</w>
하 세</w>
신 용
구 입</w>
가 입</w>
허 용</w>
식 통</w>
소 식통</w>
단 히</w>
质 量</w>
理 会</w>
特 殊</w>
때 까지</w>
集 会</w>
临 时</w>
따 라서</w>
의 심</w>
반 발</w>
교 통
股 份</w>
소비 자</w>
身 上</w>
起 到</w>
찬 가지</w>
마 찬가지</w>
成 长</w>
시 아
총 선</w>
스포 츠</w>
5 9</w>
i s</w>
과 장</w>
年 后</w>
用 于</w>
충 격</w>
油 价</w>
判 决</w>
점 점</w>
괜 찮</w>
기 금</w>
工 人</w>
周 末</w>
리 카</w>
围 绕</w>
빠 지</w>
营 业</w>
警 告</w>
前 一天</w>
d a
야 당</w>
等 待</w>
고 통</w>
바 이
6 8</w>
외 환
马 拉
接 到</w>
青 少年</w>
人 力</w>
일 의</w>
遭 到</w>
뉴 스</w>
建 议</w>
歌 手</w>
最 佳</w>
i n</w>
球 员</w>
同 盟</w>
임 스</w>
비 중</w>
小 组</w>
도 가</w>
到 底</w>
뿐 만</w>
共 有</w>
재 개</w>
연 설</w>
과 제</w>
所 谓</w>
延 长</w>
利 润</w>
遇 到</w>
转 移</w>
공 기</w>
주 기</w>
多 人</w>
회 원</w>
고 민</w>
께 서</w>
毫 无</w>
백화 점</w>
室 长</w>
개 발
분 히</w>
怀 疑</w>
见 到</w>
高 级</w>
t h
고 위</w>
내 려
高 速</w>
체 결</w>
박 지</w>
이 다</w>
监 查</w>
博 士</w>
이 같이</w>
아 무</w>
怎 样</w>
장 소</w>
안 전
간 부</w>
국 장</w>
多 个</w>
符 合</w>
皮 肤</w>
教 科
파 견</w>
广 场</w>
不 管</w>
表 情</w>
1 2
가 량</w>
을 지</w>
금 메달</w>
以 外</w>
疾 病</w>
三 个</w>
a p
보 통</w>
검 증</w>
강 하</w>
실 제로</w>
어 간</w>
배 가</w>
破 坏</w>
정 신
의 안</w>
지 식</w>
司 令
리 스
당 하</w>
출 범</w>
그 냥</w>
비 서관</w>
조 금
演 讲</w>
요 리</w>
기 념
자 녀</w>
多 种</w>
매 력</w>
袭 击</w>
조 심</w>
适 用</w>
民 国</w>
回 国</w>
인 근</w>
벗 어나</w>
首 相</w>
至 今</w>
上 调</w>
党 的</w>
表 演</w>
打 开</w>
실 력</w>
심 리</w>
w w
李 某</w>
공 원</w>
不 得
성 도</w>
피 하</w>
브 라
乘 坐</w>
s e
起 诉</w>
접 촉</w>
식 당</w>
好 好</w>
선 보</w>
相 似</w>
c c</w>
경 고</w>
ce o</w>
歌 曲</w>
등 록</w>
不 满</w>
독 도</w>
신 뢰</w>
简 单</w>
金 妍</w>
个 月</w>
上 个月</w>
디 자인</w>
一 代</w>
여 론</w>
相 互</w>
확 실</w>
来 自</w>
심 사</w>
同 期</w>
星 期
建 筑
一 部分</w>
가 리</w>
法 人</w>
복 귀</w>
위 의</w>
推 荐</w>
수 용</w>
体 育
互 相</w>
움직 임</w>
角 色</w>
전 반</w>
원 래</w>
사 령
福 利</w>
国 家
动 物</w>
아 라</w>
가 스</w>
긴 장</w>
순 위</w>
연 장</w>
가 락</w>
时 隔</w>
호 주</w>
할 머니</w>
就 要</w>
법 인</w>
腐 败</w>
199 0</w>
내 고</w>
接 连</w>
占 据</w>
看 着</w>
会 员</w>
粉 丝</w>
이 가</w>
年 初</w>
보 지</w>
视 为</w>
抗 议</w>
란 드</w>
k g</w>
까 지는</w>
坐 在</w>
不 想</w>
主 题</w>
局 长</w>
제 일</w>
聚 集</w>
선진 국</w>
극 복</w>
课 题</w>
부 탁</w>
충 분</w>
启 动</w>
6 2</w>
시 지</w>
校 长</w>
행 정
安 理会</w>
폭 력</w>
朴 智
日 元</w>
思 想</w>
연 습</w>
듯 이</w>
집 회</w>
주 말</w>
걸 리</w>
초 청</w>
으 면서</w>
意 志</w>
기 계</w>
다 음
늘 리</w>
법 률</w>
디 오</w>
查 明</w>
卫 星</w>
측 이</w>
适 合</w>
谴 责</w>
해 석</w>
통 제</w>
排 除</w>
연 대</w>
网 民</w>
战 胜</w>
家 属</w>
정치 권</w>
举 办</w>
번 호</w>
居 住</w>
原 来</w>
요 인</w>
통 한</w>
公 斤</w>
업 자</w>
처 벌</w>
之 中</w>
오른 쪽</w>
a c
작 전</w>
지 가</w>
味 着</w>
选 拔</w>
打 击</w>
意 味着</w>
불 구</w>
债 券</w>
出 演</w>
축 구
상 처</w>
政 界</w>
这 部</w>
시 청
本 部</w>
6 7</w>
보 수</w>
国 外</w>
외 부</w>
能 否</w>
담 배</w>
기 분</w>
관광 객</w>
处 罚</w>
위 대</w>
契 机</w>
대 규모</w>
上 半年</w>
화 하</w>
顺 利</w>
영 상</w>
테 이
出 生</w>
世 宗</w>
충 분히</w>
包 含</w>
입 고</w>
투 기</w>
投 手</w>
海 洋</w>
북 자</w>
명 히</w>
小 心</w>
以 此</w>
바 지</w>
성 에</w>
가 을</w>
중 국인</w>
清 楚</w>
6 9</w>
페 인</w>
6 1</w>
탈 북자</w>
债 务</w>
토 론</w>
시 점</w>
裁 判</w>
구 조
라 운드</w>
共 和
국제 사회</w>
一 边</w>
话 题</w>
선 수
感 谢</w>
感 情</w>
安 排</w>
로 서</w>
고 향</w>
劳动 者</w>
战 斗
분 명히</w>
迎 来</w>
실 수</w>
해 군</w>
정 부
배 경</w>
击 出</w>
几 天</w>
동 맹</w>
l o
俱 乐
중소 기업</w>
本 身</w>
oe cd</w>
可 是</w>
공 간</w>
채 권</w>
재 판
8 6</w>
服 装</w>
生 存</w>
s o
리 가</w>
다 보</w>
社 长</w>
国家 队</w>
头 发</w>
打 算</w>
폐 지</w>
비 밀</w>
初 期</w>
제 조
作 者</w>
폭 발</w>
고 교</w>
메 시지</w>
瞬 间</w>
度 过</w>
俱乐 部</w>
资 格</w>
弟 弟</w>
텔 레
페 이지</w>
여러 분</w>
证 据</w>
압 박</w>
며 칠</w>
8 5</w>
프 로</w>
魅 力</w>
物 质</w>
签 订</w>
理 事
차 관</w>
指 责</w>
青 年</w>
数 字</w>
7 4</w>
상 반기</w>
9 8</w>
학 년</w>
지도 자</w>
수 지</w>
오 랜</w>
머 물</w>
氛 围</w>
先 进</w>
영 장</w>
现 有</w>
流 感</w>
증 거</w>
비 리</w>
마 무리</w>
教科 书</w>
광 장</w>
决 心</w>
这 本</w>
公 平</w>
고 요</w>
东 京</w>
반 도
당 장</w>
야 만</w>
인 공</w>
근로 자</w>
核 试验</w>
倾 向</w>
자 산</w>
年 轻
年 底</w>
남 한</w>
조 정
운 용</w>
宣 言</w>
两 次</w>
등 급</w>
마 자</w>
领 先</w>
需 求</w>
当 初</w>
性 格</w>
im f</w>
签 署</w>
박 사</w>
想 到</w>
조 지</w>
금 액</w>
肯 定</w>
太 阳</w>
수 석
外交 部</w>
재 판</w>
이 처럼</w>
相 对</w>
会 见</w>
乐 天</w>
年轻 人</w>
형 태</w>
비 행</w>
课 程</w>
싸 움</w>
事 例</w>
情 绪</w>
一 方面</w>
1 500</w>
内 外</w>
言 论</w>
澳 大
澳大 利亚</w>
핵 무기</w>
落 后</w>
수 도권</w>
가 르</w>
판 결</w>
북 한
员 工</w>
时 报</w>
作 家</w>
비 아</w>
완 화</w>
代表 团</w>
타 이
고 가</w>
马拉 松</w>
国 立</w>
청 소년</w>
多 年</w>
총 재</w>
과 학
国务 院</w>
의 문</w>
가 게</w>
角 度</w>
공 업</w>
기 름</w>
미 치</w>
统 一部</w>
1 3
자 마자</w>
传 达</w>
걸 음</w>
提 问</w>
f a</w>
일 대</w>
여 권</w>
推 测</w>
연 락</w>
男 女</w>
다 수</w>
채 택</w>
지 출</w>
계 산</w>
职 务</w>
重 大</w>
물 질</w>
现 金</w>
한 테</w>
发 布</w>
사 자</w>
김 영
低 于</w>
사 항</w>
불 만</w>
出 色</w>
임 무</w>
만 족</w>
아 도</w>
破 产</w>
击 球</w>
장 치</w>
定 期</w>
승 부</w>
개 입</w>
遵 守</w>
比 重</w>
分 配</w>
9 5</w>
불 가</w>
지 역
下 月</w>
面 对</w>
特 定</w>
办 法</w>
일 한</w>
안 타</w>
回 家</w>
따 뜻</w>
는 데도</w>
거 론</w>
客 人</w>
下 调</w>
소 녀</w>
가까 이</w>
주 지</w>
当 中</w>
줄 곧</w>
응 답</w>
军 方</w>
车 辆</w>
至 少</w>
唯 一</w>
적 절</w>
관 측</w>
空 间</w>
集 体</w>
지 정</w>
공 공
习 惯</w>
인 민
高 丽</w>
1 0%</w>
c m</w>
방 지</w>
畿 道</w>
最 低</w>
委 托</w>
京 畿道</w>
다 소</w>
大 学生</w>
만 의</w>
대 전</w>
입 국</w>
气 氛</w>
国务 卿</w>
거 래
对 外</w>
그 대</w>
투 어</w>
모 자</w>
리 트</w>
위 성</w>
귀 국</w>
집 안</w>
脸 上</w>
들 리</w>
姐 姐</w>
代 替</w>
活 跃</w>
验 证</w>
连 接</w>
g m</w>
변 호사</w>
손 실</w>
热 情</w>
멤 버</w>
여 당</w>
道 歉</w>
손 에</w>
愿 意</w>
地 球</w>
义 务</w>
상 하
파 병</w>
百 货</w>
취 하</w>
爆 炸</w>
场 所</w>
자 신
갈 수록</w>
支 持
는 다는</w>
작 성</w>
도 쿄</w>
국방 위원장</w>
챔 피
大 众</w>
자 국</w>
i on</w>
类 似</w>
中 间</w>
헌 법</w>
공 화
아프 리카</w>
강 의</w>
구 축</w>
뜨 리</w>
中 国人</w>
자 격</w>
인 재</w>
소 장</w>
일 어나</w>
做 好</w>
本 垒
本垒 打</w>
접 근</w>
특 정</w>
교 류</w>
우 수</w>
강 산</w>
h o
忘 记</w>
기 의</w>
i g
투 쟁</w>
신 경</w>
보 아</w>
很 快</w>
战 斗</w>
분 간</w>
클 린
정 책
말 씀</w>
务 部</w>
大 米</w>
은 데</w>
비 록</w>
眼 泪</w>
助 理</w>
상 징</w>
어 선</w>
있 을까</w>
장 비</w>
화 물</w>
향 후</w>
비행 기</w>
不 良</w>
발 행</w>
자 본</w>
복 지</w>
매 장</w>
만 을</w>
合 并</w>
동 물</w>
에게 서</w>
才 是</w>
클린 턴</w>
진 짜</w>
冲 突</w>
한 데</w>
내 지</w>
성 화</w>
체 계</w>
측 면</w>
使 馆</w>
건 의</w>
여 서</w>
e a</w>
내 기</w>
채 용</w>
杂 志</w>
韩国 和</w>
朴智 星</w>
金 刚
i a</w>
통 신
지 하
动 摇</w>
수 석</w>
标 准
怎么 样</w>
냐 고</w>
과 도</w>
差 异</w>
动 向</w>
수 행</w>
截 止</w>
취 임</w>
수 사
标 赛</w>
名 义</w>
锦 标赛</w>
刺 激</w>
진 실</w>
마 라
交 易
비 전</w>
本 报</w>
20 %</w>
购 物</w>
그래 도</w>
전 투</w>
效 率</w>
인 하</w>
也 许</w>
니 스</w>
研究 员</w>
수 정</w>
继 承</w>
하 반기</w>
退 休</w>
材 质</w>
建筑 物</w>
1 20</w>
올 라
시 내</w>
핵 실험</w>
별 도</w>
越 南</w>
m o
직 장</w>
청 년</w>
대 처</w>
周 边</w>
종 이</w>
베 트
大 宇</w>
夏 天</w>
통 보</w>
전 시</w>
인 원</w>
뿌 리</w>
임 기</w>
分 子</w>
일 자</w>
冲 击</w>
현 금</w>
결 론</w>
收 支</w>
민주 주의</w>
우리 들</w>
指 导</w>
介 入</w>
의 무</w>
辞 职</w>
货 物</w>
캐 나
웃 음</w>
연 맹</w>
伊 朗</w>
시 원</w>
혼 란</w>
민 간
예 전</w>
议 院</w>
t e
지 요</w>
소 문</w>
突 破</w>
재 단</w>
교 과
苹 果</w>
名 誉</w>
农 民</w>
观 察</w>
永 远</w>
新 加
下 半年</w>
新加 坡</w>
动 作</w>
自 杀</w>
背 景</w>
7 1</w>
인 한</w>
실 히</w>
导 体</w>
商 业</w>
金刚 山</w>
특 검</w>
지 사</w>
줄 어들</w>
시 민
우 주</w>
地 震</w>
8 8</w>
音 乐
革 命</w>
l pga</w>
워 하</w>
绿 色</w>
加 拿
l cd</w>
기 울</w>
支 出</w>
起 亚</w>
不 错</w>
审 查</w>
휴 가</w>
저 히</w>
供 应</w>
카 메
바 라
单 位</w>
兄 弟</w>
부 자</w>
대 사관</w>
两 天</w>
199 4</w>
相 当
相当 于</w>
u s
吃 饭</w>
味 道</w>
젊 은이</w>
外 部</w>
싱 가
혁 명</w>
打 破</w>
d e
캐나 다</w>
상 금</w>
监 督</w>
会 面</w>
종 류</w>
是 不是</w>
化 学</w>
c o</w>
자 랑</w>
权 利</w>
고 급</w>
커 지</w>
문 서</w>
兴 趣</w>
더 라</w>
방 북</w>
秘书 官</w>
内 阁</w>
홈 페이지</w>
影 片</w>
거 듭</w>
多 次</w>
敦 促</w>
大 邱</w>
스타 일</w>
主 人
经济 部</w>
나 치</w>
러 스</w>
宇 宙</w>
9 7</w>
그 린</w>
进 步</w>
돌 리</w>
依 然</w>
n ll</w>
收 集</w>
시 장
餐 厅</w>
政 治
대 결</w>
기 획
싱가 포
论 文</w>
经 营
加拿 大</w>
점 수</w>
奶 奶</w>
이 승
转 换</w>
요 금</w>
연 합
贡 献</w>
조 사
保 守</w>
说 法</w>
저 지</w>
退 出</w>
년 도</w>
法 官</w>
后 来</w>
北 方</w>
명 령</w>
半 导体</w>
지 내</w>
무 부</w>
适 当</w>
싱가포 르</w>
铁 路</w>
过 分</w>
夫 人</w>
入 学</w>
为 此</w>
呈 现</w>
听 说</w>
사무 실</w>
사 인</w>
上 市</w>
爆 发</w>
播 出</w>
기 소</w>
실 질</w>
상 승
긍 정</w>
금 강산</w>
와 는</w>
타 임스</w>
t o
재 미
缺 乏</w>
둘 러
끝 내</w>
부 진</w>
合 理</w>
모 님</w>
기 초</w>
홈 런</w>
期 限</w>
대 하</w>
细 胞</w>
单 独</w>
此 后</w>
장 과</w>
소 득
如 今</w>
고 생</w>
미 리</w>
충 돌</w>
那 种</w>
大 使馆</w>
严 格</w>
대 구</w>
出 台</w>
等 级</w>
클 럽</w>
遗 产</w>
安 打</w>
김 대중</w>
机 器</w>
외교 부</w>
丰 富</w>
점 검</w>
분 위</w>
책 임
가 자</w>
论 坛</w>
경 선</w>
어린 이</w>
仅 仅</w>
7 6</w>
추 세</w>
哪 儿</w>
이 동</w>
언 어</w>
상하 이</w>
财 团</w>
9 00</w>
劳动 党</w>
지 로</w>
종 일</w>
动 力</w>
重 视</w>
기 념</w>
更 好</w>
마 저</w>
부 터
논 문</w>
为 由</w>
过 于</w>
7 8</w>
해 소</w>
风 波</w>
는 다고</w>
신 용</w>
红 色</w>
满 足</w>
到 处</w>
집 행</w>
到 达</w>
유 출</w>
추 천</w>
동 료</w>
거 기</w>
쇼 핑</w>
百 分
主人 公</w>
치 고</w>
사랑 을</w>
事 态</w>
주 재</w>
한 가</w>
반도 체</w>
경 계</w>
추진 하</w>
계 의</w>
超 越</w>
보 건
구 상</w>
p d</w>
가 면</w>
整 理</w>
정 의</w>
강 도</w>
들 어서</w>
자 치
살 아
李 承
前 面</w>
团 结</w>
逮 捕</w>
绑 架</w>
종 목</w>
셔 츠</w>
부 모님</w>
고 개</w>
만 여</w>
시 가</w>
表 达</w>
备 受</w>
co m</w>
생 활
不得 不</w>
세 가</w>
개 가</w>
s i</w>
수 리</w>
学 者</w>
차 관
공 정</w>
선 박</w>
有 力</w>
重 点</w>
교 통</w>
해 외
심 하</w>
良 好</w>
역 대</w>
베트 남</w>
市 长</w>
이 어지</w>
어 깨</w>
合 适</w>
职 位</w>
意 大
덕 분</w>
i p
스 터</w>
这 儿</w>
促 进</w>
연 금</w>
联合 会</w>
每 次</w>
안 팎</w>
축 하</w>
급 증</w>
每 月</w>
其 实</w>
중 간</w>
春 天</w>
焦 点</w>
然 而</w>
환 영</w>
플 레이</w>
案 件</w>
티 즌</w>
진 입</w>
사 안</w>
불 편</w>
天 空</w>
타 격</w>
조 기</w>
자 식</w>
일 찍</w>
울 리</w>
短 期</w>
少 女</w>
상 대
黑 色</w>
사이 즈</w>
申 报</w>
遭 受</w>
이상 이</w>
解 除</w>
판 사</w>
코 리아</w>
견 해</w>
정 안</w>
형 식</w>
교과 서</w>
阳 光</w>
传 唤</w>
주 제</w>
这 位</w>
돌아 오</w>
이 사회</w>
要 性</w>
직 전</w>
깊 이</w>
카메 라</w>
白 色</w>
9 000</w>
国 情</w>
국 방</w>
아 진</w>
本 人</w>
지 분</w>
그렇 지</w>
군 대</w>
意大 利</w>
实 上</w>
事 实上</w>
아 시아
就 任</w>
맞 추</w>
球 迷</w>
优 势</w>
履 行</w>
国 税</w>
代表 性</w>
허 리</w>
완 성</w>
상 하</w>
选 定</w>
다 이
긴 급</w>
高 考</w>
抵 达</w>
의 료</w>
账 户</w>
定 性</w>
정상 회의</w>
o o
前 任</w>
제 목</w>
일 간</w>
데 이
수 수
남 녀</w>
7 7</w>
불 어</w>
장 사</w>
士 兵</w>
8 2</w>
聚 会</w>
취 소</w>
i r
i l
끌 어
영 업</w>
새 벽</w>
韩 美军</w>
司 法</w>
개 편</w>
종 합
온 라인</w>
네 티즌</w>
3 0%</w>
7 3</w>
살 리</w>
기 만</w>
우 스</w>
화 재</w>
초 등학교</w>
反 复</w>
停 留</w>
火 灾</w>
看 看</w>
强 硬</w>
해 상</w>
빠 진</w>
담 회</w>
너 희</w>
冬 天</w>
留 学</w>
泰 国</w>
失 误</w>
理 论</w>
照 顾</w>
下 达</w>
d i</w>
高 度</w>
全 力</w>
경기 장</w>
다 섯</w>
달 성</w>
女 士</w>
生 产
이 것
예 측</w>
夫 妇</w>
석 유</w>
국무 부</w>
행 정부</w>
承 担</w>
지 대</w>
직 업</w>
부 품</w>
치 열</w>
武 装</w>
政 部</w>
很 高</w>
대 기</w>
风 格</w>
수 영</w>
公 路</w>
d a</w>
认 真</w>
소 프
详 细</w>
预 防</w>
유 학</w>
同 一</w>
예 술</w>
命 令</w>
무 시</w>
199 5</w>
형 성</w>
方 便</w>
오 랫
오랫 동안</w>
通 报</w>
双 龙</w>
身 边</w>
계 좌</w>
갖 추</w>
显 得</w>
제 의</w>
야 지</w>
派 兵</w>
结 算</w>
인 용</w>
나 이
流 通</w>
언제 나</w>
지 진</w>
선 전</w>
可 以
可以 说</w>
결 의</w>
강 남</w>
지 나치</w>
이 든</w>
찬 성</w>
부 서</w>
허 가</w>
구 하</w>
纪 念
평 화
复 杂</w>
엄 청</w>
防 守</w>
开 展</w>
随 时</w>
차 로</w>
帝 国</w>
予 以</w>
199 6</w>
제 거</w>
通 常</w>
之 际</w>
균 형</w>
保 健</w>
흑 자</w>
예 방</w>
웨 이</w>
到 来</w>
시 간
보 상</w>
大 多数</w>
조 성</w>
이 탈
운 전</w>
发 送</w>
登 上</w>
주 자</w>
수 비</w>
권 리</w>
行 车</w>
무 게</w>
下 雨</w>
满 意</w>
引 入</w>
에 다</w>
朝 野</w>
도 발</w>
象 征</w>
국 적</w>
누 리</w>
잡 지</w>
줄 기</w>
말 이다</w>
디 지
出 版</w>
订 购</w>
투 명</w>
일본 에</w>
이 래</w>
서 의</w>
한국 어</w>
지 점</w>
常 任</w>
인 민</w>
대 학생</w>
구 역</w>
듯 하</w>
아무 런</w>
游 泳</w>
자 극</w>
아 기</w>
답 변</w>
凌 晨</w>
사 기</w>
화 장
대 폭</w>
임 명</w>
스 크
최 소</w>
이 른
이른 바</w>
会 儿</w>
특 수</w>
祖 国</w>
죽 음</w>
한 마디</w>
欧 盟</w>
复 苏</w>
현 안</w>
만 하</w>
촛 불</w>
演 技</w>
해 보</w>
연 출</w>
我 会</w>
i c</w>
내 정</w>
并 非</w>
활 약</w>
전 공</w>
동 아
暴 涨</w>
农 村</w>
자 살</w>
自 动</w>
新 年</w>
통 계</w>
주 최</w>
请 求</w>
保 证</w>
끊 임
화 려</w>
정 원</w>
질 서</w>
追 求</w>
프로 젝
任 期</w>
정 하</w>
들어 오</w>
아 예</w>
停 滞</w>
경제 부</w>
초 기</w>
幅 度</w>
u r
마 침
안 이</w>
艰 难</w>
去 世</w>
체 포</w>
주 한
미 디어</w>
面 积</w>
内 需</w>
공 산
자 라</w>
学 家</w>
不 再</w>
후 반</w>
데 요</w>
연 말</w>
아 프</w>
司令 部</w>
대 단히</w>
19 80</w>
동 북
9 6</w>
주 어</w>
대 우</w>
으로 서</w>
대 학
눈 길</w>
挑 衅</w>
一 旦</w>
그 만큼</w>
k t
범 위</w>
논 리</w>
赞 成</w>
진 술</w>
그 만</w>
迁 移</w>
평 생</w>
농 구</w>
조 각</w>
어 라</w>
西 海</w>
민 호</w>
추 적</w>
一 同</w>
훌 륭</w>
멀 리</w>
仔 细</w>
年 薪</w>
태 국</w>
영 향
신 당</w>
할 아버지</w>
他 人</w>
체 육
独 自</w>
문 학</w>
文 学</w>
一 张</w>
화 해</w>
혁 신</w>
计 算</w>
视 频</w>
咖 啡</w>
印 象</w>
一 只</w>
브리 핑</w>
7 9</w>
연 예
부 리</w>
철 수</w>
露 出</w>
东 北
上 班</w>
철 도</w>
일 으
겨 우</w>
알 리</w>
睡 觉</w>
乔 治</w>
환 경
西 亚</w>
当 作</w>
일으 키</w>
商 部</w>
정치 인</w>
곳 곳</w>
通 商部</w>
t o</w>
9 2</w>
근 본</w>
그 럼</w>
공 기업</w>
股 东</w>
交 给</w>
과 연</w>
自 行车</w>
설 득</w>
재미 있</w>
阿 拉
붙 이</w>
발 휘</w>
整 体</w>
演 习</w>
地 上</w>
이탈 리아</w>
공 정
指 挥
언 론
간 담회</w>
소 화</w>
两 位</w>
8 7</w>
거 두</w>
완 전</w>
시 계</w>
수 많</w>
改 编</w>
影 响
독 립</w>
影响 力</w>
본 인</w>
安 全
限 度</w>
南 方</w>
代表 队</w>
阿 富
阿富 汗</w>
西 方</w>
2 50</w>
구 멍</w>
가 로</w>
秩 序</w>
선 고</w>
为 主</w>
풍 부</w>
다 지</w>
之 所以</w>
입 은</w>
문 장</w>
기 적</w>
翻 译</w>
西 班
自 信</w>
리 스트</w>
系 列</w>
确 实</w>
5 0%</w>
피 스</w>
농 민</w>
코 치</w>
차 장</w>
进 展</w>
편 안</w>
기 차</w>
肚 子</w>
변 경</w>
명 단</w>
结 论</w>
국회 의원</w>
가 야</w>
非 洲</w>
真 实</w>
实 在</w>
一 带</w>
수 상</w>
나 중</w>
가 가</w>
열 차</w>
가 난</w>
路 线</w>
标准 杆</w>
투 수</w>
看 起来</w>
소 환</w>
마라 톤</w>
적 도</w>
에게 도</w>
劳 资</w>
总 部</w>
是 从</w>
토 지</w>
전 자
크 기</w>
以 为</w>
혜 택</w>
남 자
太 多</w>
노 총</w>
유 럽
크 리스
주 인공</w>
协 助</w>
8 1</w>
효 율</w>
火 箭</w>
커 피</w>
单 纯</w>
세 포</w>
年 来</w>
迎 接</w>
证 会</w>
부터 는</w>
听 证会</w>
农 业</w>
강 남
娱 乐</w>
锦 涛</w>
실 현</w>
胡 锦涛</w>
均 衡</w>
보 험
领导 层</w>
마음 속</w>
可 爱</w>
캠 프</w>
而 已</w>
尚 未</w>
한 계</w>
分 数</w>
一 片</w>
流 行</w>
搜 查</w>
식 량</w>
매 각</w>
마침 내</w>
利 息</w>
克 林
沉 没</w>
미 지</w>
프로젝 트</w>
지 불</w>
有 着</w>
害 者</w>
끼 리</w>
统 治</w>
各 地</w>
원 내</w>
개 막</w>
火 车</w>
海 上</w>
자신 감</w>
조 작</w>
단 속</w>
许 可</w>
수 입
오 지</w>
스 키</w>
극 장</w>
일 도</w>
收 受</w>
시 청</w>
总 长</w>
免 费</w>
偿 还</w>
입 학</w>
休 假</w>
건 축</w>
管 制</w>
进 攻</w>
庆 典</w>
스 위
比 例</w>
t r
프 리
看 来</w>
实 验</w>
检察 官</w>
症 状</w>
취 재</w>
장 애
家 长</w>
日 期</w>
地 铁</w>
空 军</w>
9 4</w>
一 条</w>
주 위</w>
어 리</w>
讨 厌</w>
플 레이
프 리</w>
투자 자</w>
电 影
正 规</w>
여 금</w>
복 잡</w>
고 위
从 事</w>
차 기</w>
노동 당</w>
중 대</w>
달 러
运动 员</w>
不 如</w>
움직 이</w>
k t</w>
비 상</w>
파 리</w>
克林 顿</w>
交 换</w>
관 객</w>
萧 条</w>
从 来</w>
20 11</w>
보 관</w>
宗 教</w>
军 人</w>
事 先</w>
l e</w>
폐 기</w>
雇 用</w>
否 认</w>
기 부</w>
团 长</w>
용 기</w>
중국 어</w>
篮 球</w>
군 가</w>
好 转</w>
압 력</w>
기 반</w>
邮 件</w>
法 务部</w>
흐 름</w>
日 益</w>
总 额</w>
半 场</w>
트 리</w>
연 봉</w>
아 보</w>
练 习</w>
국 세
入 境</w>
수 요</w>
院 内</w>
更 换</w>
장 인</w>
팀 장</w>
득 점</w>
物 品</w>
자 고</w>
인 과</w>
어 찌</w>
什 么
전 거</w>
인 도
认 可</w>
不 够</w>
습 관</w>
고 려
刊 登</w>
分 裂</w>
储 备</w>
차 단</w>
기 아
최 선</w>
노 선</w>
本 国</w>
제 주</w>
유 도</w>
로 켓</w>
害 怕</w>
축 제</w>
关 键</w>
m e
합 격</w>
매 달</w>
4 0
不 得</w>
大 门</w>
예 선</w>
피 해
障 碍</w>
自 我</w>
수 수</w>
승 인</w>
부 실</w>
냄 새</w>
条 款</w>
상당 히</w>
한 때</w>
서 해</w>
협 조</w>
주 머니</w>
부 러</w>
메 일</w>
자 전거</w>
속 이</w>
가 볍</w>
따 로</w>
부 총리</w>
优 惠</w>
키 우</w>
暴 露</w>
증 가
교 환</w>
감 시</w>
b o
a d
즉 각</w>
财 政部</w>
희 생</w>
반 복</w>
감 동</w>
학 습</w>
事 项</w>
노동 자</w>
측 근</w>
영향 력</w>
快 乐</w>
p c</w>
누 군가</w>
경 비</w>
감 염</w>
泡 菜</w>
이 틀</w>
说 服</w>
거 짓
审 议</w>
几 年</w>
决 议</w>
8 3</w>
警察 厅</w>
拘 捕</w>
대 국</w>
가 방</w>
厅 长</w>
오 늘
납 치</w>
은 행
진 단</w>
급 등</w>
微 笑</w>
反 驳</w>
难 道</w>
일본 인</w>
올라 가</w>
수 치</w>
청 구</w>
명 언</w>
想 象</w>
快 速</w>
一 度</w>
그 곳</w>
运 输</w>
응 원</w>
思 考</w>
일 각</w>
이 내</w>
旁 边</w>
브라 질</w>
苦 恼</w>
不 住</w>
집 계</w>
지 원
이것 이</w>
마 케
가 동</w>
部 署</w>
미 터</w>
韩 语</w>
电 力</w>
征 收</w>
목 숨</w>
保 留</w>
미 안</w>
경 주</w>
月 初</w>
고 속
화 학</w>
경 기도</w>
강 제</w>
한 일</w>
生 日</w>
运 行</w>
一 生</w>
취 지</w>
산 물</w>
风 险</w>
百分 点</w>
거 지</w>
饮 食</w>
전 이</w>
主 持</w>
본 사</w>
명 과</w>
i o
8 9</w>
세 로</w>
西班 牙</w>
舒 服</w>
해 안</w>
리 즈</w>
개 로</w>
干 净</w>
구조 조정</w>
침 몰</w>
침 해</w>
次 官</w>
이 행</w>
记 忆</w>
차 별</w>
영 화
东北 亚</w>
수 익</w>
崩 溃</w>
局 势</w>
桌 子</w>
开 幕</w>
中 东</w>
해 명</w>
아 니
光 州</w>
정 식</w>
재 정
毕 业
일 종</w>
향 상</w>
집 권</w>
수 로</w>
로 스</w>
단 어</w>
通 用</w>
一 事</w>
원 화</w>
게 도</w>
市 内</w>
추 구</w>
속 히</w>
맛 있</w>
对 决</w>
한 은</w>
대 단</w>
형 제</w>
一 周</w>
즉 시</w>
전 년</w>
의 료
赔 偿</w>
燃 料</w>
에 겐</w>
시 사</w>
리 스</w>
단 순</w>
登 记</w>
표 명</w>
즐 거
s u
지 지
本 次</w>
拉 里</w>
拿 出</w>
지 연</w>
일 치</w>
디지 털</w>
采 用</w>
지 인</w>
진 보</w>
전 시
백 악
装 置</w>
식 물</w>
d m
해 양</w>
饭 店</w>
신 발</w>
선 두</w>
요 원</w>
항 의</w>
양 측</w>
마 감</w>
赤 字</w>
선 이</w>
地 下</w>
진 전</w>
마 세</w>
观 点</w>
넘 기</w>
国 内外</w>
一 季度</w>
开 设</w>
대 북
9 1</w>
과 일</w>
巴 西</w>
表 面</w>
국무 총리</w>
筹 集</w>
后 面</w>
아무 도</w>
본 보</w>
구 름</w>
아 마
事 务
空 气</w>
조 합</w>
急 剧</w>
조 만
英 雄</w>
원 대</w>
소 유</w>
가 죽</w>
回 忆</w>
돌 파</w>
내 내</w>
조만 간</w>
잘 하</w>
强 大</w>
厘 米</w>
백악 관</w>
주한 미군</w>
스 페인</w>
白 宫</w>
d j</w>
특 징</w>
아름 답</w>
组 长</w>
担 保</w>
가 요</w>
理 事</w>
차관 보</w>
愤 怒</w>
各 自</w>
위 축</w>
선 진</w>
车 站</w>
조 항</w>
早 上</w>
거짓 말</w>
区 域</w>
强 化</w>
요 소</w>
없 애</w>
검 찰
投 机</w>
v e</w>
8 4</w>
서울 시</w>
단 독</w>
不 幸</w>
드 라</w>
艺 人</w>
성 인</w>
法 庭</w>
意 图</w>
높 아지</w>
느 라</w>
다 시
끊임 없이</w>
항 공
임 원</w>
청 사</w>
어 른</w>
概 念</w>
다 하</w>
마케 팅</w>
9 3</w>
愉 快</w>
유 행</w>
김 치</w>
부 로</w>
革 新</w>
巡 回
범 인</w>
民主 化</w>
待 遇</w>
不 多</w>
转 变</w>
내 세</w>
这 项</w>
困 境</w>
博 物
大 楼</w>
모 으</w>
조금 도</w>
慢 慢</w>
하 여금</w>
머 리
姿 态</w>
공 약</w>
监 视</w>
参 谋</w>
관 련
초 반</w>
是 以</w>
巡回 赛</w>
장 애</w>
서 야</w>
约 翰</w>
尖 端</w>
诞 生</w>
强 行</w>
태 양</w>
强 制</w>
대 장</w>
总 会</w>
决 议案</w>
심 판</w>
세계 의</w>
세 트</w>
대 부</w>
q u
상 임
早 晨</w>
스 코</w>
爷 爷</w>
이 스</w>
萎 缩</w>
미 소</w>
表 决</w>
창 출</w>
즐 기</w>
感 染</w>
不 见</w>
비 정</w>
气 候</w>
대 선
운 명</w>
首 位</w>
大 法院</w>
수 원</w>
指 挥</w>
领 土</w>
长 的</w>
重 建</w>
바 람
补 偿</w>
模 式</w>
峰 会</w>
提 到</w>
199 2</w>
식 이</w>
暴 跌</w>
优 先</w>
철 저</w>
데 뷔</w>
很 久</w>
c j</w>
박 물
播 放</w>
전 화
스 토
论 是</w>
少 数</w>
총 회</w>
이상 을</w>
아 마</w>
失 业</w>
문 자</w>
通 话</w>
污 染</w>
通 讯</w>
轻 松</w>
사 퇴</w>
거 대</w>
시 인</w>
浪 费</w>
企 业
一 会儿</w>
출 국</w>
意 向</w>
博物 馆</w>
군 인</w>
辛 苦</w>
打 出</w>
지 하</w>
도 청</w>
1 30</w>
저 희</w>
박물 관</w>
설 비</w>
붕 괴</w>
동 력</w>
海 岸</w>
主 人</w>
여 자
신 호</w>
协 调</w>
体 验</w>
지 검</w>
방 해</w>
의 존</w>
希 拉里</w>
专 辑</w>
점 차</w>
중 시</w>
신 임</w>
중 의</w>
결 승</w>
s p
多 么</w>
传 闻</w>
신 종</w>
숫 자</w>
家 伙</w>
잘 못
잘못 된</w>
刑 事</w>
牺 牲</w>
下 属</w>
러 리</w>
부 회장</w>
곧 바로</w>
数 据</w>
드러 나</w>
否 定</w>
주 택
不 用</w>
e c</w>
冬 季</w>
이 의</w>
温 暖</w>
成 熟</w>
三 国</w>
오 빠</w>
청 장</w>
释 放</w>
여 건</w>
분 양</w>
定 为</w>
学 会</w>
서 민</w>
大 厦</w>
훼 손</w>
연 료</w>
쌍 용</w>
c n
패 션</w>
손 가락</w>
지 휘</w>
预 定</w>
한 지</w>
시 리즈</w>
有 时</w>
챔피 언</w>
몰 아</w>
适 应</w>
现 任</w>
初 中</w>
지 표</w>
매 체</w>
损 害</w>
便 宜</w>
什么 样</w>
가 시</w>
员 国</w>
制 造
丰 田</w>
착 수</w>
看 见</w>
한 참</w>
포 럼</w>
무 성</w>
내 수</w>
比 亚</w>
做 法</w>
흐 르</w>
조 절</w>
영 업
毕业 生</w>
主 权</w>
그 래</w>
国 籍</w>
예 술
격 차</w>
거 라</w>
评 估</w>
느 냐는</w>
광 주</w>
축 소</w>
간 단</w>
인 류</w>
打 电话</w>
异 常</w>
고 문</w>
생 존</w>
체 력</w>
싸 우</w>
문 제
개 정안</w>
시 선</w>
비 준</w>
드러 내</w>
노 사</w>
陆 军</w>
前 提</w>
飞 行</w>
通 知</w>
진 지</w>
秘 书</w>
깨 끗</w>
指 标</w>
济 州</w>
보 유
합 동</w>
体 重</w>
体 力</w>
태 평양</w>
개 인
慎 重</w>
业 者</w>
第二 天</w>
积 累</w>
呼 吸</w>
支持 率</w>
결 제</w>
人 均</w>
자유 무역
过 度</w>
연 주</w>
우 주
아 빠</w>
서 류</w>
란 히</w>
管 理
선 생</w>
家 族</w>
호 소</w>
命 运</w>
伦 敦</w>
모 집</w>
黄 金</w>
谢 谢</w>
热 潮</w>
파 이
而 言</w>
忧 虑</w>
内 心</w>
통 하</w>
방 한</w>
결 의안</w>
外 面</w>
亲 信</w>
컬 러</w>
공 군</w>
아 르
脱 离</w>
복 지
국 면</w>
이 건</w>
병 력</w>
有 望</w>
f i
벌 어지</w>
돼 지</w>
가 루</w>
a b
언 니</w>
列 车</w>
타 자</w>
妥 协</w>
출 마</w>
有 趣</w>
침 대</w>
왜 곡</w>
여 유</w>
분 리</w>
던 지</w>
권 한</w>
처 지</w>
원 가</w>
두 산</w>
전 선</w>
자 동</w>
이 웃</w>
뛰 어
现 行</w>
동 기</w>
生 意</w>
哪 个</w>
里 面</w>
f c</w>
쓰 지</w>
시 의</w>
나 마</w>
间 谍</w>
점 유
提 及</w>
속 담</w>
群 众</w>
협 의회</w>
분 노</w>
信 心</w>
조 용
尼 亚</w>
인 권
하나 로</w>
어 두</w>
런 던</w>
점유 율</w>
새 해</w>
만 날</w>
철 저히</w>
망 치</w>
공 감</w>
金 钱</w>
为 期</w>
汇 款</w>
m d</w>
워 크</w>
花 费</w>
남 기</w>
失 望</w>
배 제</w>
这 家</w>
现 状</w>
走 向</w>
着 手</w>
收 益</w>
怎么 办</w>
서 둘</w>
观 光</w>
关 税</w>
헌 법
嫌 疑
名 牌</w>
그 릇</w>
鼓 励</w>
물 리</w>
몹 시</w>
처 분</w>
运 用</w>
한국 은행</w>
만 일</w>
行 使</w>
20 20</w>
下 面</w>
중 동</w>
理 念</w>
交 通
책 상</w>
완 벽</w>
경찰 청</w>
缩 小</w>
分 为</w>
규 명</w>
산 하</w>
1 200</w>
敏 感</w>
멕 시
구 호</w>
전 후</w>
병 을</w>
단 장</w>
别 的</w>
a p</w>
罚 款</w>
최 대한</w>
相 应</w>
유 명
路 上</w>
于 是</w>
여 지</w>
명 예</w>
垃 圾</w>
d o
품 질</w>
对 待</w>
마 크</w>
p o
일 과</w>
거 절</w>
확 히</w>
墨 西
心 中</w>
销 量</w>
한 창</w>
好 吃</w>
夫 妻</w>
위 하여</w>
실 천</w>
규 칙</w>
号 码</w>
中 旬</w>
여 론
수 십</w>
출 산</w>
l a
k os
捐 赠</w>
得 出</w>
확 실히</w>
沟 通</w>
不 行</w>
存 款</w>
상 식</w>
농 촌</w>
군 요</w>
框 架</w>
前 进</w>
무 려</w>
李承 烨</w>
착 용</w>
제 정</w>
국세 청</w>
轻 易</w>
오 기</w>
원 단</w>
其 它</w>
공 조</w>
대 량</w>
전 남</w>
경제 위기</w>
u s</w>
질 병</w>
켜 보</w>
가 르
… …</w>
파 괴</w>
동 아시아</w>
正 是</w>
展 望</w>
南 部</w>
上 去</w>
주 력</w>
는 다면</w>
生 气</w>
예 고</w>
너 스</w>
실 업</w>
금융 시장</w>
贝 尔</w>
收 取</w>
进 球</w>
想 起</w>
적 발</w>
最 高
学 费</w>
지 르</w>
上 周</w>
动 员</w>
소 통</w>
글 자</w>
回 合</w>
타 이</w>
歪 曲</w>
현 행</w>
감 축</w>
深 刻</w>
受 害者</w>
이 스
나 지</w>
고 인</w>
경제 협력</w>
k a
오 픈</w>
미 만</w>
地 点</w>
b a</w>
생 일</w>
演 奏</w>
体 现</w>
감 기</w>
재 료</w>
作 业</w>
k e
도 대체</w>
문 회</w>
무 릎</w>
正 当</w>
어 놓</w>
队 伍</w>
代 理</w>
기 여</w>
형 편</w>
전 사</w>
일 반
구 속
移 交</w>
k b
스트 레스</w>
기 와</w>
2 500</w>
영 역</w>
发 放</w>
i a
분 쟁</w>
오 염</w>
同 学</w>
제 조</w>
其 是</w>
오 리</w>
근 로</w>
전 원</w>
10 .
지난 주</w>
侵 犯</w>
자 본
중 구</w>
阵 营</w>
转 让</w>
조 국</w>
관 중</w>
招 聘</w>
感 动</w>
제 작
로 잡</w>
软 件</w>
百 姓</w>
党 内</w>
채 널</w>
여 사</w>
结 合</w>
韩国 语</w>
感 受</w>
人 群</w>
번 에</w>
葡 萄
尸 体</w>
和 解</w>
道 德</w>
共 同
탄 생</w>
증 권
蔚 山</w>
无 关</w>
持 有</w>
妹 妹</w>
치 르</w>
무 장</w>
尤 其是</w>
한 류</w>
연예 인</w>
广 泛</w>
完 美</w>
代 价</w>
战 术</w>
로 써</w>
계 약
韩 方</w>
目 光</w>
대 원</w>
大 田</w>
新 党</w>
면 적</w>
悲 伤</w>
植 物</w>
当 事
图 书
유 일한</w>
세 종</w>
국 정
建 造</w>
토 록</w>
택 시</w>
密 切</w>
유 통</w>
보 안</w>
바라 보</w>
만 들
病 毒</w>
留 学生</w>
쓰 레
明 白</w>
太 平
有 利</w>
초 과</w>
获 胜</w>
一 句
顺 序</w>
出 场</w>
公 职</w>
核 化</w>
一句 话</w>
스 티
다음 달</w>
身 高</w>
내 야</w>
남 쪽</w>
자유무역 협정</w>
해 제</w>
주 한</w>
권 자</w>
경 남</w>
性 质</w>
夺 冠</w>
오 해</w>
에 야</w>
熟 悉</w>
동북 아</w>
공 공</w>
스 크</w>
분 류</w>
종 교</w>
일 인</w>
1 10</w>
과 목</w>
超 级</w>
以 色
尊 重</w>
前 后</w>
以色 列</w>
부 채</w>
밤 에</w>
谈 会</w>
依 靠</w>
何 时</w>
유 력</w>
예 쁘</w>
移 民</w>
地 面</w>
충 남</w>
총 액</w>
구 단</w>
用 户</w>
th e</w>
영 웅</w>
건 너</w>
검 색</w>
전 용</w>
수 집</w>
千 万</w>
이승 엽</w>
시 합</w>
대 목</w>
财 务</w>
秋 天</w>
无 论是</w>
含 有</w>
이 념</w>
법 정</w>
贫 困</w>
봉 사</w>
이스 라
상대 방</w>
기 본
星 期</w>
乘 客</w>
동 성</w>
石 头</w>
억 제</w>
붙 잡</w>
롯 데</w>
기업 인</w>
비 핵
발 전
손 해</w>
年 金</w>
动 机</w>
大 海</w>
国 土</w>
국 립
활 성화</w>
재 미</w>
由 此</w>
도 중</w>
离 婚</w>
일 주일</w>
自 主</w>
업 종</w>
금 이</w>
服 务
故 乡</w>
答 案</w>
천 히</w>
천 천히</w>
바 르</w>
钢 铁</w>
道 理</w>
统 合</w>
멕시 코</w>
농 업</w>
1 80</w>
司 机</w>
성 향</w>
놀 이</w>
阿拉 伯</w>
整 天</w>
得 以</w>
日 常</w>
营 销</w>
私 立</w>
투 자가</w>
이 때</w>
顺 差</w>
언 더
법 무부</w>
개 념</w>
내 각</w>
金 属</w>
理 想</w>
婚 礼</w>
바 쁘</w>
y o
지하 철</w>
教 室</w>
选 出</w>
参 观</w>
캐 릭
깜 짝</w>
企业 家</w>
캐릭 터</w>
원 히</w>
청 문회</w>
니 아</w>
回 避</w>
이 로</w>
스위 스</w>
결 혼
그 날</w>
乐 观</w>
自 治
지 위</w>
맞 서</w>
첨 단</w>
自 由
부 과</w>
上 映</w>
후 보
미국 산</w>
한 쪽</w>
미 술
회 원
뛰 어나</w>
疯 牛
疯牛 病</w>
冻 结</w>
점 도</w>
韩 流</w>
会 晤</w>
유 산</w>
열 기</w>
곤 란</w>
지 켜보</w>
共和 国</w>
이 혼</w>
심 장</w>
노 출</w>
订 单</w>
暗 示</w>
승 진</w>
라 디오</w>
太平 洋</w>
卫 生</w>
始 终</w>
합 리</w>
지 어</w>
월 드</w>
每 周</w>
平 民</w>
季 节</w>
e s
雇 佣</w>
汉 语</w>
스 피
빌 딩</w>
요 성</w>
条 约</w>
협 력
이 젠</w>
단 위</w>
第 四</w>
수 요
사 법
l i
매 매</w>
中 区</w>
20 14</w>
방 어</w>
미 국인</w>
水 果</w>
a i
제조 업</w>
아 산</w>
友 好</w>
6 0
截 至</w>
对 不起</w>
일 시</w>
부 여</w>
뒤 집</w>
품 목</w>
폭 행</w>
구 리</w>
劳 总</w>
공화 국</w>
199 3</w>
고려 대</w>
占 有
华 丽</w>
伙 伴</w>
通 讯
伤 害</w>
폭 탄</w>
일 제
战斗 机</w>
将 军</w>
지 않</w>
정 서</w>
당 연히</w>
低 迷</w>
세 월</w>
评 论</w>
观 测</w>
看 出</w>
최 악</w>
영 원히</w>
图书 馆</w>
舞 蹈</w>
经济 学</w>
十 字</w>
스 턴</w>
보 증</w>
만 두</w>
万 吨</w>
표 준</w>
남북 관계</w>
大 小</w>
小 型</w>
婴 儿</w>
차 전</w>
비핵 화</w>
교 실</w>
恶 劣</w>
초 래</w>
옛 날</w>
부 패</w>
부 근</w>
像 是</w>
主 力</w>
谈 话</w>
화 의</w>
疑 问</w>
构 想</w>
势 头</w>
主 办</w>
네 덜
预 算
언더 파</w>
k or
근 처</w>
다 루</w>
聘 用</w>
불 이</w>
金 日
우 병</w>
열 정</w>
提 升</w>
兵 力</w>
둘러 싸</w>
께 서는</w>
결 심</w>
较 大</w>
固 定</w>
药 品</w>
체 류</w>
불 가
지 경</w>
양 보</w>
登 场</w>
체 험</w>
급 히</w>
통 화
租 车</w>
위 기
시청 자</w>
占有 率</w>
논 쟁</w>
美 术</w>
똑 같</w>
꺼 내</w>
不 利</w>
창 문</w>
사 고가</w>
故 意</w>
典 型</w>
정 해</w>
여 행
실 망</w>
리 더
巨 额</w>
大 国</w>
일 방</w>
당 연</w>
计 算
助 威</w>
신 속</w>
무 료</w>
奇 怪</w>
감 히</w>
独 特</w>
源 部</w>
항 목</w>
차 림</w>
8 0
문 의</w>
등 록
광 우병</w>
医 学</w>
김 일
金日 成</w>
비 자금</w>
그리 스</w>
轿 车</w>
게 다가</w>
突 出</w>
신 분</w>
리더 십</w>
人 家</w>
송 금</w>
感 受到</w>
海 域</w>
00 m</w>
帽 子</w>
단 체
淘 汰</w>
凭 借</w>
지도 부</w>
济 州
이 해
球 手</w>
자 금
意 外</w>
최 저</w>
위 주</w>
용 차</w>
会 计</w>
不 久
다 도</w>
s c</w>
에 요</w>
수 립</w>
장 병</w>
국내 외</w>
科 长</w>
할 인</w>
수 학</w>
返 回</w>
틀 림
심 의</w>
전 형</w>
研究 生</w>
198 8</w>
추 락</w>
연 계</w>
구 두</w>
杀 害</w>
로 비</w>
격 히</w>
필 수</w>
서 명</w>
顾 问</w>
稍 微</w>
실 은</w>
개 봉</w>
装 备</w>
欲 望</w>
朴 赞
延 世</w>
신 규</w>
交 涉</w>
하 루
병 사</w>
黄 色</w>
那 时</w>
적 의</w>
아무 것</w>
두 르</w>
코 드</w>
파 이</w>
칭 찬</w>
당 분간</w>
공 포</w>
眼 前</w>
墨西 哥</w>
터 리</w>
전 하</w>
보 장
大 约</w>
k o
a r</w>
规 则</w>
收 盘</w>
공 유</w>
那 位</w>
중 학교</w>
흥 미</w>
통 일
워 지</w>
搭 配</w>
影 像</w>
막 대</w>
洛 杉
数 学</w>
并 列</w>
7 0
풍 경</w>
개 설</w>
대 우
나 아</w>
电 站</w>
效 力</w>
荷 兰</w>
유 학생</w>
공 이</w>
房 价</w>
주 주</w>
살 해</w>
녹 색</w>
看 法</w>
书 籍</w>
도 서관</w>
화 면</w>
판 정</w>
정 기</w>
운 행</w>
불 황</w>
물 량</w>
她 们</w>
부 산
뚜 렷</w>
거 주</w>
여론 조사</w>
방 금</w>
멈 추</w>
资 源部</w>
览 会</w>
出 租车</w>
려 지</w>
강 원</w>
进 去</w>
입 구</w>
门 户</w>
感 冒</w>
那 儿</w>
实 践</w>
단 의</w>
签 证</w>
特 点</w>
洛杉 矶</w>
泡 沫</w>
我 方</w>
폐 쇄</w>
사무 총장</w>
民 党</w>
장 식</w>
엄 격</w>
드 릴</w>
네덜 란드</w>
左 派</w>
说 是</w>
진 영</w>
气 温</w>
수 의</w>
초 대</w>
기 관
후 진
반 박</w>
바이 러스</w>
몇 몇</w>
掀 起</w>
不 在</w>
形 态</w>
유 감</w>
신 입
郑 梦
선 호</w>
눈 앞</w>
纠 纷</w>
大 陆</w>
민 감</w>
返 还</w>
原 本</w>
이스라 엘</w>
산 다</w>
단 기</w>
原 油</w>
소 의</w>
重 返</w>
本 来</w>
一 人</w>
핵 문제</w>
변 하</w>
국 토</w>
防 御</w>
出 国</w>
역 사
연 극</w>
전 제</w>
웨 어</w>
相 机</w>
독 자</w>
老 板</w>
喝 酒</w>
原 材料</w>
무 관</w>
사 격</w>
画 面</w>
悬 案</w>
열 사</w>
伊 斯
아 리</w>
대 외</w>
설 정</w>
상 호</w>
我 家</w>
부 도</w>
追 究</w>
4 0%</w>
시민 단체</w>
驾 驶</w>
室 内</w>
提 案</w>
体育 场</w>
존 중</w>
自 身</w>
伟 大</w>
19 70</w>
출 근</w>
年 间</w>
고 대</w>
가 로
베 이</w>
명 예
朴 泰
토 대</w>
前 景</w>
花 样</w>
裤 子</w>
兵 役</w>
마 당</w>
权 威</w>
惊 讶</w>
퇴 직</w>
读 书</w>
无 核化</w>
an d</w>
적 합</w>
의 학</w>
어 로</w>
신 설</w>
상 관</w>
발 굴</w>
力 于</w>
口 号</w>
헌 재</w>
심 지어</w>
造 船</w>
分 离</w>
东 海</w>
조 직
저 리</w>
세 히</w>
면 담</w>
所 长</w>
为 何</w>
击 球手</w>
피 우</w>
그 저</w>
致 力于</w>
税 收</w>
弹 劾</w>
为 准</w>
스 웨
만 남</w>
成 员国</w>
육 성</w>
명 품</w>
포 장</w>
임 시</w>
이 론</w>
색 깔</w>
바 퀴</w>
매 입</w>
나 쁘</w>
증가 율</w>
타 결</w>
진 이</w>
이 거</w>
예 약</w>
年 度</w>
지 면</w>
统 计
비 싸</w>
내 주</w>
회 계</w>
즐 겁</w>
원 한</w>
박 찬
승 객</w>
衣 裙</w>
질 환</w>
도 요
야 마</w>
용 서</w>
所 需</w>
접 수</w>
배 출</w>
계 열</w>
巴 黎</w>
적 응</w>
구 도</w>
及 时</w>
장 군</w>
이 외</w>
명 분</w>
경 력</w>
각 자</w>
하 이
华 尔
불 가능</w>
저 도</w>
감 각</w>
连 衣裙</w>
e l
상 상</w>
工 具</w>
경 위</w>
街 头</w>
강 경</w>
心 脏</w>
신 화</w>
금융 회사</w>
예 금</w>
덩 이</w>
낭 비</w>
联 邦</w>
지 명</w>
너 무
공 세</w>
计算 机</w>
명 성</w>
설 계</w>
건 축
무 척</w>
越 过</w>
每 当</w>
장 점</w>
年 纪</w>
加 快</w>
기 쁨</w>
要 是</w>
人 选</w>
2 5
午 餐</w>
20 13</w>
울 산</w>
동 포</w>
浦 项</w>
所 说</w>
嫌疑 人</w>
一 方</w>
플 루
자 꾸</w>
앨 범</w>
리 오</w>
계 가</w>
牛 奶</w>
解 雇</w>
파 워</w>
고 사</w>
毫 不</w>
分 歧</w>
기 타</w>
选 民</w>
조 약</w>
누 르</w>
安 装</w>
지 배</w>
缴 纳</w>
关 闭</w>
事 前</w>
러 진</w>
窃 听</w>
传 来</w>
이 슬
국 경</w>
흔 들리</w>
외 모</w>
u t
피 곤</w>
事务 所</w>
코 트</w>
종 사</w>
오 프</w>
第 一位</w>
空 中</w>
되 도록</w>
艺 术
참 고</w>
자 제</w>
석 방</w>
바 이</w>
기 한</w>
迹 象</w>
强 国</w>
1 40</w>
现 政府</w>
혹 시</w>
펼 치</w>
마 트</w>
春 节</w>
채 무</w>
중 반</w>
守 护</w>
대 안</w>
文 字</w>
振 兴</w>
온 통</w>
안 정
고 장</w>
죽 을</w>
결 승
강남 구</w>
夏 季</w>
党 代表</w>
199 1</w>
까 지도</w>
选 赛</w>
本 书</w>
먼 트</w>
국 자</w>
지 혜</w>
실 로</w>
간 지</w>
苏 联</w>
租 赁</w>
同 事</w>
卖 场</w>
出 口
유 권</w>
소 지</w>
일 관</w>
南 非</w>
원 피스</w>
预 选赛</w>
生 物</w>
信 赖</w>
준 히</w>
사이 버</w>
꾸 준히</w>
成 人</w>
学 历</w>
198 7</w>
느 냐고</w>
助 于</w>
새 롭</w>
无 视</w>
중 순</w>
다 짐</w>
00 0
후 원</w>
m m</w>
사 용
쓰 기</w>
석 유
겨 냥</w>
증 명</w>
瑞 士</w>
피해 자</w>
전 보</w>
쓰레 기</w>
낮 추</w>
不 久</w>
玻 璃</w>
现 代
原 子
월 급</w>
세 상
몰 래</w>
둘 째</w>
양 자</w>
行 李</w>
模 特</w>
各 个</w>
니 스탄</w>
100 %</w>
1 1.
전 술</w>
박 근
专 用</w>
陈 述</w>
is t</w>
탈 락</w>
대표 단</w>
万 元</w>
후 배</w>
조 달</w>
选 举
中 日</w>
뭔 가</w>
가 라
主 角</w>
k i
教育 部</w>
其 余</w>
留 在</w>
位 居</w>
대 거</w>
开 赛</w>
직 자</w>
面 包</w>
应 当</w>
剧 场</w>
准 确</w>
박 태
a g
20 15</w>
학 기</w>
得 分</w>
육 군</w>
만 은</w>
参 赛</w>
마 약</w>
대 적</w>
负 债</w>
치 기</w>
说 道</w>
立 法</w>
점 심</w>
보 완</w>
도 덕</w>
활 발</w>
승 용차</w>
制造 业</w>
프로 야구</w>
옮 기</w>
공 적</w>
프 라</w>
키 스탄</w>
로 구</w>
缓 解</w>
多 样</w>
华尔 街</w>
般 的</w>
파 산</w>
病 人</w>
장애 인</w>
빼 앗</w>
预 备</w>
李 东
搜 索</w>
kt f</w>
기아 차</w>
경 북</w>
가 도</w>
동 결</w>
流 入</w>
전 개</w>
잖 아</w>
도 하</w>
面 貌</w>
赞 助</w>
贿 赂</w>
자치 단체</w>
성 사</w>
원 조</w>
강 연</w>
船 舶</w>
债 权</w>
영 토</w>
상 담</w>
武 力</w>
호 흡</w>
是 的</w>
彼 此</w>
外 务
통 계
롯 데
고 집</w>
总 值</w>
中 学</w>
n o
좌 우</w>
蔬 菜</w>
房 屋</w>
学 位</w>
주 식
残 疾
동 향</w>
用 品</w>
살 인</w>
有 的</w>
합 의
新 兴</w>
비 자</w>
视 率</w>
蓝 色</w>
残疾 人</w>
收 视率</w>
학 부모</w>
원 전</w>
골 프
밀 어</w>
따 지</w>
뉴 욕
出 入</w>
조 언</w>
일 상</w>
m p
泄 露</w>
학 력</w>
이 마</w>
i b
추 석</w>
여 성의</w>
동 해</w>
抑 制</w>
형 사</w>
실 종</w>
朴赞 浩</w>
惯 例</w>
活 力</w>
회원 국</w>
려 다</w>
교 과</w>
看 作</w>
正 面</w>
工 作
계 층</w>
混 合</w>
保 管</w>
주 소</w>
이 미지</w>
普 遍</w>
不 停</w>
아 동</w>
보 다도</w>
대 법원</w>
고 발</w>
完 善</w>
태 풍</w>
跟 着</w>
선 출</w>
背 后</w>
信 号</w>
인터 넷
더 러</w>
국 은</w>
通 货</w>
放 宽</w>
就 算</w>
依 次</w>
졸 업
出 面</w>
궁 금</w>
건 조</w>
커 플</w>
용 이</w>
同 胞</w>
파 도</w>
사 무</w>
有 没有</w>
安 静</w>
使 用
아이 템</w>
데 이</w>
滑 冰</w>
顶 级</w>
저 자</w>
관 세</w>
보 좌
교 섭</w>
고 양</w>
肌 肉</w>
상 점</w>
보 호
마 는</w>
대 지</w>
학 위</w>
서 가</w>
해 고</w>
치 솟</w>
의 사
엔 진</w>
에서 만</w>
원 도</w>
상 인</w>
加 油</w>
伊斯 兰</w>
유 사</w>
子 公司</w>
출 입</w>
체육 관</w>
胜 负</w>
联 网</w>
智 慧</w>
주 영</w>
안 내</w>
手 中</w>
저 의</w>
减 免</w>
수 능</w>
사령 관</w>
도 의</w>
호 의</w>
分 手</w>
之 内</w>
사 단</w>
는 데요</w>
出 资</w>
초 점</w>
세 종
박근 혜</w>
나타 내</w>
姑 娘</w>
이용 한</w>
마 스</w>
능 하</w>
그렇 다면</w>
删 除</w>
총 생산</w>
随 后</w>
警 戒</w>
진 상</w>
인 연</w>
미 래
动 性</w>
온 몸</w>
어 서는</w>
on e</w>
b e
好 几</w>
신 인</w>
神 话</w>
例 子</w>
자 민
学 期</w>
호 가</w>
이 로써</w>
这 场</w>
면 제</w>
실 행</w>
约 定</w>
徒 刑</w>
도 시
热 烈</w>
数 十</w>
交 替</w>
一 面</w>
重 复</w>
类 型</w>
必 然</w>
출 장</w>
将 来</w>
传 播</w>
f r
비 서</w>
学 术</w>
주 부</w>
정 한</w>
당 사</w>
界 线</w>
南 亚</w>
포 로</w>
김 태
面 料</w>
加 工</w>
행 진</w>
직 하</w>
회 의
수 위</w>
立 刻</w>
저 기</w>
우 유</w>
成 本</w>
峨 山</w>
정상 화</w>
먼 지</w>
가 져
注 册</w>
修 订
운 송</w>
외교 관</w>
失 踪</w>
滞 留</w>
맡 기</w>
로 도</w>
금융 기관</w>
해 체</w>
矣 岛</w>
烛 光</w>
汝 矣岛</w>
으 려고</w>
교 회</w>
拿 到</w>
카 페</w>
추 산</w>
선 배</w>
부 양</w>
郑 东
동 작</w>
계 절</w>
互 联网</w>
정 지</w>
김일 성</w>
텔레 콤</w>
연 인</w>
밀 리</w>
身 材</w>
半 天</w>
进 来</w>
有 助于</w>
프리 미
종 전</w>
나 아가</w>
上 传</w>
听 取</w>
保 安</w>
众 议院</w>
과 시</w>
引 导</w>
독 특</w>
反 省</w>
啤 酒</w>
리 기</w>
这 时</w>
음 악
바 둑</w>
济州 岛</w>
循 环</w>
保 险
民 生</w>
外交 官</w>
의 뢰</w>
공 무</w>
知 事</w>
渐 渐</w>
外务 省</w>
秘书 长</w>
散 发</w>
人 质</w>
时 尚</w>
既 然</w>
양 이</w>
시 부</w>
新 政府</w>
平 等</w>
지 기</w>
재 경</w>
일 고</w>
보좌 관</w>
배 상</w>
队 长</w>
药 物</w>
名 称</w>
交通 部</w>
主 教</w>
소 재
경 화</w>
面 试</w>
7 0%</w>
편 하</w>
촉 진</w>
국무 장관</w>
麻 烦</w>
正 常
陆 续</w>
报 导</w>
回 收</w>
배 려</w>
装 饰</w>
i p</w>
특 사</w>
연합 회</w>
台 风</w>
당 부</w>
정 규</w>
으 므로</w>
经 纪</w>
대 륙</w>
파 트
추 억</w>
유 일</w>
방 영</w>
물 품</w>
후진 타
후진타 오</w>
황 제</w>
기 원</w>
坚 决</w>
镇 压</w>
上 面</w>
키 스</w>
진 심</w>
실 무</w>
모 금</w>
共和 党</w>
격 화</w>
化 妆
김 병
非 正式</w>
增 多</w>
地 带</w>
在 家</w>
입 증</w>
먹 지</w>
좌 파</w>
国 队</w>
不 景气</w>
협 박</w>
透 明</w>
智 能</w>
출 시</w>
이 게</w>
민 생</w>
조 성
签 名</w>
从 未</w>
시청 률</w>
夺 得</w>
총 괄</w>
오 래
연 세대</w>
构 成</w>
확 장</w>
조 짐</w>
은 퇴</w>
아프 가
아프가 니스탄</w>
실 무
소 련</w>
灾 难</w>
东 盟</w>
下 子</w>
신 중</w>
远 远</w>
印 度
c c
편 성</w>
공산 당</w>
청 소</w>
성 실</w>
鼻 子</w>
公 正</w>
伦 理</w>
출 석</w>
지 휘
전 역</w>
외 치</w>
국 군</w>
战 时</w>
2 3
음 식
사 면</w>
북 경</w>
高 达</w>
赛 场</w>
인 사
战斗 力</w>
共 产
共产 党</w>
도 와
정 착</w>
동 네</w>
나 뭇
기 온</w>
癌 症</w>
복 원</w>
隐 藏</w>
신 기</w>
상 정</w>
那 天</w>
약 품</w>
교 역</w>
答 应</w>
咱 们</w>
집 값</w>
물 러
러 지</w>
下 周</w>
라 이</w>
혹 은</w>
불 량</w>
계 획
恋 人</w>
宿 舍</w>
남 부</w>
고 수</w>
通 商</w>
基 准</w>
한 미
종 로구</w>
副 作用</w>
회 수</w>
재 계</w>
달 하</w>
텔레 비전</w>
죄 송</w>
送 到</w>
究 竟</w>
p i</w>
패 배</w>
삭 제</w>
학 생
자동 차
발 급</w>
v er
자 원
김 모</w>
南 韩</w>
동 반</w>
科 学家</w>
전 의</w>
구 분</w>
数 码</w>
他 用</w>
양 식</w>
고 르</w>
较 高</w>
太 极</w>
三 天</w>
민주 화</w>
정 이</w>
상 장</w>
미 니</w>
만들 기</w>
기 쁘</w>
로 드</w>
得 了</w>
회 전</w>
포 스코</w>
연 령</w>
느 리</w>
新 鲜</w>
p os
만 으로</w>
넘 치</w>
기 하</w>
税 务</w>
演 说</w>
s h
저 장</w>
希 尔</w>
修订 案</w>
후 계</w>
편 의</w>
상 위</w>
비 로
死 了</w>
收 回</w>
역 량</w>
마 침</w>
时 刻</w>
新 型</w>
창 업</w>
이 재
郑 某</w>
港 口</w>
亏 损</w>
정신 이</w>
얼 음</w>
권 고</w>
舒 适</w>
비 서
强 度</w>
우 승
불 행</w>
급 락</w>
창 조</w>
개 별</w>
电 池</w>
救 助</w>
提 起</w>
射 击</w>
妇 女</w>
안 보
询 问</w>
座 位</w>
스 마트</w>
사 로</w>
맞 이</w>
首 发</w>
男 孩</w>
가 짜</w>
家 宝</w>
女 孩</w>
大 大</w>
b b
합 병</w>
비로 소</w>
박 수</w>
랭 킹</w>
도와 주</w>
났 다</w>
끝 났다</w>
사령 부</w>
버 그</w>
与 否</w>
입 시</w>
안 부</w>
관 점</w>
笑 容</w>
列 入</w>
박찬 호</w>
세 인</w>
公 开赛</w>
온 갖</w>
압 도</w>
방 울</w>
古 代</w>
l a</w>
찾 아가</w>
이 슈</w>
고 속</w>
作 出</w>
e c
일 요일</w>
고 소</w>
视 线</w>
강 행</w>
克 里
재 산
수 백</w>
상 사</w>
柔 软</w>
a f
대 학원</w>
날 짜</w>
说 出</w>
皇 帝</w>
周 刊</w>
k di</w>
대 체
监 狱</w>
198 9</w>
신 체</w>
대 책
n 1</w>
해 마다</w>
村 子</w>
a t</w>
화 장</w>
외 면</w>
그러 면</w>
그 치</w>
阅 读</w>
p si</w>
교육 부</w>
번 역</w>
高 于</w>
攻 势</w>
幕 式</w>
妨 碍</w>
不 敢</w>
동아 일보</w>
네 트
围 棋</w>
勇 气</w>
e n</w>
너무 나</w>
끄 럽</w>
수 익
결혼 식</w>
심 해</w>
郑东 泳</w>
자 치</w>
마 의</w>
건 강
동 영</w>
게 재</w>
犯 人</w>
야 말로</w>
데 리</w>
判 处</w>
상 무</w>
讲 述</w>
两 年</w>
이 치</w>
19 0
받 침</w>
前 来</w>
击 败</w>
汉 江</w>
婚 姻</w>
发 起</w>
발 목</w>
파 문</w>
체 인</w>
자 연
사 히</w>
떠 오르</w>
何 人</w>
비 즈
椅 子</w>
1 60</w>
차 질</w>
보 일</w>
玩 笑</w>
大 概</w>
国 际
적 당</w>
교 수
고 리</w>
게 이</w>
更 为</w>
회 동</w>
박태 환</w>
뒤 늦</w>
조금 씩</w>
오 가</w>
알 려지</w>
네 시아</w>
方 米</w>
情 景</w>
一 杯</w>
불 법
구 장</w>
风 景</w>
개 막
어 울리</w>
또 다시</w>
학 문</w>
赋 予</w>
回 归</w>
조 율</w>
朴泰 桓</w>
小 鸟</w>
主 动</w>
수요 가</w>
세 리</w>
기 상
国 语</w>
위 상</w>
법 관</w>
계 단</w>
恋 爱</w>
升 值</w>
船 只</w>
선수 권
선수권 대회</w>
내 면</w>
董 事
트 레이
料 理</w>
입 금</w>
영 광</w>
순 수</w>
변 수</w>
달 이</w>
s m</w>
중 계</w>
생산 량</w>
듣 기</w>
니 어</w>
농 담</w>
노 리</w>
肩 膀</w>
众 多</w>
무 장관</w>
관 람</w>
합 류</w>
경 향</w>
官 方</w>
w h
州 市</w>
各 位</w>
도 리</w>
경 상
개 혁
再 也</w>
지 은</w>
거 치</w>
공 학</w>
防 卫</w>
次 数</w>
化妆 品</w>
향 기</w>
주 권</w>
인도 네시아</w>
스 케
任 何人</w>
1 2.
신용 카드</w>
温 家宝</w>
콘 서
有 名</w>
8 0%</w>
分 享</w>
李 会
本 部长</w>
e s</w>
理事 会</w>
亚 太</w>
창 고</w>
매 출
膨 胀</w>
으 니까</w>
양 쪽</w>
시 판</w>
시 신</w>
순 서</w>
简 直</w>
祝 贺</w>
已 有</w>
꼬 리</w>
激 动</w>
希 腊</w>
主 任</w>
이 산
방 학</w>
执 行
国 军</w>
이 중</w>
问 卷</w>
亚 运会</w>
휴 식</w>
接 管</w>
테 러
구 경</w>
罪 犯</w>
疲 劳</w>
水 面</w>
전 직</w>
예 비</w>
신 선</w>
白 天</w>
义 者</w>
主 义者</w>
n a</w>
一 下子</w>
재 능</w>
본 선</w>
东 南亚</w>
cn n</w>
잠 깐</w>
近 期</w>
n sc</w>
세 탁</w>
城 南</w>
정 확히</w>
사무 소</w>
完 了</w>
天 然
안 녕</w>
무 지</w>
朝 鲜
从 小</w>
고 시</w>
漫 画</w>
并 未</w>
呼 吁</w>
잡 기</w>
센 트</w>
각 오</w>
私 人</w>
가 계</w>
有 限</w>
出 生
도요 타</w>
g s</w>
조 리</w>
외 신</w>
국내 총생산</w>
이 영
李 海</w>
天然 气</w>
李 相
所 得
d s</w>
우 즈</w>
기 조</w>
分 类</w>
통계 청</w>
판 이</w>
당 국자</w>
竭 尽</w>
最 快</w>
国 王</w>
一 时</w>
소 중</w>
偶 尔</w>
징 역</w>
长 大</w>
所得 税</w>
서 부</w>
무 조건</w>
遭 遇</w>
违 法</w>
炸 弹</w>
建 国</w>
지 구
저 항</w>
명 확</w>
依 赖</w>
ia ea</w>
후 회</w>
물 의</w>
한 글</w>
대북 정책</w>
대 접</w>
눈 치</w>
고 구
o t</w>
정 비</w>
분 열</w>
间 接</w>
各 样</w>
상승 률</w>
高 出</w>
a m</w>
파 티</w>
찍 이</w>
交 往</w>
민 족
干 脆</w>
이 즈
블 랙</w>
层 面</w>
힐 러리</w>
피 로</w>
토 론
유 권자</w>
안 감</w>
김 정</w>
重 要性</w>
沉 默</w>
施 工</w>
人 道</w>
세 안</w>
对 应</w>
여 대</w>
상 이</w>
맥 주</w>
身 穿</w>
耳 朵</w>
一 点儿</w>
ap ec</w>
속 사</w>
进 口
西 部</w>
例 如</w>
아이 디어</w>
뮤 지
分 之</w>
동 영상</w>
李会 昌</w>
保 存</w>
한 식</w>
晋 升</w>
好 处</w>
伍 兹</w>
c e</w>
次 长</w>
图 为</w>
2 2
도 망</w>
녀 석</w>
统计 厅</w>
업 무
议 题</w>
익 숙</w>
뛰 어들</w>
疼 痛</w>
电 台</w>
杀 人</w>
下 班</w>
星 星</w>
임 대
래 식</w>
出 于</w>
서 양</w>
菲 律
请 你</w>
u m</w>
或 许</w>
上 学</w>
较 多</w>
家 电</w>
个 别</w>
스웨 덴</w>
借 口</w>
1 300</w>
화장 품</w>
필 리
중 공업</w>
菲律 宾</w>
无 线</w>
w to</w>
i d
잃 은</w>
당 선
意 愿</w>
트 럭</w>
까 요</w>
m e</w>
주 간</w>
소프 트
고 자</w>
设 计
扣 留</w>
出 局</w>
上 台</w>
h 1
손 상</w>
함 정</w>
사 찰</w>
려 주</w>
기 대
成 分</w>
헬 기</w>
함 부로</w>
지방 선거</w>
흘 리</w>
주 관</w>
警 卫</w>
对 抗</w>
존 경</w>
수 면</w>
冷 静</w>
학 부</w>
放 心</w>
우 정</w>
라 지</w>
多 大</w>
主 妇</w>
김 종
邻 居</w>
哲 学</w>
可 怕</w>
变 更</w>
升 机</w>
한 꺼
한꺼 번에</w>
가 세</w>
直 升机</w>
毒 品</w>
하 토
하토 야마</w>
지 배
공 천</w>
庆 祝</w>
전 인</w>
사 우
그 중</w>
座 谈会</w>
강 사</w>
감 사원</w>
神 经</w>
此 事</w>
정 면</w>
묘 사</w>
구 제</w>
죽 이</w>
용 품</w>
新 生</w>
常 务</w>
k r</w>
금 은</w>
喜 爱</w>
前 辈</w>
h1 n1</w>
정 세</w>
문 구</w>
对 立</w>
잡 다</w>
利 于</w>
예 산
복 제</w>
职 工</w>
지 적도</w>
정 말로</w>
장 난</w>
시 한</w>
세상 에</w>
窗 户</w>
성 분</w>
业 率</w>
절 대로</w>
铁 道</w>
该 报</w>
자 율</w>
오 직</w>
简 称</w>
되 찾</w>
参 考</w>
시 범</w>
블 라
널 리</w>
讲 话</w>
有 线</w>
创 业</w>
흥 분</w>
잇 달</w>
스 카
서 리</w>
나 란히</w>
营 养</w>
刚 刚</w>
이 민</w>
유 전</w>
원 고</w>
로 서는</w>
抛 售</w>
장 성</w>
대 립</w>
공공 기관</w>
유 니
원 정</w>
내려 가</w>
가 깝</w>
随 之</w>
投 票
대선 자금</w>
遗 属</w>
证 实</w>
主 体</w>
소 매</w>
鱼 雷</w>
监 督
마 비</w>
收 拾</w>
优 点</w>
缺 点</w>
t er</w>
at ion</w>
숙 제</w>
람 회</w>
转 达</w>
变 动</w>
북한 군</w>
군 부</w>
개 헌</w>
电 信</w>
唱 歌</w>
연 수</w>
연 방</w>
聪 明</w>
考 生</w>
繁 荣</w>
입 주</w>
비즈 니스</w>
一 大</w>
해 준</w>
부 당</w>
너 희
色 彩</w>
신 경
逆 差</w>
施 加</w>
占 领</w>
切 断</w>
全 球
독 립
手 指</w>
付 出</w>
에 이
대 문</w>
忘 了</w>
예 외</w>
남 아
纠 正</w>
중 독</w>
신 부</w>
레이 스</w>
징 계</w>
안 고</w>
너희 들</w>
李 健
尽 量</w>
6 0%</w>
으 려</w>
도 둑</w>
대 대적</w>
调 节</w>
举 报</w>
여 름
可 见</w>
剩 余</w>
万 个</w>
偶 像</w>
人 和</w>
io c</w>
퇴 근</w>
고 등학교</w>
揭 发</w>
탄 핵</w>
전 북</w>
먹 이</w>
只 不过</w>
확 신</w>
재 원</w>
입 법</w>
수석 대표</w>
부 지</w>
콘서 트</w>
격 려</w>
脖 子</w>
1. 5</w>
스 케이
답 니다</w>
계 선</w>
剧 增</w>
회 관</w>
국 립</w>
걸 이</w>
饰 演</w>
亲 切</w>
买 卖</w>
조 류</w>
실 업
풀 리</w>
지 법</w>
양 성</w>
산 은</w>
매 니
돌 이</w>
대 리
机 械</w>
报 社</w>
m ar
지 나가</w>
신 사</w>
舰 艇</w>
星 队</w>
채 우</w>
준 기</w>
转 向</w>
改 为</w>
共 识</w>
색 상</w>
내 리
포 착</w>
티 셔츠</w>
院 子</w>
金 炳
衬 衫</w>
血 液</w>
教育 厅</w>
必 要性</w>
포 스트</w>
지 자체</w>
역 전</w>
부 드
부드 럽</w>
减 轻</w>
타 인</w>
일 찍이</w>
네트 워크</w>
공 중</w>
공 자</w>
결 합</w>
诊 断</w>
미 셸</w>
屋 子</w>
비 치</w>
不 觉</w>
전 지</w>
인 수
리 포
汉 字</w>
学 科</w>
직 면</w>
대 다수</w>
交易 所</w>
필리 핀</w>
말 하기</w>
w e
m a
소 원</w>
忍 受</w>
협 약</w>
누 나</w>
特 使</w>
下 滑</w>
1 1
홍 수</w>
철 학</w>
시 험
무 늬</w>
级 别</w>
국방 장관</w>
변 신</w>
果 断</w>
이 례</w>
葬 礼</w>
品 种</w>
专 利</w>
햇 볕</w>
평 범</w>
瑞 典</w>
差 别</w>
后 辈</w>
한 자</w>
우 라
종 종</w>
자 산
명 도</w>
近 来</w>
太 阳
墙 上</w>
f t</w>
방 위</w>
欧 元</w>
开 心</w>
9 0
증 언</w>
面 向</w>
区 别</w>
人 体</w>
체 스터</w>
장 기
이 브</w>
어 뢰</w>
둥 이</w>
兴 奋</w>
쟁 점</w>
李健 熙</w>
抵 抗</w>
잠 재</w>
근 육</w>
절 감</w>
영 입</w>
维 护</w>
정 무</w>
새 끼</w>
사랑 이</w>
中 生</w>
对 面</w>
全 都</w>
한 화</w>
으 론</w>
랑 이</w>
迪 拜</w>
绝 不</w>
眼 镜</w>
大 声</w>
伪 造</w>
전 과</w>
이즈 미</w>
우 드</w>
금 방</w>
고 이즈미</w>
援 引</w>
口 袋</w>
티 나</w>
그 건</w>
低 价</w>
ka ist</w>
증 상</w>
액 수</w>
中 期</w>
정 작</w>
보 세</w>
범 죄
안 심</w>
복 수</w>
군 중</w>
记 得</w>
单 方面</w>
바람 직하</w>
마 주</w>
그 나마</w>
预 想</w>
虚 假</w>
正常 化</w>
한 바탕</w>
长 度</w>
청 산</w>
억 류</w>
신 문
潜 力</w>
g o
투 표
입 수</w>
가 끔</w>
勉 强</w>
加 重</w>
태 우</w>
탈 출</w>
민 심</w>
收 益
形 势</w>
会 馆</w>
건 수</w>
独 裁</w>
地 图</w>
人 工</w>
재 난</w>
경 호</w>
尤 其</w>
아 끼</w>
称 赞</w>
科 目</w>
宣 传
하 면</w>
고 치</w>
物 资</w>
劝 告</w>
丧 失</w>
반 전</w>
读 者</w>
朴 世
솜 씨</w>
기 운</w>
경제 성장률</w>
成 就</w>
주 둔</w>
버 트</w>
준 수</w>
감 추</w>
d v
阵 容</w>
扮 演</w>
어 느
상 품
超 市</w>
善 良</w>
例 外</w>
넘 어가</w>
这 座</w>
不 了</w>
계 열사</w>
旨 在</w>
上 场</w>
만 만</w>
频 繁</w>
조용 히</w>
온 도</w>
대체 로</w>
당 내</w>
纤 维</w>
包 装</w>
슬 픔</w>
너 와</w>
금 속</w>
증 세</w>
주 체</w>
이슬 람</w>
수 천</w>
海 水</w>
侵 害</w>
면 접</w>
순 환</w>
숙 소</w>
바 보</w>
구 간</w>
小 姐</w>
챙 기</w>
상당 수</w>
阻 碍</w>
登 山</w>
조 문</w>
시 달리</w>
日 本
捐 款</w>
依 据</w>
p r
제 주도</w>
심 화</w>
记 者
早 就</w>
很 少</w>
m 2</w>
2 4
통 합
참 모</w>
재판 부</w>
원 유</w>
市 价</w>
减 肥</w>
여 의도</w>
대 금</w>
侵 略</w>
에서 부터</w>
어 하</w>
그 다지</w>
大 战</w>
테 인
다 듬</w>
그 제</w>
短 信</w>
情 侣</w>
임 시
扶 持</w>
벤 트</w>
버 디</w>
관 여</w>
让 步</w>
无 限</w>
일제 히</w>
솔 직</w>
年 人</w>
合 格</w>
十 年</w>
마이 너스</w>
권 력
技 术
恐 惧</w>
建 交</w>
1 3.
전 적</w>
살 짝</w>
奥 林
철 회</w>
자 면</w>
이 벤트</w>
알 아보</w>
诚 实</w>
위 인</w>
번 홀</w>
따 라
平 方米</w>
似 的</w>
최 강</w>
장 거리</w>
承 受</w>
志 愿
常 常</w>
소 속사</w>
닉 스</w>
北 部</w>
행 태</w>
고 정</w>
평 등</w>
보 급</w>
潮 流</w>
实 务</w>
채 소</w>
정 체</w>
당선 자</w>
批 判</w>
估 计</w>
상 해</w>
대 변</w>
分 公司</w>
의 제</w>
말 기</w>
黑 暗</w>
伯 特</w>
3 50</w>
오 다</w>
워 낙</w>
1 4.
이 병
도 박</w>
고 맙</w>
宗 旨</w>
出 道</w>
kor ea</w>
당 일</w>
가라 앉</w>
韩 文</w>
유 족</w>
디 션</w>
다시 는</w>
地 址</w>
博 览会</w>
리 더</w>
疫 苗</w>
发 动</w>
一 句</w>
소프트 웨어</w>
맨 체스터</w>
月 内</w>
三 星队</w>
m s</w>
한 층</w>
실 점</w>
슈 퍼</w>
本 届</w>
적 어도</w>
장 부</w>
복 구</w>
반 성</w>
灾 害</w>
c on
자 기
经 费</w>
所 在</w>
中 立</w>
下 届</w>
터 지</w>
입 원</w>
아 노</w>
가 공</w>
o f</w>
en t</w>
뛰어 넘</w>
지 붕</w>
로 의</w>
特 区</w>
毫 米</w>
圣 诞
判 定</w>
편 리</w>
거래 소</w>
i d</w>
공 통</w>
강 요</w>
天 然</w>
서 초
罕 见</w>
干 细胞</w>
일 수</w>
의 원
보 조</w>
最 新</w>
폭 로</w>
모 기</w>
대 량
随 便</w>
申 办</w>
문제 점</w>
拯 救</w>
冰 箱</w>
터 키</w>
추 위</w>
방 치</w>
과 감</w>
경기 침체</w>
施 压</w>
支 配</w>
客 户</w>
접 속</w>
行 驶</w>
带 有</w>
원 의원</w>
복 합</w>
穿 上</w>
无 数</w>
教 会</w>
描 写</w>
우 산</w>
외 로</w>
老 虎</w>
唱 片</w>
其 后</w>
下 次</w>
한 강</w>
태 세</w>
더 위</w>
申 请
美 术
中 午</w>
폭 락</w>
回 去</w>
开 通</w>
다 투</w>
날 리</w>
新 人</w>
양 상</w>
사랑 의</w>
박 주영</w>
도 심</w>
거 세</w>
航 线</w>
家 具</w>
一 块</w>
특별 히</w>
서 운</w>
출 판</w>
적 어</w>
소 니</w>
뮤지 컬</w>
과학 기술</w>
检 方</w>
후보 자</w>
호 수</w>
절 약</w>
몰 리</w>
골 드</w>
航 班</w>
呼 声</w>
参 议院</w>
出 版
털 어놓</w>
상 은</w>
盲 目</w>
压 迫</w>
产 量</w>
전 담</w>
상 봉</w>
标 记</w>
스피 드</w>
선 임</w>
부 위</w>
바 닷
部 位</w>
基 因</w>
전 기
수 함</w>
寒 冷</w>
체 육</w>
시 위대</w>
스케이 팅</w>
税 率</w>
탱 크</w>
은 색</w>
연 상</w>
교육 청</w>
剧 中</w>
비 하</w>
매 주</w>
되 게</w>
교 장</w>
小 时候</w>
奥林 匹
克 尔</w>
2 6
전 파</w>
유 입</w>
韩 亚</w>
人 为</w>
o p
fi fa</w>
抱 歉</w>
장 수</w>
답 답</w>
新 任</w>
장 도</w>
세 무
려 가</w>
观 念</w>
国 有</w>
파트 너</w>
임 신</w>
이 모</w>
사 법</w>
문 건</w>
다 툼</w>
눈 빛</w>
这 笔</w>
拜 托</w>
寻 求</w>
外 语</w>
qu ot</w>
지 상
신 중
받 아
活 着</w>
延 期</w>
实 用</w>
외 무성</w>
소 집</w>
메이 저
찾 아
메이저 리그</w>
라 스</w>
뒷 받침</w>
追 踪</w>
自 行</w>
a v
黑 客</w>
沉 重</w>
卡 车</w>
리 라</w>
甲 型</w>
平 息</w>
흔 적</w>
측 정</w>
부 르
本 周</w>
东 部</w>
일 리</w>
경 매</w>
无 人</w>
历 届</w>
탈 당</w>
제 치</w>
시 비</w>
먹 기</w>
缩 短</w>
등 학생</w>
阿 根
阿根 廷</w>
햇 빛</w>
유럽 연합</w>
우라 늄</w>
관 행</w>
扣 押</w>
정 밀</w>
외환 시장</w>
안 개</w>
渠 道</w>
构 建</w>
指挥 权</w>
奥 会</w>
党 派</w>
w or
표 결</w>
전 통
极 端</w>
w .
현 직</w>
취 득</w>
조 화</w>
심 정</w>
모 색</w>
적 군</w>
김 성
자 존
아 나</w>
民 心</w>
태 어나</w>
차 도</w>
거 액</w>
温 度</w>
消 极</w>
是 非</w>
펴 보</w>
무 렵</w>
때 리</w>
경영 자</w>
死 刑</w>
土 耳
一 轮</w>
재 고</w>
워 드</w>
북 쪽</w>
본 회의</w>
阶 级</w>
허 락</w>
인 질</w>
시 티</w>
지 향</w>
잖 아요</w>
박 정
날 개</w>
尼 西亚</w>
外 界</w>
h an
해 하</w>
살 아가</w>
발 달</w>
기 기</w>
眼 神</w>
용 도</w>
미 술</w>
아 세안</w>
급 여</w>
극 단</w>
潜 在</w>
江 原
江原 道</w>
招 生</w>
서비 스
무 너지</w>
联 想</w>
双 边</w>
刚 才</w>
방 이</w>
수 만</w>
显 示
岁 月</w>
吸 收</w>
카 락</w>
머리 카락</w>
企 图</w>
印度 尼西亚</w>
수석 비서관</w>
歇 尔</w>
开 幕式</w>
应 用</w>
ww w.
祈 祷</w>
외국 어</w>
발 의</w>
违 宪</w>
引 人</w>
干 涉</w>
집 행
보 라</w>
관 료</w>
正 之
正之 风</w>
尊 敬</w>
原子 能</w>
不 正之风</w>
上 课</w>
향 하</w>
생 명
惊 人</w>
业 余</w>
최 소
유 해</w>
江 原</w>
t i</w>
유 통
살 펴보</w>
사 국</w>
동 참</w>
往 往</w>
后 悔</w>
n h
대 리</w>
당 기</w>
공 주</w>
格 兰</w>
带 领</w>
刷 新</w>
人 中</w>
不 便</w>
오 고</w>
스 탠
讲 座</w>
记 本</w>
女 王</w>
咖 啡
典 礼</w>
m c</w>
화 문</w>
현대 자동차</w>
시 중</w>
厉 害</w>
pos co</w>
아 테
犹 豫</w>
테이 프</w>
시 경</w>
달 린</w>
最高 值</w>
剧 本</w>
지 침</w>
의 상</w>
삼성 그룹</w>
g o</w>
种 类</w>
卫 队</w>
创 立</w>
d on
일 제</w>
연 패</w>
分 开</w>
以 内</w>
저 가</w>
서 구</w>
사 진
매출 액</w>
黑 人</w>
拍 卖</w>
자존 심</w>
아테 네</w>
고 비</w>
国 债</w>
범 행</w>
设 定</w>
教 训</w>
使 得</w>
자 세히</w>
消 防</w>
本 上</w>
反 应
흔 히</w>
으로 만</w>
못 지않</w>
구속 영장</w>
截 然</w>
忽 视</w>
타 임</w>
동 쪽</w>
找 回</w>
战 士</w>
운동 장</w>
무 산</w>
it y</w>
전 교
로 그</w>
等 于</w>
当事 人</w>
平 衡</w>
原 料</w>
채 권
习 班</w>
l s</w>
진 학</w>
모 래</w>
공화 당</w>
随 意</w>
헨 티나</w>
아르 헨티나</w>
고속 도로</w>
雅 典</w>
重 启</w>
增 强</w>
决 定性</w>
下 半场</w>
에 어
公 约</w>
2 5%</w>
진 의</w>
비 상
변 호</w>
벌 금</w>
이 렇</w>
미 루</w>
赢 得</w>
伤 口</w>
g e</w>
투자 하</w>
와 이</w>
鸡 蛋</w>
办 理</w>
凉 爽</w>
행 히</w>
침 묵</w>
안 경</w>
수 주</w>
분 양
대 학교</w>
重 工业</w>
街 道</w>
步 伐</w>
政 局</w>
操 作</w>
撤 回</w>
본 질</w>
모 리</w>
세 율</w>
浪 漫</w>
파 일</w>
강 국</w>
金 钟
证 人</w>
认 证</w>
秘 诀</w>
和 国民</w>
꼽 히</w>
远 程</w>
美 联
文 化
储 蓄</w>
지 상</w>
위 헌</w>
连 带</w>
胳 膊</w>
조 합
街 上</w>
汽 油</w>
奥林匹 克</w>
外 貌</w>
15 .
시 급</w>
급 격히</w>
百 万</w>
dv d</w>
중 도</w>
쓰 이</w>
사 방</w>
려 들</w>
되 돌</w>
흑 인</w>
시 골</w>
담 보</w>
箱 子</w>
口 气</w>
한 도</w>
책임 자</w>
완 공</w>
되 풀이</w>
配 合</w>
个 子</w>
시 로</w>
달러 화</w>
课 外</w>
体育 馆</w>
순 이</w>
朴 正
双 重</w>
举 动</w>
u c
이 정
납 부</w>
庞 大</w>
天 后</w>
图 案</w>
육 상</w>
비 만</w>
불 참</w>
러 시</w>
负 面</w>
供 给</w>
흡 수</w>
직 무</w>
잠 수함</w>
분 배</w>
백 신</w>
방 면</w>
자 문</w>
国 营</w>
서 기</w>
보 존</w>
吊 唁</w>
前 天</w>
첫 째</w>
외 화</w>
p p
19 60</w>
중 지</w>
预 期</w>
脾 气</w>
当 日</w>
정 기
명 시</w>
공동 체</w>
中 产</w>
한 두</w>
잡 히</w>
여 섯</w>
감 독
金 东
平 静</w>
部 件</w>
权 限</w>
ww w</w>
频 道</w>
歧 视</w>
时 机</w>
文 明</w>
商 人</w>
却 是</w>
가르 치</w>
模 仿</w>
推 翻</w>
로 만</w>
村 庄</w>
偶 然</w>
사회 주의</w>
반 대
관 찰</w>
英 文</w>
监督 院</w>
天 下</w>
사 설</w>
넘 어서</w>
荒 唐</w>
党 员</w>
표 기</w>
일 화</w>
완 료</w>
转 会</w>
프 레</w>
소 금</w>
발 표
문화 재</w>
기 장</w>
과 거
题 目</w>
越 是</w>
气 体</w>
数 百</w>
失 分</w>
한국 군</w>
지지 율</w>
은 혜</w>
와 도</w>
뇌 물</w>
著 名</w>
格 局</w>
反应 堆</w>
北 美</w>
동 일</w>
다 행</w>
고 무</w>
객 관</w>
饮 料</w>
赌 博</w>
尝 试</w>
伤 心</w>
e t
쌍 방</w>
돌 보</w>
뉴욕 타임스</w>
蔓 延</w>
兑 换</w>
종 료</w>
물 자</w>
만 대</w>
항 공기</w>
에 이</w>
무 력</w>
公 安</w>
编 辑</w>
처 방</w>
입 지</w>
유 예</w>
理事 长</w>
提 名</w>
不久 前</w>
p ar
1 70</w>
사랑 은</w>
细 节</w>
克 萨
上 级</w>
장 악</w>
미 사</w>
말 리</w>
福 利
대 응
거 짓</w>
解 散</w>
이 름
种 子</w>
흘 러
비 디오</w>
经营 者</w>
g a
20 16</w>
수 확</w>
소 형</w>
강 세</w>
音乐 剧</w>
最 为</w>
好 看</w>
중 산
럼 에도</w>
그 럼에도</w>
那 家</w>
愿 望</w>
여 파</w>
국 대</w>
纸 币</w>
珍 贵</w>
海 边</w>
总 公司</w>
区 分</w>
전 투기</w>
동 물
长 级</w>
整 顿</w>
마 구</w>
강 력
门 口</w>
연 휴</w>
靠 近</w>
特 征</w>
协 议会</w>
휴 일</w>
외환 보유
经营 权</w>
授 课</w>
安 慰</w>
姓 名</w>
保 护
본 격화</w>
게 시판</w>
这 块</w>
名 为</w>
음식 점</w>
아 웃</w>
拳 道</w>
재 배</w>
음 반</w>
깨 끗
극 히</w>
清 溪</w>
早 期</w>
前 锋</w>
신 장</w>
소 수</w>
보 안
단 호</w>
경찰 서</w>
眼 光</w>
本 质</w>
变 数</w>
ig h
중산 층</w>
으 려면</w>
실 정</w>
소프 트</w>
사 리</w>
백 성</w>
逃 避</w>
철 강</w>
불 투명</w>
军 官</w>
bb k</w>
홀 로</w>
아 가
독 감</w>
商 务</w>
助 长</w>
중 심
전시 회</w>
운 영
박 세리</w>
담 화</w>
索 尼</w>
테이 블</w>
압 수수
소재 로</w>
美 日</w>
服 用</w>
主 场</w>
지 갑</w>
이 드</w>
성 숙</w>
田 径</w>
接 收</w>
도 로
까 지
竟 然</w>
引 领</w>
争 夺</w>
송 이</w>
과 자</w>
명 절</w>
대 인</w>
获 悉</w>
先 后</w>
한 동안</w>
추 모</w>
입 술</w>
윤 리</w>
연구 위원</w>
당 황</w>
跆 拳道</w>
a e</w>
체 중</w>
응 시</w>
원 료</w>
발 효</w>
대 남</w>
지방 자치단체</w>
용 어</w>
부 장
膝 盖</w>
土耳 其</w>
创 作</w>
全 身</w>
무 선</w>
曼 联</w>
이 버</w>
어 트</w>
스트 리트</w>
节 日</w>
纷 争</w>
米 歇尔</w>
工 业
党 政</w>
작 동</w>
자 사</w>
수 당</w>
旅 行
复 原</w>
俘 虏</w>
취 급</w>
夜 晚</w>
国 产</w>
中 场</w>
인 천
어 쩌
附 加</w>
画 家</w>
潜 艇</w>
奇 迹</w>
喜 剧</w>
화 폐</w>
친 절</w>
병 은</w>
赦 免</w>
파 운드</w>
성 원</w>
부동 산
법 의</w>
节 约</w>
离 散</w>
核 电站</w>
克 斯</w>
书 记</w>
팔 리</w>
데이 터</w>
거 칠</w>
警 备</w>
작 물</w>
最 早</w>
强 有力</w>
巴 基
以 便</w>
中 文</w>
선 포</w>
사 위</w>
민 지</w>
단 순
巴基 斯坦</w>
吸 烟</w>
一 一</w>
여 동생</w>
밀 히</w>
공 격
감 상</w>
가 하</w>
规 制</w>
理 学</w>
演 唱
有 期</w>
표 면</w>
만 찬</w>
冬 奥会</w>
피 아노</w>
이 닝</w>
거 울</w>
杀 伤
전 무</w>
감 당</w>
日 后</w>
厨 房</w>
. com</w>
왕 자</w>
부 각</w>
막 판</w>
마 땅</w>
희 생
자 루</w>
영업 이익</w>
빛 나</w>
잉 글
열 쇠</w>
龙 山</w>
天 才</w>
기 후</w>
预 测
财 富</w>
新 世界</w>
挑 选</w>
t er
놓 치</w>
감 자</w>
预 告</w>
赚 钱</w>
普 通
学 界</w>
테인 먼트</w>
公 主</w>
东 方</w>
학 계</w>
연 애</w>
시 나
라 리</w>
그 로</w>
귀 가</w>
配 件</w>
즐거 운</w>
2 7
16 00</w>
장 고</w>
배 송</w>
깨끗 이</w>
감 옥</w>
王 子</w>
최 다</w>
유 혹</w>
过 多</w>
警察 署</w>
对 比</w>
不 但</w>
自 豪</w>
笔 者</w>
이 성</w>
理 所
即 便</w>
외환 은행</w>
와 인</w>
여 자가</w>
有 意思</w>
방 중</w>
국무 회의</w>
0 2</w>
실 용</w>
신 도시</w>
巩 固</w>
1 6.
마 가</w>
正 如</w>
포 괄</w>
평 균
足 球队</w>
绳 子</w>
斯 科</w>
放 入</w>
孤 独</w>
利 害</w>
잉글 랜드</w>
기 세</w>
경찰 관</w>
登 陆</w>
후 속</w>
패 스</w>
잠 재
이 별</w>
대한 항공</w>
脸 色</w>
手 里</w>
원자 재</w>
오늘 의</w>
违 背</w>
攻 击
휴대 폰</w>
크리스 마스</w>
메이 저</w>
둔 화</w>
까지 의</w>
迷 你</w>
물 들</w>
预测 值</w>
姆 斯</w>
우 호</w>
만 기</w>
더 기</w>
自 民党</w>
여 기
演唱 会</w>
屋 顶</w>
인 증</w>
드 물</w>
경제 정책</w>
正 义</w>
执行 官</w>
市 中心</w>
저 축</w>
국가 주석</w>
乐 队</w>
파 키스탄</w>
경영 권</w>
전 망치</w>
재 해</w>
몸 매</w>
特 有</w>
流 动性</w>
机 器
性 能</w>
고 전</w>
约 会</w>
一 线</w>
f o
파 장</w>
受 害</w>
加 以</w>
何 种</w>
압수수 색</w>
상 환</w>
년 생</w>
蜡 烛</w>
落 选</w>
科 技</w>
发 动机</w>
克 斯坦</w>
케 이</w>
부 작</w>
客 观</w>
主 流</w>
치 로</w>
젠 가</w>
언 젠가</w>
성 능</w>
사 흘</w>
당 당</w>
罗 马</w>
报 复</w>
최소 한</w>
스 리</w>
디 자
韩 中日</w>
某 种</w>
重 量</w>
秘书 室</w>
仓 库</w>
강 물</w>
出 差</w>
会 场</w>
트 로
제 때</w>
의 하</w>
으 시</w>
配 送</w>
통 증</w>
정 몽
공 직</w>
月 亮</w>
최고 치</w>
정 국</w>
용 의</w>
까 지만</w>
谨 慎</w>
精 彩</w>
标 志</w>
政治 家</w>
테 스트</w>
시나 리오</w>
老 鼠</w>
流 动</w>
屋 里</w>
主 管</w>
참 가자</w>
지 폐</w>
내 외</w>
간 섭</w>
渔 船</w>
店 铺</w>
요 미
生 育</w>
南 美</w>
一 郎</w>
窗 口</w>
6 25</w>
17 .
유 발</w>
선수 권</w>
极 大</w>
천 연
수 험
화 학
형 은</w>
궤 도</w>
과 학자</w>
金 永
自治 部</w>
痕 迹</w>
직 장인</w>
物 流</w>
差 不多</w>
又 是</w>
김 경
质 疑</w>
测 试</w>
杀伤 性</w>
一 把</w>
董事 长</w>
活 性</w>
터 테인먼트</w>
주 민
엔 터테인먼트</w>
었 더</w>
신 세</w>
沙 特</w>
合 法</w>
京 华</w>
좌 석</w>
든 요</w>
거 든요</w>
家 中</w>
예 의</w>
실 태</w>
研 修</w>
模 糊</w>
坚 定</w>
현 황</w>
피 지</w>
점 포</w>
부 활</w>
물 가
만 화</w>
두 어</w>
대 중
森 林</w>
机器 人</w>
간 판</w>
游 说</w>
共 享</w>
사 유</w>
거 품</w>
金 泰</w>
开 发
n at
원 금</w>
애 플</w>
아마 도</w>
뭐 라</w>
战 线</w>
得 知</w>
后 续</w>
자민 당</w>
高 句
高句 丽</w>
钢 琴</w>
补 习班</w>
最 先</w>
当 前</w>
入 住</w>
团 队</w>
kb s
k cc</w>
법 과</w>
견 제</w>
跳 舞</w>
欣 赏</w>
허 위</w>
단 정</w>
阴 谋</w>
没 想到</w>
基 调</w>
인터넷 을</w>
공 인</w>
误 会</w>
讲 师</w>
아 저
반 짝</w>
마음 대로</w>
내 밀</w>
电影 节</w>
恶 意</w>
上 任</w>
화 로</w>
토 끼</w>
스 틱</w>
수 습</w>
상 원</w>
禽 流感</w>
入 口</w>
上 来</w>
yo u</w>
사 로잡</w>
没 什么</w>
핸 드
특 유</w>
원 수</w>
경 련</w>
机 密</w>
散 步</w>
틀림 없이</w>
a i</w>
호 전</w>
逃 跑</w>
可 惜</w>
光 复</w>
치 밀</w>
치 마</w>
로 봇</w>
우 세</w>
낙 관</w>
高 中生</w>
正 好</w>
推 算</w>
특 수
외 출</w>
足 够</w>
行 长</w>
救 援</w>
중국 산</w>
세 제</w>
사 형</w>
매 수</w>
委 会</w>
하 우스</w>
독 자
羡 慕</w>
抛 弃</w>
封 锁</w>
대 행</w>
模 样</w>
신 형</w>
남 미</w>
行 列</w>
找 出</w>
오 찬</w>
아가 씨</w>
기 증</w>
구 사</w>
교 훈</w>
尺 寸</w>
富 翁</w>
한 의</w>
아 메
믿 음</w>
기 용</w>
과거 사</w>
과 세</w>
护 照</w>
奖 牌</w>
권 위</w>
沿 着</w>
19 50</w>
드 디어</w>
迟 到</w>
九 段</w>
9 0%</w>
유 엔
세 부</w>
사 귀</w>
做 事</w>
천 만</w>
谅 解</w>
司令 官</w>
아 해</w>
명 서</w>
도 장</w>
대 고</w>
笔 记本</w>
有 利于</w>
圣诞 节</w>
t v
실 내</w>
신 이</w>
대 외
益 于</w>
手 续</w>
在 外</w>
진 화</w>
自 从</w>
회 의장</w>
특 성</w>
텍 사
이 틀
순 조</w>
비 유</w>
理所 当然</w>
김 동
阐 明</w>
看 不到</w>
大 人</w>
合 约</w>
不 振</w>
당 원</w>
고 백</w>
监 察</w>
첫 날</w>
유 동성</w>
연 루</w>
교 부</w>
正 案</w>
很 强</w>
基 文</w>
修 正案</w>
三 年</w>
주 류</w>
공 제</w>
处 境</w>
劳动 部</w>
여 왕</w>
门 前</w>
显示 器</w>
挖 掘</w>
当 年</w>
农 产品</w>
반 환</w>
글 씨</w>
最 强</w>
인 적
연 예</w>
수험 생</w>
선 의</w>
멋 대로</w>
더 미</w>
건 국</w>
外 资</w>
不 动</w>
20 30</w>
198 6</w>
회 계
친 척</w>
장 학
백 만</w>
早 已</w>
트 랙</w>
모 이</w>
리 어</w>
담 당
共同 体</w>
3 d</w>
튼 튼</w>
다 행히</w>
葡萄 酒</w>
본 래</w>
나 름</w>
灵 魂</w>
인 공
隐 瞒</w>
旅 馆</w>
幸 运</w>
寿 命</w>
之 下</w>
n p
힘 입</w>
욕 심</w>
복지 부</w>
裙 子</w>
操 纵</w>
信 念</w>
바 깥</w>
도 달</w>
阿 尔</w>
看 待</w>
告 知</w>
s s
주 가
시장 경제</w>
课 税</w>
禹 锡</w>
低 收入</w>
원 어</w>
수 시로</w>
수 송</w>
라이 스</w>
독 재</w>
增 至</w>
화 물
열 풍</w>
애 정</w>
박 람회</w>
送 给</w>
灵 活</w>
手 册</w>
弹 性</w>
18 00</w>
졸업 생</w>
대량 살
고 조</w>
注 重</w>
更 是</w>
주 연</w>
장 벽</w>
밤 새</w>
데이 비
热 门</w>
握 手</w>
一 来</w>
생 선</w>
辈 子</w>
地 板</w>
亲 密</w>
하 원</w>
주 고
사 망
晚 餐</w>
희 정</w>
부 추</w>
는 구나</w>
깔 끔</w>
最 初</w>
商 会</w>
in e</w>
휘 발
폭 력
성 질</w>
다 름
프 린
일 선</w>
사 시</w>
불 능</w>
驱 逐</w>
向 前</w>
회 생</w>
합 계</w>
내 보</w>
上 下</w>
1 100</w>
하 얀</w>
염 두</w>
가 인</w>
精 力</w>
相 差</w>
昂 贵</w>
항 구</w>
골프 장</w>
普通 人</w>
차 세대</w>
상 실</w>
기 보</w>
选举 法</w>
c l
토 지
클 래식</w>
高 涨</w>
竣 工</w>
深 夜</w>
如 同</w>
학 년도</w>
중 재</w>
억 울</w>
동 아</w>
黄 禹锡</w>
香 烟</w>
转 交</w>
一 口</w>
장 래</w>
불가 피</w>
미 스</w>
리 비아</w>
동 의안</w>
도 구</w>
相 遇</w>
현 역</w>
침 략</w>
증 인</w>
주고 받</w>
저 질</w>
수수 료</w>
마 일</w>
도 약</w>
肥 胖</w>
y e
상 가</w>
乐 园</w>
석 은</w>
로 버트</w>
동 행</w>
그 간</w>
潘 基文</w>
탁 자</w>
지 목</w>
清 算</w>
양 대</w>
소득 층</w>
명 목</w>
就 职</w>
姿 势</w>
处 分</w>
특 허</w>
이 치로</w>
본 부장</w>
보 조금</w>
나 니</w>
鉴 定</w>
辣 椒</w>
帮 忙</w>
分 散</w>
평 가
주 름</w>
사 표</w>
대 략</w>
d na</w>
통 산</w>
더 욱
比 分</w>
喜 悦</w>
上 次</w>
토론 회</w>
每 人</w>
소 용</w>
더 구나</w>
奥 运</w>
납 북</w>
直 播</w>
文 物</w>
推 行</w>
지 니</w>
전교 조</w>
약 점</w>
동 맹
남아 공</w>
기 초
连 胜</w>
留 言</w>
ar s</w>
지 식
저 널</w>
용 산</w>
바 위</w>
검찰 청</w>
错 过</w>
调查 团</w>
日 前</w>
事 物</w>
一 座</w>
째 서</w>
어 째서</w>
무 기
동 부</w>
파 크</w>
통 치</w>
民 众</w>
w md</w>
약 하</w>
달러 가</w>
那 边</w>
追 悼</w>
t a
점 프</w>
연 승</w>
友 谊</w>
入 伍</w>
c h</w>
손 해
다 로</w>
농 장</w>
구 석</w>
출 자</w>
착 륙</w>
부 동</w>
간 이</w>
历 史
추 측</w>
점 거</w>
김병 현</w>
预算 案</w>
途 中</w>
纪 夫</w>
획 득</w>
남 이</w>
融 合</w>
해 치</w>
국 채</w>
轨 道</w>
算 是</w>
섬 유</w>
鸠 山
鸠山 由
鸠山由 纪夫</w>
牵 制</w>
水 产</w>
정보 기술</w>
레 인</w>
돌 입</w>
광 화문</w>
3 86</w>
진 압</w>
比 喻</w>
3 500</w>
의 결</w>
难 民</w>
长 达</w>
身 子</w>
基 督
发 布
화장 실</w>
태 양
챔피 언
이 사장</w>
美 好</w>
气 象
修 理</w>
충 고</w>
이 리</w>
遗 传</w>
教 堂</w>
倒 塌</w>
交 纳</w>
与 其</w>
이라 크
배 달</w>
朴世 利</w>
往 返</w>
塔 利
塔利 班</w>
상 무기</w>
비 극</w>
등 지</w>
내 셔
kos pi</w>
해 역</w>
이 불</w>
외환보유 액</w>
버 티</w>
결 단</w>
生 活
해 선</w>
일반 인</w>
이 도</w>
서 쪽</w>
명 문</w>
떠 들</w>
cc tv</w>
간 첩</w>
理 性</w>
梨 花</w>
支 票</w>
住 院</w>
이 회
약 화</w>
도 서</w>
단 서</w>
诺 贝尔</w>
演 唱</w>
做 完</w>
u e
아저 씨</w>
수 명</w>
网 球</w>
环 保</w>
投 球</w>
m b</w>
준 비
정 교</w>
스 님</w>
둘 이</w>
건설 교통
水 中</w>
위 조</w>
가 운</w>
运 河</w>
谈 论</w>
玩 具</w>
湖 南</w>
佛 教</w>
从 前</w>
이회 창</w>
비 결</w>
改 组</w>
情 节</w>
其 次</w>
조 용</w>
르 트</w>
노 사
夜 间</w>
퍼 스</w>
远 处</w>
患 有</w>
宴 会</w>
이 종
震 惊</w>
钥 匙</w>
质 性</w>
小 孩</w>
偷 偷</w>
심 리
벨 트</w>
树 立</w>
주 의자</w>
제조 업체</w>
자 칫</w>
입 대</w>
무 력
뜻 밖</w>
교통 사고</w>
高 等</w>
贫 穷</w>
谎 言</w>
福利 部</w>
有 害</w>
커 트</w>
안전 보장
강력 히</w>
记者 会</w>
일 부러</w>
陌 生</w>
脚 步</w>
同 志</w>
严 肃</w>
환 상</w>
영 화가</w>
세 균</w>
사 막</w>
대 상자</w>
联 队</w>
经济 界</w>
싱 글</w>
讨 论
蒙 古</w>
四 个</w>
취 미</w>
절 실</w>
유 전자</w>
수 표</w>
국 익</w>
可 怜</w>
双 手</w>
일 일
무 장
欺 骗</w>
多 久</w>
不 及</w>
참 배</w>
가 사</w>
外 出</w>
판매 량</w>
칠 레</w>
주 먹</w>
재 건</w>
약 세</w>
만 인</w>
공 략</w>
2 8
정상 은</w>
사 지</w>
메 이</w>
그 만두</w>
女 朋友</w>
리 조
生 效</w>
活 儿</w>
不 论</w>
一 次
영 양</w>
每 日</w>
小 学生</w>
푸 르</w>
공정 위</w>
新 罗</w>
恐 怕</w>
입 사</w>
이상 한</w>
으 려는</w>
시 행
단순 히</w>
芝 加
18 .
학 교
여 학생</w>
빈 곤</w>
부 지
보 복</w>
로 지</w>
대량살 상무기</w>
封 信</w>
右 侧</w>
학 적</w>
정 통</w>
스 태
서 방</w>
내 걸</w>
拉 开</w>
以 往</w>
不 着</w>
황 금</w>
취 재
여 인</w>
高 价</w>
通讯 社</w>
不 小</w>
b r
위 권</w>
芝加 哥</w>
看 上去</w>
班 族</w>
出口 额</w>
上 班族</w>
이 보</w>
유 치
굳 이</w>
격 렬</w>
政 务</w>
修 订</w>
之 类</w>
합 작</w>
차 이나</w>
용 지</w>
변 동</w>
诗 人</w>
营 化</w>
施 行</w>
射 门</w>
创 意</w>
做 到</w>
g 8</w>
우 연히</w>
공 안</w>
宾 馆</w>
传 出</w>
살 피</w>
生 涯</w>
포 동</w>
취 약</w>
일 지</w>
玉 米</w>
大 厅</w>
单 词</w>
交 战</w>
포 항</w>
퍼 센트</w>
골 목</w>
检 测</w>
이 견</w>
두 바이</w>
기 르</w>
필 요성</w>
설 문
동 방</w>
削 减</w>
放 下</w>
현 지
비 료</w>
瘫 痪</w>
상승 세</w>
대 치</w>
格 外</w>
树 木</w>
一 行</w>
찾 아내</w>
접 어들</w>
스토 리</w>
복 용</w>
매 치</w>
廉 价</w>
同 感</w>
월 스트리트</w>
쏟 아지</w>
솔 직
교 원</w>
缩 减</w>
场 上</w>
助 金</w>
식 구</w>
광 고
通 行</w>
自 尊
精 密</w>
瞄 准</w>
告 别</w>
候 补</w>
제 자</w>
班 人</w>
会 议
피 겨</w>
우 선
避 开</w>
追 查</w>
玫 瑰</w>
生 态</w>
不 大</w>
u l
형 사
한 숨</w>
캘 리포
잠 정</w>
시 일</w>
비 로</w>
감 은</w>
船 员</w>
日本 队</w>
소득 세</w>
要 员</w>
自尊 心</w>
幻 想</w>
보 스턴</w>
责 任
来 源</w>
接 班人</w>
재 무</w>
운 항</w>
슬 러</w>
명 백</w>
냉 장고</w>
난 감</w>
大 力</w>
1 400</w>
포 르
시 카
洪 水</w>
就 此</w>
参 拜</w>
u n</w>
발 송</w>
总 务</w>
통 행</w>
발 음</w>
당 해</w>
瞩 目</w>
敌 对</w>
延 续</w>
s a</w>
시 안</w>
번 영</w>
독 점</w>
다 자</w>
교 도
건 립</w>
题 为</w>
赠 送</w>
人 造</w>
좌 절</w>
살 기</w>
레이 드</w>
거 니</w>
消 化</w>
세계 경제</w>
경제 연구소</w>
支 撑</w>
孤 立</w>
劲 儿</w>
an g</w>
종 자</w>
으 러</w>
각 지</w>
钱 包</w>
提 取</w>
입 자</w>
용 인</w>
안전보장 이사회</w>
蓝 图</w>
用 地</w>
fr b</w>
원 화
단 축</w>
性 感</w>
참 사</w>
자 격
유 기</w>
감 원</w>
假 期</w>
최 경주</w>
지 문</w>
의 대</w>
두 지</w>
관 대</w>
鲜 明</w>
赖 斯</w>
萝 卜</w>
深 入</w>
取 决
取决 于</w>
특 구</w>
연 하</w>
석 자</w>
문 명</w>
它 们</w>
大 桥</w>
중 점</w>
마 르</w>
로 마</w>
失 业率</w>
후 세인</w>
현 실
천 재</w>
대 조</w>
无 效</w>
太 空</w>
da q</w>
환 호</w>
전 격</w>
업 소</w>
본 지</w>
모 니
담 보
学 金</w>
基督 教</w>
原 谅</w>
체 면</w>
보 수
개막 식</w>
韩 华</w>
一次 性</w>
의 욕</w>
불 교</w>
고 유</w>
生 计</w>
소 주</w>
普 及</w>
控 股</w>
只 好</w>
了 不起</w>
严 厉</w>
j o
e x
无 条件</w>
收 获</w>
富 裕</w>
停 战</w>
주 신</w>
이 적</w>
로 스
들 보</w>
沙 漠</w>
종 업
독자 적</w>
깨 닫</w>
간 주</w>
在 线</w>
发布 会</w>
克 力</w>
위 생</w>
안 타
다이 어트</w>
零 件</w>
树 枝</w>
有 用</w>
해 드</w>
솔직 히</w>
상 업</w>
부 담
매니 저</w>
과 잉</w>
获 取</w>
拖 延</w>
或 是</w>
垄 断</w>
传 单</w>
1 5%</w>
확 충</w>
양 의</w>
동 남아</w>
民 营化</w>
分 成</w>
텍사 스</w>
치 료
견 디</w>
颁 奖</w>
敌 军</w>
예 비
순 방</w>
선 원</w>
拥 抱</w>
原 定</w>
三 大</w>
짐 작</w>
스 런</w>
분 량</w>
马 来
플레이 션</w>
태 권
출 동</w>
제 국</w>
물 류</w>
려 오</w>
대 출
菲 尔</w>
暴 雨</w>
射 程</w>
al l</w>
생 계</w>
사 소</w>
부 가
流 下</w>
死 者</w>
崔 熙
士 顿</w>
티 켓</w>
이름 으로</w>
요 한</w>
불 안감</w>
되 려</w>
국가 대표</w>
马来 西亚</w>
答 复</w>
o h</w>
차 리</w>
차 라리</w>
수 비
민간 인</w>
领 袖</w>
波 士顿</w>
心 灵</w>
帅 气</w>
巧 克力</w>
休 闲</w>
i on
e t</w>
2. 5</w>
살 림</w>
法 定</w>
함 유</w>
종업 원</w>
조 명</w>
물 리
나 기</w>
替 代</w>
亮 相</w>
诱 惑</w>
恶 性</w>
回 顾</w>
n y
주 전</w>
续 费</w>
手 续费</w>
得 益于</w>
아 픔</w>
설문 조사</w>
金 融
滑 雪</w>
행 운</w>
인 체</w>
그 해</w>
传 开</w>
프리미 어</w>
커 녕</w>
영 원</w>
야 간</w>
모 시</w>
观 光
罗 伯特</w>
签 约</w>
朝 日</w>
弹 道</w>
타 협</w>
동 지</w>
设计 师</w>
研 讨
怀 孕</w>
工 程
农 场</w>
행 보</w>
신 흥</w>
끌어 내</w>
骨 头</w>
莫 斯科</w>
奖 学金</w>
3 5
逆 转</w>
患 上</w>
出 门</w>
탁 구</w>
정 전</w>
담보 대출</w>
花 钱</w>
节 奏</w>
研讨 会</w>
화 성</w>
최 신</w>
선 관
선관 위</w>
较 量</w>
车 型</w>
流 传</w>
头 脑</w>
케 인</w>
저 것</w>
단 행</w>
나 한</w>
半 个</w>
b bc</w>
후 쿠
목 사</w>
들 여
讨论 会</w>
浑 身</w>
幕 后</w>
山 上</w>
일 생</w>
어린 아이</w>
상 관
다름 없</w>
饼 干</w>
红 十字</w>
u b
휘발 유</w>
커 뮤
커뮤 니
추 어</w>
강 경
生 死</w>
漏 洞</w>
减 弱</w>
외 상</w>
반 지</w>
로 서의</w>
打 扮</w>
威 尔</w>
体 操</w>
中 秋
a d</w>
用 途</w>
澳 门</w>
温 室</w>
替 换</w>
忠 告</w>
大 脑</w>
各 界</w>
c r
석 탄</w>
破 裂</w>
丁 克</w>
피 아</w>
탐 사</w>
장 님</w>
만 히</w>
마이 클</w>
마 땅
마땅 히</w>
고 지</w>
执 着</w>
惩 罚</w>
学 问</w>
军 部</w>
免 除</w>
二 十</w>
입 찰</w>
봉 쇄</w>
로 선</w>
군 기지</w>
超 出</w>
希 丁克</w>
데 이트</w>
녹 음</w>
前 途</w>
中秋 节</w>
참 모
지 부</w>
신입 생</w>
시카 고</w>
디 스
건설교통 부</w>
结 实</w>
手 表</w>
유 물</w>
아 쉬
발 로</w>
돌아 보</w>
관 람
这 份</w>
液 晶</w>
实 质性</w>
实 习</w>
재 발</w>
일일 이</w>
인 적</w>
역 사상</w>
병 역</w>
走 出</w>
节 省</w>
涨 率</w>
干 什么</w>
上 涨率</w>
적 십
재판 소</w>
容 忍</w>
충 북</w>
정 동영</w>
장 교</w>
소 방
보 석</w>
단 일</w>
特 性</w>
来 临</w>
展 示
一 本</w>
g ir
절 상</w>
잠재 력</w>
이야 말로</w>
바 그
급 하</w>
王 青</w>
전 설</w>
오늘 날</w>
대 개</w>
올림 픽
利 比亚</w>
乐 团</w>
m an</w>
상 세</w>
국 무</w>
闻 名</w>
主 意</w>
아 쉽</w>
安全 法</w>
tv n</w>
횡 령</w>
정 성</w>
유 연</w>
경제 학</w>
경 로</w>
缅 甸</w>
有 意</w>
家 乡</w>
后 卫</w>
양 은</w>
블 루</w>
走 进</w>
走 路</w>
认 定</w>
학 회</w>
체 조</w>
바 오</w>
睡 眠</w>
悲 剧</w>
3 4
197 9</w>
패 턴</w>
자 네</w>
농 가</w>
검 거</w>
美 女</w>
不 已</w>
不 仅仅</w>
조합 원</w>
자 리
실업 률</w>
살아 나</w>
부 양
보험 료</w>
두 리</w>
다 오</w>
구 의</w>
燃 烧</w>
一 阵</w>
영 화제</w>
세무 조사</w>
그러 자</w>
揭 露</w>
地 步</w>
发 电</w>
198 4</w>
의 의</w>
원자 바오</w>
농 축</w>
강 해</w>
连 续
调查 部</w>
数 千</w>
冷 战</w>
은 가</w>
숨 기</w>
당 사자</w>
月 底</w>
支持 者</w>
不 前</w>
缓 慢</w>
第二 个</w>
社 会
果 说</w>
志 愿</w>
如 果说</w>
个 性</w>
2 5.
포 구</w>
파 구</w>
토 요일</w>
쇄 신</w>
복 무</w>
밴 드</w>
말 레이
날 인</w>
高 档</w>
10 5</w>
위 장</w>
시 정</w>
상 원의원</w>
经 纪
不 对</w>
19 .
전 방</w>
예 보</w>
선 제</w>
상 영</w>
버 릇</w>
마 켓</w>
내셔 널</w>
광 부</w>
邮 报</w>
糟 糕</w>
화 이트</w>
티 베
티베 트</w>
탄 소</w>
스크 린</w>
살아 남</w>
辞 呈</w>
聊 天</w>
经纪 人</w>
疲 惫</w>
牧 师</w>
재 협</w>
발 탁</w>
기 상</w>
朴正 熙</w>
i b</w>
진 상
주 역</w>
성 기</w>
동 상</w>
装 箱</w>
期 货</w>
开 玩笑</w>
u ae</w>
le d</w>
휩 쓸</w>
폴 란드</w>
안 되</w>
紧 密</w>
摩 擦</w>
해 방</w>
정 황</w>
外 国语</w>
옥 수수</w>
베이 스</w>
발전 소</w>
말레이 시아</w>
t s</w>
인적 자원</w>
에 까지</w>
베 를
分 担</w>
양 산</w>
墙 壁</w>
필 드</w>
재 건축</w>
이산 가족</w>
물 고</w>
딩 크</w>
대 교</w>
가 이</w>
乐 趣</w>
컨 디션</w>
정치 자금</w>
불 신</w>
메 뉴</w>
美联 社</w>
皮 鞋</w>
음 료</w>
아무 래
아무래 도</w>
버 드
난 민</w>
귀 사</w>
睡 着</w>
真 心</w>
정 은</w>
유 형</w>
양 도
아 사히</w>
사 립
词 典</w>
有 点儿</w>
传 说</w>
主 演</w>
一 夜</w>
후 유
후유 증</w>
추 기</w>
업 적</w>
无 力</w>
教 职员</w>
感 激</w>
한 정</w>
수 건</w>
법 상</w>
그 야말로</w>
警 惕</w>
弱 点</w>
幼 儿
幼儿 园</w>
흥 행</w>
아름 다
아름다 움</w>
수 다</w>
起 床</w>
p l
평 형</w>
주 도하</w>
전 단</w>
매 번</w>
년 여</w>
我 军</w>
ra in</w>
전 체
일 기</w>
엑 스
뜨 겁</w>
끝 날</w>
기 량</w>
自 卫队</w>
出版 社</w>
주 변
선거 법</w>
서 브</w>
마 찰</w>
游 行</w>
所 得</w>
쟁 이</w>
舰 队</w>
知 数</w>
李 昌
여 운</w>
당 히</w>
财 产
联 带</w>
编 制</w>
最 低
前 方</w>
폭 등</w>
초 등학생</w>
제 임스</w>
임 직원</w>
국민 은행</w>
감 면</w>
간 접</w>
가 나</w>
遗 症</w>
糖 尿
糖尿 病</w>
空 白</w>
烦 恼</w>
未 知数</w>
放 松</w>
后 遗症</w>
到 期</w>
의 류</w>
오 버</w>
명 칭</w>
구 해</w>
采 纳</w>
着 急</w>
新 闻
치 의</w>
쨌 든</w>
절 히</w>
어 쨌든</w>
수 법</w>
蚕 室</w>
牙 齿</w>
一 眼</w>
확 고</w>
날 로</w>
교 전</w>
货 店</w>
更 高</w>
전 례</w>
미래 의</w>
건 가</w>
不 必</w>
테 니스</w>
시 달</w>
此 时</w>
不 明</w>
총 무</w>
참 석자</w>
명 동</w>
국 산</w>
경 유</w>
面 谈</w>
护 士</w>
成 年</w>
头 上</w>
wh o</w>
이 창
수 고</w>
무 사</w>
比 尔</w>
早 餐</w>
品 质</w>
东 方
p s</w>
퍼 지</w>
천 하</w>
后 期</w>
학 업</w>
确 立</w>
校 园</w>
同 行</w>
倒 闭</w>
흰 색</w>
권 유</w>
没 关系</w>
传 递</w>
화 합</w>
한 시</w>
의 약품</w>
가 상</w>
明 朗</w>
宝 贵</w>
刘 某</w>
出 战</w>
컨 테이
어 지
복 권</w>
모 스크
개 시</w>
码 头</w>
引 用</w>
上 诉</w>
上 演</w>
198 5</w>
신 기록</w>
시 세</w>
수 색</w>
북 부</w>
더 불어</w>
고 용
金 泳
as e
주 사</w>
자 발
纪念 日</w>
化 妆</w>
후 임</w>
파 동</w>
찌 감
찌감 치</w>
불 길</w>
물 고기</w>
跨 国</w>
话 说</w>
记 住</w>
至 于</w>
掩 盖</w>
kos daq</w>
财 经
率 先</w>
侨 胞</w>
태권 도</w>
영 수
순 이익</w>
波 兰</w>
帷 幕</w>
左 侧</w>
스 테
배 정</w>
边 境</w>
说 明
2 9
이 제
영 등
선 수단</w>
불 구속</w>
무 한</w>
내리 고</w>
기 후
구 가</w>
零 部件</w>
部 长级</w>
中 华</w>
n ba</w>
아프 간</w>
보 전</w>
觉 到</w>
感 觉到</w>
光 明</w>
회 로</w>
행 하</w>
재 현</w>
서 히</w>
서 서히</w>
런 트</w>
锻 炼</w>
所 有
志愿 者</w>
原 理</w>
中 毒</w>
上 司</w>
上 半场</w>
신 의</w>
레 드</w>
神 社</w>
墓 地</w>
全球 化</w>
一 系列</w>
i f
交 谈</w>
희생 자</w>
출 구</w>
쇼 트
노동 부</w>
껍 질</w>
기자 간담회</w>
社 区</w>
特别 法</w>
克萨 斯</w>
정 당
재 가</w>
작 업
예산 안</w>
무 상</w>
마이 크
논 평</w>
공 모</w>
非 正规</w>
엘 리
灵 通</w>
掌 声</w>
天 堂</w>
因 而</w>
육 박</w>
모스크 바</w>
격 자</w>
驾 驶
第二 位</w>
부 친</w>
부 사</w>
귀 찮</w>
改 造</w>
小 孩子</w>
大 事</w>
中 介</w>
tr a</w>
이 화
벌 레</w>
나뭇 가지</w>
그렇 지만</w>
广 告
嘴 唇</w>
力 度</w>
亲 戚</w>
万 坪</w>
정보 원</w>
기대 감</w>
공 백</w>
缓 和</w>
熟 练</w>
堆 积</w>
代 理
ic e</w>
h e
잔 치</w>
안타 깝</w>
광 범</w>
集 装箱</w>
합 법</w>
일 만</w>
모 순</w>
预 报</w>
迫 切</w>
开 车</w>
페 이</w>
재 검토</w>
부 심</w>
극 심</w>
残 酷</w>
极 度</w>
攻 入</w>
丝 毫</w>
청 탁</w>
每 桶</w>
去 过</w>
p a</w>
m y</w>
코 너</w>
전 경련</w>
자발 적</w>
양 심</w>
사 도</w>
사 나</w>
발 상</w>
무 겁</w>
猛 烈</w>
写 道</w>
付 款</w>
저 런</w>
모 의</w>
기상 청</w>
途 径</w>
多 样
h a
태 극
이 집
수 호</w>
선진 화</w>
끊 이</w>
西 藏</w>
服 役</w>
人 心</w>
아 랍
꿈 꾸</w>
首 要</w>
远 征</w>
力 气</w>
主 持
핵 시설</w>
해 변</w>
p ro
편 집</w>
유 리
무 섭</w>
경 색</w>
결승 전</w>
社 论</w>
世 上</w>
충 실</w>
진 흥</w>
젤 레스</w>
설 탕</w>
경 보</w>
건 전</w>
线 索</w>
广 域</w>
尼 日
은행 과</w>
시 속</w>
수 급</w>
강 렬</w>
灿 烂</w>
奖 励</w>
吃 惊</w>
g oo
b is</w>
회 피</w>
장 착</w>
양 극</w>
계 급</w>
至 此</w>
病 情</w>
开 会</w>
埃 及</w>
出 动</w>
병 행</w>
급 속히</w>
가 격
岩 石</w>
子 弹</w>
夹 克</w>
为 人</w>
큰 일</w>
수 중</w>
만 으로도</w>
꾸 로</w>
折 磨</w>
클 리
영 변</w>
아 다</w>
古 典</w>
伪 装</w>
확 률</w>
어 치</w>
야 기</w>
동 전</w>
단체 장</w>
농 사</w>
공 방</w>
거 꾸로</w>
预 约</w>
自 然
时 速</w>
携 带</w>
招 待</w>
b da</w>
프 라
자 문
성 남</w>
问 道</w>
场 合</w>
환 수</w>
하 위</w>
려 던</w>
哈 佛</w>
主持 人</w>
一 流</w>
10 1</w>
큰 소리</w>
에 나</w>
동 반
국회 의장</w>
领 取</w>
贪 污</w>
补 助金</w>
奔 跑</w>
发 掘</w>
休 息
원 리</w>
대 검</w>
极 其</w>
技术 部</w>
问 候</w>
普 京</w>
库 存</w>
앤 젤레스</w>
로스 앤젤레스</w>
경 치</w>
难 过</w>
최고 경영자</w>
개 척</w>
用 作</w>
格 达</w>
新 娘</w>
m i
챔피언 십</w>
즐거 움</w>
중 요성</w>
生 病</w>
教 材</w>
崔熙 燮</w>
쿼 터</w>
치 우</w>
바 로잡</w>
바 늘</w>
银 牌</w>
徘 徊</w>
宁 边</w>
캠 퍼스</w>
접 대</w>
어 떻</w>
부 합</w>
발 걸음</w>
물 결</w>
두 려
그 림
新 西
扩 充</w>
巴 格达</w>
c ia</w>
198 2</w>
입 맛</w>
불 필요</w>
간 사</w>
진 료</w>
주식 시장</w>
입 장
일 곱</w>
위 력</w>
飞 行
推 动</w>
招 牌</w>
世界 级</w>
聘 请</w>
争 取</w>
上 空</w>
d o</w>
잡 이</w>
수익 률</w>
바그 다
덩 어리</w>
대책 회의</w>
躲 避</w>
巴 拉克</w>
塑 料</w>
착 오</w>
법 무</w>
배 럴
배럴 당</w>
기 둥</w>
강 원도</w>
智 利</w>
区 的</w>
활 력</w>
캠 페인</w>
오 만</w>
연 기
辞 去</w>
犯 下</w>
换 成</w>
파 격</w>
저 소득층</w>
영수 증</w>
약 물</w>
마 루</w>
공 시</w>
何 况</w>
197 8</w>
저 렴</w>
재 벌</w>
위 험
연 일</w>
셋 째</w>
로 맨
똑 같이</w>
두려 워하</w>
艺术 家</w>
空 调</w>
은 메달</w>
생 물</w>
귀 신</w>
결 산</w>
走 上</w>
参 加
한 해</w>
제 약</w>
인 쇄</w>
바그다 드</w>
警 报</w>
缺 陷</w>
效 应</w>
上 衣</w>
웨 이트</w>
원화 가치</w>
싫 어하</w>
수 박</w>
살 인
별 명</w>
동 계
공정 거래
건 교부</w>
강 제
강 구</w>
风 雨</w>
加 深</w>
加 利
집 단
소비 자
독 서</w>
단 식</w>
기 독
一 辈子</w>
2 40</w>
지 우</w>
절 로</w>
꼼 꼼
轮 胎</w>
宽 松</w>
发 音</w>
升 级</w>
20 .
조 세</w>
이집 트</w>
겨 울
遗 骸</w>
足 以</w>
他 因</w>
一 番</w>
상 국</w>
부양 책</w>
물러 나</w>
그 늘</w>
无 罪</w>
新西 兰</w>
不 当</w>
4 50</w>
이 기
스태 프</w>
보 충</w>
近 日</w>
情 报
尴 尬</w>
办 公</w>
事 儿</w>
실 의</w>
니 트</w>
诸 多</w>
摄 像
打 折</w>
好 久</w>
可 谓</w>
수 렴</w>
상 공</w>
농 산물</w>
검 출</w>
税 制</w>
形 状</w>
坦 白</w>
动 用</w>
한국 경제</w>
태 극</w>
세계 화</w>
사 적</w>
달 래</w>
감 성</w>
阿 联
阿联 酋</w>
逝 世</w>
巴 士</w>
大 胆</w>
중앙 은행</w>
장 히</w>
사 물</w>
난 히</w>
没 收</w>
티 드</w>
타 운</w>
제 발</w>
연 내</w>
삭 감</w>
꾼 들</w>
굉 장히</w>
战 绩</w>
及 其</w>
탑 승</w>
유명 하</w>
막 이</w>
动 议案</w>
효 력</w>
혈 액</w>
대 미</w>
가 정
油 田</w>
描 述</w>
传 球</w>
즈 음</w>
식 간</w>
수 속</w>
빌 리</w>
민 영화</w>
단 과</w>
模 拟</w>
侮 辱</w>
코 디</w>
산 소</w>
바 짝</w>
招 呼</w>
지 리아</w>
세 련</w>
비 추</w>
라 비아</w>
나이 지리아</w>
白 菜</w>
极 为</w>
崔 某</w>
增 大</w>
傻 瓜</w>
s c
최 후</w>
인 종</w>
라 이트</w>
데이비 드</w>
뉴 질
经济 人</w>
新 建</w>
态 势</w>
庆 州</w>
常 识</w>
加利 福
미 나</w>
급 변</w>
공 작</w>
达 姆</w>
萨 达姆</w>
硕 士</w>
山 顶</w>
휩 싸</w>
토 로</w>
자 아</w>
번 지</w>
그 루</w>
귀 환</w>
周 永</w>
주 니어</w>
성 대</w>
사 내</w>
매 도</w>
뉴질 랜드</w>
극 도</w>
讽 刺</w>
岭 南</w>
共 产</w>
伸 出</w>
m ba</w>
3 2
목 격</w>
공 관</w>
거 부
首 场</w>
治 安</w>
威 力</w>
售 价</w>
办 事</w>
人 文</w>
공 직자</w>
尼日 利亚</w>
东 北</w>
n i
아 내
아내 가</w>
食 用</w>
遥 远</w>
连续 剧</w>
住 宿</w>
읽 기</w>
숨 지</w>
베 스트</w>
남자 들</w>
示 范</w>
无 能</w>
当 局
当局 者</w>
制 作
해 내</w>
진 작</w>
엑스 포</w>
불 러
관련 자</w>
访 华</w>
异 议</w>
山 区</w>
n o</w>
하 길</w>
테 크</w>
집 착</w>
장 미</w>
용 은</w>
동 양</w>
납 득</w>
渴 望</w>
早 日</w>
증 진</w>
유 나이
유나이 티드</w>
모 범</w>
生 长</w>
해 임</w>
탄 탄</w>
원자 력
몽 골</w>
见 解</w>
慈 善</w>
博 客</w>
中 途</w>
三 十</w>
mp 3</w>
e l</w>
고 령
记 载</w>
气象 厅</w>
故 障</w>
지 성</w>
용 납</w>
야 채</w>
쓸 데
坚 强</w>
出生 率</w>
참 가
사이 다</w>
박정 희</w>
러 일</w>
국제 공항</w>
金泳 三</w>
规 章</w>
综 艺</w>
天 天</w>
연구 팀</w>
악 수</w>
서초 구</w>
맞 춤</w>
농 성</w>
数 值</w>
前 例</w>
决 断</w>
上 帝</w>
인 선</w>
순 매</w>
배 포</w>
가 스
议 书</w>
模 型</w>
an d
편 입</w>
특 위</w>
일 행</w>
수 첩</w>
今 晚</w>
해 결
컨테이 너</w>
염 려</w>
연 평균</w>
실 체</w>
스 코
소 감</w>
사 거리</w>
구 니</w>
种 植</w>
小 偷</w>
中 方</w>
不 堪</w>
판매 가</w>
창 설</w>
영 혼</w>
바 이트</w>
누 적</w>
이 어</w>
거 행</w>
개 각</w>
雷 达</w>
身 份
身份 证</w>
老 年</w>
天 主教</w>
f or
플 래
일 괄</w>
올 려
도 주</w>
解 放</w>
感 性</w>
已 故</w>
3 3
콜 라</w>
철 도
干 燥</w>
토 늄</w>
추 방</w>
연 관</w>
무 르</w>
角 落</w>
창 구</w>
美 方</w>
牺 牲
注 入</w>
卢 前</w>
플루 토늄</w>
프로 농구</w>
임 용</w>
교 정</w>
驻 扎</w>
亚 于</w>
특별 법</w>
타 수</w>
일 찌감치</w>
인 형</w>
영 리</w>
상 시</w>
维 修</w>
无 聊</w>
太阳 能</w>
활 짝</w>
소 요</w>
路 口</w>
率 领</w>
气 象</w>
思 维</w>
复 活</w>
h y
플 로
자 책</w>
이 주</w>
언 덕</w>
숙 이</w>
나 무
地 里</w>
嘱 咐</w>
하나 하나</w>
사 서</w>
베 어</w>
转 为</w>
期 望</w>
录 取</w>
强 力</w>
一 整天</w>
익 명</w>
서 적</w>
고 령</w>
豪 华</w>
罪 行</w>
灰 尘</w>
主 导
사 려</w>
龄 化</w>
第二 年</w>
晚 饭</w>
名 人</w>
오 리
아마 추어</w>
스 터
두 려움</w>
除 此</w>
百 货店</w>
构 筑</w>
尾 巴</w>
플루 엔
플루엔 자</w>
인 플루엔자</w>
운 반</w>
煽 动</w>
挽 救</w>
탄 력</w>
금 품</w>
驳 回</w>
好 评</w>
타 지</w>
수 령</w>
분 경</w>
따 위</w>
速 滑</w>
处 以</w>
创 建</w>
亲 近</w>
우 울
鞋 子</w>
草 案</w>
欢 呼</w>
打 扫</w>
尼 斯</w>
住 房</w>
on g</w>
디스 플레이</w>
审 判
大 雨</w>
l d</w>
퇴 출</w>
애 가</w>
관 건</w>
树 林</w>
提 琴</w>
传 染
중 립</w>
이 너</w>
리 드</w>
거 든</w>
财经 部</w>
英 格兰</w>
废 弃</w>
大 师</w>
2 3.
탄 도
여 성
브 로
남 도</w>
李 钟
最 少</w>
无 疑</w>
초 안</w>
지 각</w>
장 단</w>
말 투</w>
둘러 보</w>
까 닭</w>
국 기</w>
美术 馆</w>
日 记</w>
卫 生
야 드</w>
脂 肪</w>
欺 诈</w>
m v
출 산
내 의</w>
尽 情</w>
培 训</w>
이 식</w>
우 울</w>
아 라비아</w>
두 루</w>
回 应</w>
单 一</w>
kbs 2</w>
희 섭</w>
컨 설
전 신</w>
엔 화</w>
레이 더</w>
강 호</w>
运 转</w>
许 丁
知 名</w>
临 近</w>
체 질</w>
입 양</w>
언론 사</w>
부 수</w>
배 추</w>
목 표
대 포동</w>
대 검찰청</w>
교 포</w>
音乐 会</w>
流 出</w>
노동 조합</w>
널 드</w>
高 喊</w>
爱 好</w>
演 艺</w>
图 书</w>
和 谐</w>
否 决</w>
포 도</w>
정 직</w>
국민 연금</w>
退 党</w>
浮 出</w>
市 政府</w>
和 国际</w>
叙 利亚</w>
事 后</w>
디 아</w>
扩 张</w>
우리 측</w>
박 스</w>
맥 락</w>
로 나</w>
도 이다</w>
노 트
남 북한</w>
生活 费</w>
海 运</w>
拆 除</w>
学 年</w>
好 奇</w>
嘴 里</w>
原 则
内 定</w>
仿 佛</w>
p e
b u
지 주</w>
을 수</w>
선 동</w>
돼 지
注 视</w>
마 르
劳动 力</w>
克里 斯
偿 金</w>
프로 골프</w>
코 미
외교 안보</w>
여자 친구</w>
사 료</w>
改 案</w>
元 和</w>
修 改案</w>
dm z</w>
4 5
분 담</w>
메 모리</w>
乓 球</w>
乒 乓球</w>
어 뜨리</w>
실 감</w>
당 대회</w>
停 车
탤 런트</w>
철 이</w>
은 지</w>
요 건</w>
앞 뒤</w>
관람 객</w>
계약 서</w>
讲 课</w>
脆 弱</w>
时 光</w>
午 饭</w>
세계 대전</w>
输 入</w>
纯 一郎</w>
泉 纯一郎</w>
广 州</w>
小 泉纯一郎</w>
卷 入</w>
쳐 지</w>
어 넣</w>
상 부</w>
모 터
许丁 茂</w>
移 植</w>
制 品</w>
이상 하</w>
원자 력</w>
세종 로</w>
기 밀</w>
강 점</w>
郁 症</w>
小 小
叔 叔</w>
중 고</w>
아쉬 움</w>
만 점</w>
다 가
绑 架
名 列</w>
스티 븐</w>
본 점</w>
다 이</w>
교 제</w>
한 인</w>
통 지</w>
카 운
목 록</w>
대 도</w>
退 休
观光 部</w>
落 实</w>
策 略</w>
타 점</w>
킬 로
총 수</w>
지 리</w>
과 열</w>
疏 忽</w>
摔 倒</w>
开 业</w>
公 演</w>
不 容</w>
처 녀</w>
잔 뜩</w>
슈 퍼
관 념</w>
게 시</w>
诚 意</w>
营 造</w>
盖 茨</w>
教 学</w>
作 物</w>
中 秋</w>
어 둠</w>
运 气</w>
研究 组</w>
哭 泣</w>
不 理</w>
허 리
신입 사원</w>
得 不到</w>
小小 的</w>
农 林
지 게</w>
스 팅</w>
무 죄</w>
단 단</w>
노 릇</w>
고구 려</w>
绝 望</w>
对 峙</w>
大 多</w>
在 下</w>
制 铁</w>
경 신</w>
最 有</w>
内 衣</w>
출 생</w>
아 직
삼 진</w>
분 산</w>
발 간</w>
민 의</w>
경 협</w>
개 조</w>
探 索</w>
外 表</w>
农 协</w>
현대 그룹</w>
심 사
깨 지</w>
감 지</w>
短 暂</w>
男 朋友</w>
强 迫</w>
年 均</w>
합 치</w>
터 널</w>
쿠 버</w>
수 교</w>
산업 은행</w>
교 생</w>
가 뭄</w>
캐 스팅</w>
중 간
오 류</w>
세 수</w>
돌아 다니</w>
受 贿</w>
几 点</w>
全 党</w>
m a</w>
탄도 미사일</w>
연구 개발</w>
단 점</w>
永 久</w>
关 门</w>
s k
치 지</w>
부 작용</w>
기 류</w>
西 瓜</w>
忙 碌</w>
한 중</w>
퇴 임</w>
이 세
이 리
울 린</w>
哥 伦
d i
a s</w>
17 00</w>
좀 처럼</w>
정 찰</w>
디자 이너</w>
经 典</w>
收益 率</w>
入 场
후 퇴</w>
천 명</w>
우울 증</w>
에어 컨</w>
수 용
소 시
방 위
误 解</w>
股 指</w>
素 材</w>
很 小</w>
回 事</w>
从 中</w>
am a</w>
청 계
노트 북</w>
국 수</w>
가 만히</w>
铜 像</w>
老 是</w>
精 英</w>
国 策</w>
募 集</w>
东 省</w>
통 역</w>
채권 단</w>
알 아
수 염</w>
단 추</w>
기 인</w>
금 요일</w>
谷 歌</w>
拉 姆</w>
官 僚</w>
大 举</w>
地 理</w>
조 회</w>
일 환</w>
방송 사</w>
매 진</w>
柏 林</w>
农 林</w>
손 자</w>
理事 国</w>
海 底</w>
平 凡</w>
实 物</w>
书 店</w>
举 起</w>
호 랑</w>
윌 리
리 처
로 라</w>
등 판</w>
가 전</w>
枪 击</w>
女 生</w>
不 信任</w>
피 의자</w>
추 출</w>
차 분</w>
입 력</w>
입 단</w>
영 어
상관 없이</w>
마 신</w>
解 开</w>
发 明</w>
침 투</w>
침 범</w>
비 어</w>
공 고</w>
金炳 铉</w>
逐 步</w>
拦 截</w>
召 集</w>
光 荣</w>
프랑 스
평 택</w>
소 위</w>
명 인</w>
림 돌</w>
군 데</w>
걸 림돌</w>
证 书</w>
第 五</w>
滥 用</w>
打 架</w>
制 药</w>
t w
행 렬</w>
운 전
여 전</w>
서 양
사 생활</w>
미술 관</w>
계 신</w>
阿 里
减 税</w>
公 团</w>
잠 수</w>
사업 자</w>
날 의</w>
고 의</w>
覆 盖</w>
目 的
np t</w>
변 명</w>
돌 아서</w>
被 捕</w>
点 燃</w>
워 스</w>
발 사
감 싸</w>
民 意</w>
学 系</w>
전 작</w>
엑 스</w>
성 균
반 미</w>
라이 벌</w>
때 로는</w>
가 닥</w>
参 战</w>
包 围</w>
一 对</w>
티 브</w>
총 리
지상 파</w>
자 르</w>
아 치</w>
踏 上</w>
绑架 者</w>
售 出</w>
용 감</w>
서 두르</w>
食 品
树 上</w>
작 정</w>
을 수록</w>
억 지로</w>
교육 비</w>
束 缚</w>
性 别</w>
出 境</w>
핵 개발</w>
올려 놓</w>
김 용
걸 어가</w>
除 去</w>
转 播</w>
所 为</w>
정치 가</w>
이 사국</w>
악 재</w>
무 효</w>
개 장</w>
场 地</w>
不 必要</w>
2 1.
제 고</w>
응 하</w>
얼 어
얼어 붙</w>
소 방</w>
必 需</w>
亚 洲
통화 기금</w>
여기 저기</w>
순 식간</w>
밴 쿠버</w>
透 明
小 事</w>
农林 部</w>
中 将</w>
2 30</w>
재판 관</w>
장 기간</w>
비 밀
밀 가루</w>
食 堂</w>
烧 酒</w>
本 土</w>
战 场</w>
中 年</w>
一 支</w>
융 합</w>
紧 紧</w>
琼 斯</w>
把 握</w>
ko tra</w>
자 매</w>
이라 면서</w>
외국 계</w>
青 春</w>
宝 石</w>
媛 媛</w>
여 덟</w>
수 량</w>
사 학</w>
녹 화</w>
广 阔</w>
198 3</w>
탈 퇴</w>
장 례</w>
우 의</w>
용 한</w>
상 업
박 사
물 체</w>
구 별</w>
계 란</w>
等 等</w>
漫 长</w>
3 7
이동 통신</w>
용 사</w>
불 꽃</w>
베를 린</w>
调查 组</w>
詹 姆斯</w>
爱 国</w>
服 从</w>
新 华
报 酬</w>
悲 观</w>
候 选</w>
一 道</w>
어쩌 면</w>
섭 취</w>
서 부터</w>
사 들이</w>
过 热</w>
示 威
医 药品</w>
학 술
으로 서는</w>
아직 은</w>
남북 정상회담</w>
근 심</w>
건축 물</w>
种 种</w>
柔 和</w>
时 事</w>
探 测</w>
响 起</w>
접 시</w>
원 만</w>
소 극</w>
부 하</w>
보 리</w>
는 게</w>
경제 성장</w>
示威 者</w>
电视 机</w>
灰 色</w>
屏 幕</w>
哪 些</w>
公 文</w>
乐 器</w>
业 主</w>
일 해</w>
분 별</w>
문화 가</w>
감 격</w>
自 愿</w>
生 素</w>
最 长</w>
心 态</w>
전 쟁
일 러</w>
윌리 엄</w>
원 망</w>
金 英
lo ve</w>
g r
청계 천</w>
영 문</w>
결 함</w>
검찰 총장</w>
가 전
骄 傲</w>
研 发</w>
殴 打</w>
日 语</w>
往 年</w>
尺 码</w>
填 补</w>
존 스</w>
유 쾌</w>
실 어</w>
소 란</w>
音 译</w>
注 目</w>
搞 活</w>
右 派</w>
전체 회의</w>
방송 이</w>
获 奖</w>
破 了</w>
直 线</w>
조 의</w>
웃 음
사 르</w>
预 料</w>
言 行</w>
血 压</w>
m w</w>
검 역</w>
감 수</w>
客 机</w>
人 身</w>
황 사</w>
임 대</w>
변 한</w>
기술 의</w>
贸 易
富 有</w>
2 20</w>
흡 연</w>
획 기적</w>
혈 압</w>
폭 풍</w>
전 액</w>
자본 주의</w>
아 사</w>
교 민</w>
支 部</w>
多 达</w>
행 자</w>
승 자</w>
만 도</w>
评 论
检 验</w>
急 于</w>
p er</w>
연 회</w>
연 쇄</w>
식 량
서 거</w>
상 상
김 진
강 아지</w>
慰 安
慰安 妇</w>
巡 访</w>
宣 告</w>
力 士</w>
克 制</w>
也 好</w>
인 치</w>
사 후</w>
공 헌</w>
갈 리</w>
处 在</w>
中 部</w>
so c</w>
자 재</w>
악 의</w>
紧 缩</w>
机 制</w>
体 内</w>
nh k</w>
머 릿
금 호</w>
금 년</w>
관 례</w>
공 대</w>
考 察</w>
曲 线</w>
l y</w>
b i
크 라
질 의</w>
이 탈</w>
이 대로</w>
상품 권</w>
고 스
高 建</w>
实 体</w>
人 际</w>
u r</w>
10 3</w>
역 설</w>
여 진</w>
行 贿</w>
看 过</w>
温 哥
交 接</w>
mv p</w>
mo u</w>
정 규
에이 즈</w>
단 말기</w>
개 사</w>
暖 和</w>
切 实</w>
低 下</w>
진 주</w>
영 하</w>
압 수</w>
브 라</w>
부 딪
봉 투</w>
미 흡</w>
멘 트</w>
공 급
韩 元和</w>
资 格
目的 地</w>
天 津</w>
1 19</w>
장 미
비 공식</w>
긴 장
건 네</w>
镜 子</w>
神 秘</w>
生产 线</w>
大 地</w>
加 油
余 地</w>
플 라
우 아</w>
받아 들이</w>
렌 즈</w>
등 산</w>
관계 없이</w>
谣 言</w>
论 述</w>
登 载</w>
分 明</w>
兔 子</w>
출산 율</w>
식 품
소 년
사 고
대 졸</w>
군사 력</w>
괴 롭</w>
개 통</w>
老 奶奶</w>
痛 快</w>
温哥 华</w>
197 4</w>
함 대</w>
여 가</w>
서 면</w>
드 니</w>
대 세</w>
升 起</w>
횟 수</w>
하 산</w>
원 로</w>
안 건</w>
아 름</w>
班 子</w>
침 착</w>
천 수</w>
참 관</w>
월 요일</w>
针 织</w>
视 察</w>
目 录</w>
本 性</w>
不 分</w>
충 족</w>
이상 은</w>
유니 폼</w>
신용 등급</w>
고 심</w>
要 素</w>
猪 肉</w>
物 体</w>
李 炳
心 思</w>
发 光</w>
件 数</w>
s un
18 74</w>
통 상
커 서</w>
증권 사</w>
서비스 업</w>
松 懈</w>
放 进</w>
大 街</w>
别 墅</w>
元 老</w>
해 킹</w>
막 히</w>
대 담</w>
金正 云</w>
曝 光</w>
即 可</w>
中 美</w>
与 会
카 오</w>
중앙 일보</w>
전 략
상 선</w>
가 중</w>
高 呼</w>
雪 纺</w>
那 条</w>
翅 膀</w>
点 钟</w>
李 光
旋 转</w>
战 队</w>
屠 杀</w>
倾 听</w>
买 进</w>
외 선</w>
실 전</w>
시 리아</w>
靖 国</w>
血 管</w>
弥 补</w>
声 称</w>
勇 士</w>
加 速</w>
再 说</w>
임 자</w>
录 音
善 于</w>
加 剧</w>
g n
타이 틀</w>
으 셨</w>
보 드</w>
내 심</w>
국제 통화기금</w>
국 어</w>
一 味</w>
원 천</w>
옷 차림</w>
설 사</w>
등록 금</w>
댄 스</w>
郑梦 九</w>
炎 热</w>
컨설 팅</w>
울 러</w>
아 울러</w>
소 매
서 버</w>
넉 넉</w>
그 랜드</w>
가로 막</w>
机 票</w>
旅行 社</w>
v o
해 운
염 병</w>
선 도</w>
불 확실</w>
기 아</w>
马 斯</w>
过 后</w>
牛 仔
不 亚于</w>
s ho
en t
합의 가</w>
절 망</w>
이 은</w>
음 모</w>
급 속</w>
说 谎</w>
英 超</w>
出 名</w>
p m</w>
액 션</w>
알 렉
蛋 糕</w>
经 合</w>
届 时</w>
完 工</w>
单 一
不 上</w>
a c</w>
2 2.
벌 리</w>
대 수</w>
가져 가</w>
莱 坞</w>
消 耗</w>
惩 戒</w>
好 莱坞</w>
坠 落</w>
일 체</w>
어 리
서 재</w>
독 재
늦 추</w>
果 川</w>
更 新</w>
日 内
日内 瓦</w>
巨 人</w>
分 发</w>
便 利</w>
e d</w>
추 격</w>
隧 道</w>
荣 誉</w>
其 他人</w>
케이 블</w>
비 타
돌 려주</w>
挽 回</w>
天 使</w>
不 然</w>
카 드
주 저
제 네
으 면서도</w>
예 능</w>
세 심</w>
러 브</w>
김 현
村 里</w>
拳 击</w>
抱 怨</w>
工 科</w>
再 见</w>
下 定</w>
o b
3 8
엘 리트</w>
신중 하</w>
고 립</w>
游 泳
检察 院</w>
之 地</w>
절 단</w>
소 모</w>
블라 우스</w>
무 원</w>
모 욕</w>
농 림
건 너
遗 体</w>
纯 粹</w>
夏 威
내 달</w>
가 해</w>
财 阀</w>
球 赛</w>
牛仔 裤</w>
炫 耀</w>
五 个</w>
专 务</w>
홀 히</w>
여 배우</w>
소 홀히</w>
루 어지</w>
관 영</w>
特 色</w>
样 品</w>
拜 访</w>
思 念</w>
6. 25</w>
정 체
신 원</w>
산 시</w>
단 련</w>
朝鲜 族</w>
宇 航
충 청
주 거</w>
유 효</w>
왕 래</w>
수 분</w>
손해 배상</w>
선 명</w>
사 주</w>
복 장</w>
는 지도</w>
隔 离</w>
长 寿</w>
单一 化</w>
t f</w>
터 뜨리</w>
정 대</w>
월 말</w>
아니 야</w>
그림 자</w>
가 축</w>
难 免</w>
微 软</w>
징 후</w>
연 소</w>
섹 시</w>
농 협</w>
내 세우</w>
경 사</w>
涤 纶</w>
学 业</w>
大 都</w>
창 작</w>
증 폭</w>
유 보</w>
삼 가</w>
부 통
麻 生</w>
遇 见</w>
脚 石</w>
昨 晚</w>
摔 跤</w>
天 上</w>
四 大</w>
이 루어지</w>
보 가</w>
공 직
看 书</w>
流 逝</w>
有 罪</w>
最低 值</w>
허 물</w>
조사 단</w>
양 호</w>
애 도</w>
부통 령</w>
냉 정</w>
良 心</w>
索 伦</w>
河 水</w>
气 势</w>
国 旗</w>
19 45</w>
지 루</w>
전 락</w>
얀 마</w>
미 얀마</w>
국 주의</w>
검 정</w>
常 见</w>
傲 慢</w>
传染 病</w>
하 리</w>
전 임</w>
로 이</w>
달 리기</w>
노 미</w>
구 미</w>
곤 두
迈 克尔</w>
外 科</w>
听 见</w>
不 通</w>
w bc</w>
천 지</w>
주저 앉</w>
제 멋대로</w>
온 실
부 채
관리 가</w>
페 이스</w>
조 종</w>
실 례</w>
마 이</w>
란 색</w>
난 처</w>
题 材</w>
无 可</w>
教 员</w>
发 球</w>
停车 场</w>
主 办
ne t</w>
축 적</w>
이세 돌</w>
유 독</w>
실 사</w>
르 르</w>
饮 酒</w>
皱 纹</w>
手 法</w>
忙 于</w>
夏威 夷</w>
地 价</w>
할 리
천 시</w>
연 안</w>
여 우</w>
进 出口</w>
水 分</w>
a y</w>
열 흘</w>
상 황
관 장</w>
阿 尔
福 祉</w>
来 往</w>
팔 레
투자 은행</w>
우 체
무 더기</w>
당 정</w>
눈 썹</w>
李昌 镐</w>
布 莱
勇 敢</w>
专 业
da um</w>
하 긴</w>
신 제품</w>
관 심사</w>
国 境</w>
b er
4 500</w>
10 8</w>
치 안</w>
취 직</w>
쳐 다보</w>
속 속</w>
당 첨</w>
경제 연구원</w>
固 有</w>
10 4</w>
재 직</w>
브라 운</w>
기후 변화</w>
곡 물</w>
贬 值</w>
热 爱</w>
正 正</w>
摄 影</w>
尽 可能</w>
大 王</w>
受 理</w>
피 랍</w>
트 위
이 건
더 블</w>
김 선
金 成
衰 退</w>
界 限</w>
法 律
摩 托
排 斥</w>
이 듬
이듬 해</w>
예 상
안전 보장</w>
스 레</w>
성 형</w>
身 赛</w>
花 园</w>
盈 利</w>
热 身赛</w>
救 济</w>
发 型</w>
反 抗</w>
2 tv</w>
활 기</w>
화 상</w>
신 년</w>
변 호
기 각</w>
木 头</w>
축구 협회</w>
은 은</w>
아 베</w>
날 아가</w>
跟 随</w>
新 车</w>
接 待</w>
保 罗</w>
타이 어</w>
열 매</w>
시 집</w>
길 거리</w>
滋 病</w>
彩 票</w>
好 事</w>
区 间</w>
전 진</w>
악 기</w>
神 起</w>
明 亮</w>
录 像</w>
加 大</w>
东方 神起</w>
y s</w>
m ent</w>
관리 위원회</w>
공 문</w>
学 生
大 臣</w>
增 进</w>
协 力</w>
世界 性</w>
j y
타 율</w>
이해 찬</w>
아르 바이트</w>
아 리
麻 痹</w>
领 养</w>
能 化</w>
白 人</w>
深 受</w>
戒 指</w>
参加 者</w>
决 不</w>
公 馆</w>
不 可
연 필</w>
어 둡</w>
선거 운동</w>
떠 올리</w>
국민 소득</w>
轻 轻</w>
群 体</w>
死 去</w>
分 析
체 크</w>
천 연</w>
처 가</w>
상 공
병 대</w>
깃 발</w>
강 대국</w>
钱 财</w>
致 命</w>
圣 诞</w>
偏 向</w>
정 계</w>
애 인</w>
생 애</w>
预算 处</w>
金 氏</w>
氧 化
意 料</w>
忘 录</w>
备 忘录</w>
克 隆</w>
s i
2 400</w>
자 택</w>
방 문
대 열</w>
疯 狂</w>
景 象</w>
懂 得</w>
去 除</w>
2 4.
탁 월</w>
자 위</w>
국가 안보</w>
거 점</w>
逻 辑</w>
筹 措</w>
k o</w>
동계 올림픽</w>
더 군</w>
교 재</w>
광 주
迄 今</w>
购 买
罪 名</w>
名 声</w>
팔레 스타
틀림 없</w>
전 지
이화 여대</w>
을 까요</w>
외 곽</w>
비타 민</w>
비 공</w>
납 품</w>
金 浦</w>
添 加</w>
快 点</w>
不 能
진 하</w>
직 위</w>
젯 밤</w>
임시 국회</w>
어 젯밤</w>
어 다</w>
부 임</w>
도 저히</w>
기 성</w>
급 식</w>
급 감</w>
균 형
개 선
整 形</w>
m m
외 과</w>
설 문</w>
매 기</w>
동반 자</w>
꾸 미</w>
退休 金</w>
电影 院</w>
物 理</w>
灭 亡</w>
整 容</w>
数 十
召 回</w>
互 换</w>
이 코
마 스크</w>
드 레스</w>
附 加
艰 苦</w>
汉 阳</w>
朝 方</w>
打 造</w>
包 容</w>
우 표</w>
신 화
불 빛</w>
방 사
디 움</w>
규 탄</w>
교육 감</w>
不 成</w>
헌법 재판소</w>
시 중
面 孔</w>
赚 取</w>
解 体</w>
祖 先</w>
炮 弹</w>
低 廉</w>
품 의</w>
전 당대회</w>
왕 성</w>
온실 가스</w>
백 인</w>
同 比</w>
af p</w>
할리 우드</w>
덴 마크</w>
대 강</w>
议 论</w>
征 兆</w>
亚 军</w>
u st
해 설
찌 르</w>
임 명
우 물</w>
笼 罩</w>
口 味</w>
亚 州</w>
不能 不</w>
100 m</w>
화 기</w>
전 국
오 스트
석 진</w>
보건 복지</w>
병 세</w>
대 법관</w>
노 조원</w>
그 라운드</w>
겸 손</w>
无 前例</w>
打 进</w>
史 无前例</w>
信 徒</w>
플 러스</w>
적 대</w>
용 병</w>
용 량</w>
스타 디움</w>
비서 실장</w>
교 대</w>
食品 部</w>
难 题</w>
艾 滋病</w>
纪念 馆</w>
查 出</w>
开 拓</w>
회의 소</w>
부 풀</w>
명 회</w>
들 이
대 충</w>
결 말</w>
葡 萄</w>
能 量</w>
热 闹</w>
台 词</w>
入 驻</w>
화 폐
테 일</w>
오 페
설 비
맞 붙</w>
들어 주</w>
드 림</w>
기 피</w>
가져 오</w>
肌 肤</w>
演 奏
k e</w>
고 루</w>
강 변</w>
高 龄</w>
香 气</w>
赶 上</w>
议 席</w>
条 例</w>
戏 剧</w>
得 主</w>
修 正</w>
0 1</w>
이 태
식 장</w>
숭 이</w>
수 산</w>
석 이</w>
起 初</w>
听 众</w>
하 나이</w>
지 애</w>
이 웃
목 욕</w>
货 车</w>
棉 花</w>
w o
ar d</w>
조 상</w>
오 락
양 시</w>
시 체</w>
급 격</w>
각 계</w>
考 上</w>
王 朝</w>
工 学</w>
失 业者</w>
从 不</w>
不 说</w>
취 임
최고 위원</w>
집 중
장학 금</w>
유 화</w>
야 외</w>
사업 장</w>
르 지</w>
동 시</w>
다 발</w>
飞行 员</w>
这 话</w>
环 境
海 盗</w>
把 手</w>
不 定</w>
3 6
프로 축구</w>
거 장</w>
流 泪</w>
商 船</w>
告 示</w>
入 场</w>
한 차례</w>
트위 터</w>
통합 민주</w>
질 주</w>
재 주</w>
설 명회</w>
변 함</w>
郑 大
着 陆</w>
泪 水</w>
此 举</w>
危 害</w>
특 이</w>
쿠 니</w>
체 감</w>
좋 아지</w>
여행 객</w>
기념 관</w>
面 的</w>
星期 天</w>
잇 따르</w>
신 세계</w>
선 적</w>
보 증
김 남
警 官</w>
孙 子</w>
진 로</w>
시 상식</w>
스 쿨</w>
송 환</w>
끌어 올리</w>
饥 饿</w>
赛 事</w>
装 载</w>
真 诚</w>
录 音</w>
一 口气</w>
s s</w>
재 확인</w>
우 편</w>
상공 회의소</w>
두 렵</w>
견 지</w>
天 生</w>
쿠 바</w>
적 정</w>
저 하</w>
陆 战队</w>
输 给</w>
李 英
文 艺</w>
9 11</w>
한국 시간</w>
철 폐</w>
전 념</w>
외 투</w>
어 기</w>
꼭 대기</w>
销售 量</w>
被 迫</w>
巴 勒
岛 屿</w>
命 名</w>
호 흡
적 잖</w>
우 위</w>
완 수</w>
시 겠</w>
동 정</w>
각 기</w>
授 予</w>
产 地</w>
一 贯</w>
추 궁</w>
스 커트</w>
사 교육</w>
부 착</w>
발 동</w>
灯 光</w>
左 手</w>
局 限</w>
堂 正正</w>
堂 堂正正</w>
公 认</w>
t g</w>
훈 련
호 응</w>
종 교
소 동</w>
미 녀</w>
뒤 지</w>
공 포
고 유가</w>
경상 수지</w>
강 좌</w>
限 性</w>
门 票</w>
酒 精</w>
联 络</w>
理 查
模 范</w>
市 厅</w>
大 城市</w>
d er</w>
창 립</w>
중 복</w>
전 주</w>
재 킷</w>
배 후</w>
꺼 리</w>
기 미</w>
策 划</w>
撤 离</w>
急 速</w>
展示 会</w>
固 执</w>
2 8.
플레이 오프</w>
의 석</w>
부 정
돼지 고기</w>
긴 밀</w>
각 서</w>
飞 船</w>
蒙 受</w>
拳 头</w>
战 后</w>
恩 惠</w>
实 地</w>
司 法
d ra
4 7
무역 수지</w>
막 강</w>
단 원</w>
美 洲</w>
票 房</w>
用 处</w>
李 荣
更 何况</w>
假 设</w>
信 托</w>
b l
폭 발
지 장</w>
권 위
가 보</w>
玩 儿</w>
某 个</w>
收 容
收容 所</w>
折 扣</w>
年 糕</w>
动 荡</w>
充 足</w>
확 립</w>
초 콜
창 당</w>
지식 인</w>
제 이</w>
영 유권</w>
산 책</w>
디 스</w>
기 법</w>
用 力</w>
愚 蠢</w>
巴勒 斯坦</w>
최 우선</w>
소 홀</w>
서울 시장</w>
니 와</w>
洗 衣
气 球</w>
极 化</w>
有 时候</w>
摩托 车</w>
호 남</w>
편 향</w>
특 보</w>
퇴 진</w>
성 폭행</w>
사 연</w>
농림 부</w>
남 용</w>
追 赶</w>
计 划
电 动</w>
大 衣</w>
参 谋
이 랑</w>
설 득
사 냥</w>
몰 두</w>
루 에</w>
닥 치</w>
고스 란히</w>
景 色</w>
4 8
잠 들</w>
유 난히</w>
세 일</w>
사 탕</w>
며 느리</w>
细 菌</w>
旗 帜</w>
摄像 机</w>
宝 贝</w>
媳 妇</w>
制 成</w>
位 数</w>
伤 亡</w>
품 고</w>
인 턴</w>
인 자</w>
양 해</w>
사우 디
사우디 아라비아</w>
불 평</w>
북 미</w>
김 형
车 道</w>
接 种</w>
197 2</w>
항 공사</w>
청 춘</w>
정 문</w>
만 지</w>
단 결</w>
野 心</w>
结 局</w>
礼 仪</w>
反 击</w>
힘 껏</w>
하 우</w>
참가 국</w>
자격 증</w>
임 금
서 점</w>
마 카오</w>
김정 은</w>
그러 다</w>
가 치
满 分</w>
하 락
주 려</w>
놀 랍</w>
기 숙
근 무
综 合
确 信</w>
旅 客</w>
客 场</w>
净 利润</w>
j p</w>
h s
현 명</w>
수 감</w>
갑 작</w>
难 关</w>
笑 话</w>
种 族</w>
流 失</w>
朴 渊</w>
未 婚</w>
偏 见</w>
er s</w>
피 고</w>
크리스 토
조사 결과</w>
안 내
서 치</w>
보 물</w>
는 커녕</w>
냉 전</w>
管 是</w>
射 箭</w>
姐 妹</w>
合 成</w>
功 能化</w>
入场 券</w>
不 管是</w>
2 7.
파이 프</w>
코미 디</w>
출 간</w>
일 간지</w>
신 뢰
비서 실</w>
그 분</w>
飞 往</w>
赶 紧</w>
告 发</w>
半 决赛</w>
匿 名</w>
1. 2</w>
틀 리</w>
정 년</w>
일 련</w>
대 국민</w>
남 지</w>
测 量</w>
惋 惜</w>
庄 稼</w>
局 限性</w>
坦 克</w>
吐 露</w>
参 议员</w>
19 0</w>
재 처</w>
으로 서의</w>
우 회</w>
신 자</w>
더욱 이</w>
계 곡</w>
财产 税</w>
w s
조정 이</w>
법 칙</w>
감 도</w>
曼 联队</w>
排 放</w>
器 官</w>
中 坚</w>
两 只</w>
d c</w>
오 로지</w>
等 到</w>
检 疫</w>
搭 载</w>
捏 造</w>
圆 满</w>
关 联</w>
佛 罗
첩 보</w>
없 어지</w>
아 르</w>
수 학
성 형
기독 교</w>
공동 성명</w>
鲍 威尔</w>
落 下</w>
注 射</w>
杀 人
再 生</w>
캘리포 니아</w>
처 장</w>
연 초</w>
니 까요</w>
的 确</w>
席 卷</w>
就 读</w>
回 生</w>
哥伦 比亚</w>
不 禁</w>
s n
사망 자</w>
부가 가치</w>
말 과</w>
남자 친구</w>
관 할</w>
职 权</w>
现 役</w>
新 村</w>
打 工</w>
기술 부</w>
谦 虚</w>
盟 国</w>
用 语</w>
巡 回</w>
p g</w>
타 르</w>
발 매</w>
국 책
过 剩</w>
碰 到</w>
录 片</w>
力 以
力以 赴</w>
全 力以赴</w>
왼 손</w>
벽 돌</w>
구 청</w>
这 点</w>
眼 里</w>
公 示</w>
上 网</w>
형 차</w>
폭 격</w>
정신 과</w>
이코 노미</w>
음 성</w>
삼성 경제연구소</w>
모니 터</w>
다음 날</w>
내려 오</w>
남 시</w>
通讯 部</w>
宣 称</w>
夸 张</w>
外 长</w>
包 裹</w>
전 권</w>
유 동</w>
성 취</w>
玻 璃
毛 病</w>
好 多</w>
下 车</w>
항 해</w>
패 널</w>
진 흙</w>
주 도권</w>
장 난감</w>
역 도</w>
남 짓</w>
飞 跃</w>
请 问</w>
圣 火</w>
友 情</w>
公 民</w>
s ars</w>
협력 업체</w>
중 히</w>
자산 운용</w>
얼마 든지</w>
수 장</w>
가 리
话 语</w>
用 来</w>
法 务</w>
弱 势</w>
勋 章</w>
197 3</w>
통 장</w>
요미 우리</w>
약 자</w>
방 망
박 연</w>
르 기</w>
단 단히</w>
단 다</w>
김 재
调 动</w>
礼 貌</w>
现代 化</w>
海 关</w>
日 出</w>
外 线</w>
境 内</w>
加油 站</w>
해 적</w>
인 세</w>
수 선</w>
서 한</w>
사 범</w>
밀 어
다가 오</w>
跳 跃</w>
菜 单</w>
4 4
20 17</w>
회 부</w>
포르 투
파 월</w>
꺼 이</w>
기 꺼이</w>
迎 合</w>
解 放
祝 福</w>
出 入境</w>
1 25</w>
1 14</w>
팔레스타 인</w>
접 종</w>
자 질</w>
분 당</w>
미 가</w>
대 왕</w>
달 빛</w>
기 고</w>
退 役</w>
虽 说</w>
立 案</w>
德 克萨斯</w>
受 损</w>
关 节</w>
侨 民</w>
중 기</w>
위 탁</w>
소 로</w>
분 할</w>
郁 闷</w>
民 事</w>
最 小</w>
挤 满</w>
怎么 会</w>
宝 座</w>
妥 当</w>
击 中</w>
全 权</w>
产 物</w>
테 마</w>
주 저</w>
선 사</w>
饭 菜</w>
코 올</w>
참 전</w>
저 작
오 차</w>
아 트</w>
부 두</w>
보 위</w>
相 处</w>
津 贴</w>
水 库</w>
孔 子</w>
壁 垒</w>
半 数</w>
十 五</w>
엉 덩이</w>
억 지</w>
반 찬</w>
김영 삼</w>
기 심</w>
芯 片</w>
抽 烟</w>
尘 暴</w>
储 存</w>
ip h
i l</w>
5 m</w>
프 란
초콜 릿</w>
조 지
분양 가</w>
면 모</w>
长 子</w>
新华 社</w>
收 费</w>
宣 判</w>
r y</w>
프 레
포 지
탑 재</w>
살 이</w>
부 유</w>
마 늘</w>
邮 票</w>
管 辖</w>
源 于</w>
拼 命</w>
平 均
崛 起</w>
句 子</w>
争 吵</w>
e bs</w>
b m</w>
태극 기</w>
기숙 사</w>
고 래</w>
결 성</w>
精 通</w>
秋 季</w>
5 6
크 림</w>
차 별
이리 저리</w>
앞 장</w>
쓸 모</w>
생 태</w>
방 한
바 치</w>
窗 外</w>
疗 法</w>
水 准</w>
服 务员</w>
捕 捉</w>
신 도</w>
많 아지</w>
도 널드</w>
나 비</w>
高 额</w>
配 偶</w>
沙 尘暴</w>
建 成</w>
干 活</w>
g e
접 어</w>
유 죄</w>
알 코올</w>
신 청
시스 코</w>
롯데 백화점</w>
남 동생</w>
간 격</w>
郑梦 准</w>
递 交</w>
辩 论</w>
英 里</w>
李 天
时 装</w>
成 语</w>
太 太</w>
冒 险</w>
佛罗 里
혈 관</w>
하나 씩</w>
하 마
중 년</w>
장 서</w>
잔 인</w>
자 부심</w>
오 라</w>
아 침
모 토</w>
노동 력</w>
连 任</w>
起 飞</w>
拥 有
安 定</w>
初 次</w>
入 睡</w>
재 무장관</w>
고 난</w>
上 周末</w>
一 丝</w>
p re
2 70</w>
학 점</w>
찾아 오</w>
언제 든지</w>
몰 려들</w>
똑 똑
규 제
개인 정보</w>
p er
3 9
2 9.
우 수
수 거</w>
비 방</w>
보 건</w>
동 화</w>
공무 원
清 晰</w>
某 些</w>
外 债</w>
原 子</w>
회 화</w>
회 사원</w>
통 로</w>
더 라면</w>
대표 부</w>
감 세</w>
餐 馆</w>
吵 架</w>
会议 室</w>
下 载</w>
m &
0 5</w>
영 구</w>
명 만</w>
뚜 껑</w>
麦 克
辅 导</w>
行 人</w>
盛 开</w>
环境 部</w>
晚 宴</w>
国际 化</w>
吃 力</w>
채 취</w>
조 립</w>
보안 법</w>
노 후</w>
교 차</w>
驱 逐
还 给</w>
轻 轻
身 亡</w>
私 生活</w>
离 别</w>
混 纺</w>
实 战</w>
威 特</w>
3 00
호 랑이</w>
종 의</w>
위 안부</w>
원 자</w>
온 종일</w>
벤 치</w>
沉 浸</w>
歌 剧</w>
很 深</w>
五 十</w>
편 견</w>
외 채</w>
농 작물</w>
노 벨
提 醒</w>
孩 儿</w>
哀 悼</w>
2 pm</w>
전 승</w>
임 박</w>
유 세</w>
월 경</w>
실 물</w>
설비 투자</w>
逃 离</w>
誉 为</w>
显 然</w>
恐 慌</w>
带 动</w>
士 气</w>
핵 심
유 인</w>
뒤 덮</w>
整 整</w>
外 电</w>
外 援</w>
图 片</w>
创 造
igh t</w>
i ve</w>
197 5</w>
조 속히</w>
자 수</w>
요 구
연 체</w>
어느 새</w>
굴 복</w>
龙 仁</w>
后 退</w>
合 计</w>
合 格
剧 性</w>
丑 闻</w>
해 이</w>
이 시</w>
양 복</w>
신화 통신</w>
수 십
극 중</w>
강 대</w>
终 点</w>
温 柔</w>
法 规</w>
往 来</w>
当 成</w>
尼 亚州</w>
吨 级</w>
你 好</w>
gir ls</w>
0 8</w>
포 드</w>
첨 단
중 화</w>
조 종사</w>
일본 군</w>
분 식</w>
망 명</w>
기술 력</w>
死 亡
博 会</w>
탄 압</w>
전지 훈련</w>
원 숭이</w>
오 토
시 들</w>
수용 소</w>
마음 껏</w>
달 걀</w>
농 림</w>
경 이</w>
같 은</w>
감 사
鼓 掌</w>
教 徒</w>
小 子</w>
分 辨</w>
下 一代</w>
g c</w>
198 1</w>
호 황</w>
조 그</w>
이창 호</w>
수 역</w>
분 해</w>
대선 후보</w>
申请 书</w>
申 智</w>
商 量</w>
哪 怕</w>
公 告</w>
st e
철 거</w>
이건 희</w>
우체 국</w>
소 수
소 규모</w>
短 道</w>
残 忍</w>
有 钱</w>
打 捞</w>
想 念</w>
心 痛</w>
만 개</w>
똑 바로</w>
계 시</w>
等 候</w>
泉 水</w>
按 摩</w>
屈 服</w>
尊 严</w>
定 居</w>
한국 축구</w>
착 각</w>
원 활</w>
아 일
시 고</w>
다시 피</w>
공 식
驱逐 舰</w>
除 名</w>
野 生</w>
补 选</w>
浓 缩
影 子</w>
引 擎</w>
奖 杯</w>
写 信</w>
텐 트</w>
작 고</w>
의 무
어 색</w>
심 도</w>
다 의</w>
골 자</w>
阴 影</w>
铅 笔</w>
裁 员</w>
老 婆</w>
土 豆</w>
单 身</w>
分 行</w>
r &
통 치
케이 크</w>
정 거리</w>
역 사가</w>
사 죄</w>
박 영
메 모</w>
나 물</w>
기아 자동차</w>
飙 升</w>
说明 会</w>
情 感</w>
干 事</w>
侦 察</w>
크리스토 퍼</w>
케이 션</w>
지지 자</w>
이 성
보장 하</w>
라 기</w>
넓 히</w>
流 向</w>
弗 雷</w>
处 方</w>
冷 淡</w>
욕 설</w>
안 쪽</w>
만 으로는</w>
诈 骗</w>
规 律</w>
昨 日</w>
张 东
前 年</w>
p h
is s</w>
2 6.
필 요
치 아</w>
이 득</w>
요 새</w>
엄 중</w>
박 모</w>
덕 이</w>
기 어</w>
계 승</w>
起 点</w>
脑 海</w>
火 车站</w>
山 坡</w>
公 交
公交 车</w>
축구 연맹</w>
창 의</w>
정 권
실 물
소 나무</w>
보 편</w>
동 이</w>
단 일화</w>
검 은색</w>
训 练
嘲 笑</w>
今 日</w>
ny t</w>
m in
총 통</w>
잃 지</w>
율 성</w>
부 쩍</w>
무 덤</w>
기 계
궁 극</w>
광 복</w>
沃 尔
汇 报</w>
平 安</w>
保险 费</w>
东 洋</w>
世 博会</w>
2 80</w>
혀 지</w>
스트 라이
보 류</w>
관 철</w>
练 习
斯 特
散 布</w>
小 伙
压 倒
压倒 性</w>
做 成</w>
修 复</w>
丹 麦</w>
7 5
폭 우</w>
전 염</w>
벤 처</w>
구 제
건 지</w>
갖 가지</w>
郑 云
舌 头</w>
收 藏</w>
寻 常</w>
例 行</w>
从 此</w>
不 负</w>
후 의</w>
제작 진</w>
정 자</w>
일 원</w>
신 축</w>
수비 수</w>
보 름</w>
3 60</w>
훌 쩍</w>
헌 신</w>
한 일
자 지</w>
원 자로</w>
열 광</w>
여 년</w>
대 박</w>
真 理</w>
情 人</w>
总 统
人 称</w>
c f</w>
월 과</w>
상 급</w>
보 강</w>
끔 찍</w>
기 침</w>
금 연</w>
逃 税</w>
牺牲 者</w>
布 置</w>
巧 妙</w>
항 로</w>
정보 통신
이 같은</w>
여 의</w>
방망 이</w>
무 능</w>
모 함</w>
개 구리</w>
风 俗</w>
米 饭</w>
正 当
官 兵</w>
如 下</w>
含 量</w>
亲 属</w>
치 명</w>
음 주</w>
본 토</w>
모 호</w>
명 보</w>
리처 드</w>
다음 주</w>
조정 하</w>
떨 어뜨리</w>
도 국</w>
나 노</w>
김 승
갈 아
旋 风</w>
改 正</w>
总 共</w>
密 码</w>
否 则</w>
两 极化</w>
不久 后</w>
一 家人</w>
뻐 하</w>
부 치</w>
동 요</w>
기 뻐하</w>
건 드리</w>
가 지
服务 器</w>
工 地</w>
丢 失</w>
ai g</w>
1 12</w>
해 산</w>
파 란</w>
종 부</w>
외 무</w>
어 음</w>
설득 력</w>
设 有</w>
擅 长</w>
度 假</w>
宏 观</w>
大 幅度</w>
혼 방</w>
함 의</w>
한 눈</w>
전 당</w>
아일 랜드</w>
명 당</w>
루 스</w>
광 산</w>
走 过</w>
纪 录片</w>
小 狗</w>
修 宪</w>
p s
짐 승</w>
세 미나</w>
메 인</w>
메 리</w>
가 든</w>
造 型</w>
笑 声</w>
处 长</w>
포르투 갈</w>
퉁 이</w>
재 앙</w>
오토 바이</w>
속 하</w>
모 처럼</w>
마 실</w>
논 술</w>
고 추</w>
가 담</w>
涉 及</w>
张 某</w>
奥 委会</w>
在 任</w>
an ce</w>
차 익</w>
져 나가</w>
유 의</w>
영 양
양 도</w>
쏠 리</w>
스케 줄</w>
빠 져나가</w>
범죄 자</w>
과 외</w>
太 郎</w>
一 级</w>
一 瞬间</w>
화 도</w>
처 리
영 은</w>
빈 곤
기념 일</w>
身 为</w>
评 为</w>
好 者</w>
中 止</w>
학 술</w>
웃 기</w>
요 령</w>
에 미
실 리</w>
산 지</w>
미 인</w>
鼓 舞</w>
英 寸</w>
悬 崖</w>
四 处</w>
受 灾</w>
훈 장</w>
해 저</w>
숭 례
숭례 문</w>
몬 드</w>
赵 某</w>
称 作</w>
爱 好者</w>
水 泥</w>
栽 培</w>
排 队</w>
一 头</w>
에미 리트</w>
보 답</w>
동 메달</w>
다 치</w>
건강 보험</w>
风 气</w>
米 酒</w>
福 特</w>
电 梯</w>
无 偿</w>
居 然</w>
好 感</w>
嗓 子</w>
c i
19 48</w>
표 적</w>
정체 성</w>
금융 권</w>
국 간</w>
诽 谤</w>
暑 假</w>
急 需</w>
大 气</w>
플레이 어</w>
팔 고</w>
출 입
신 념</w>
몸 무게</w>
막 걸리</w>
데 스</w>
가 계
长 远</w>
生 动</w>
按 时</w>
定 员</w>
境 地</w>
t on</w>
주변 국</w>
조 가</w>
재 생</w>
인 플레이션</w>
알 맞</w>
새 우</w>
李天 秀</w>
터 무
진 리</w>
주 중</w>
밝 혀지</w>
바이 오</w>
밀 접</w>
내 년도</w>
가 속
运 送</w>
跑 道</w>
眼 色</w>
清 除</w>
水 灾</w>
征 税</w>
应 答</w>
完 整</w>
冰 上</w>
军 团</w>
人 参</w>
타 워</w>
정보 기관</w>
인 양</w>
인 력
사용 자</w>
비 의</w>
考 验</w>
点 缀</w>
温 和</w>
一 举</w>
197 6</w>
1 35</w>
중 일</w>
재 편</w>
인공 위성</w>
오 일</w>
연 장
선 물
부 결</w>
두 부</w>
继 承
狂 热</w>
深 深
月 薪</w>
故 人</w>
快 递</w>
m& a</w>
풍 기</w>
천 성</w>
전 도</w>
저 녁
문 점</w>
무 단</w>
采 访
纳 米</w>
科 威特</w>
民 政</w>
医 疗
动 物
헤 어지</w>
컨 대</w>
정 해진</w>
입 건</w>
스 승</w>
병 의</w>
간 신
通 信
跑 步</w>
李 孝
既 是</w>
b si</w>
행 인</w>
키 퍼</w>
지난 번</w>
전 염병</w>
신 차</w>
부 어</w>
마 스터
골 키퍼</w>
雨 伞</w>
春 季</w>
四 周</w>
3 1.
충 성</w>
전 한</w>
상 반</w>
분 자</w>
공격 수</w>
耐 心</w>
线 条</w>
助 攻</w>
0 6</w>
조 세
아 몬드</w>
승 계</w>
다이 아몬드</w>
늘 어놓</w>
脑 子</w>
灵 活性</w>
夺 走</w>
화 산</w>
재 촉</w>
장기 화</w>
일 경</w>
유 포</w>
아 까</w>
서 열</w>
분 단</w>
바 르
리 바
동 창</w>
동 굴</w>
노 조
국제 유가</w>
豆 腐</w>
话 剧</w>
展 览</w>
体 会</w>
휴 대</w>
해 전</w>
태 평
열 악</w>
양 궁</w>
분 부</w>
들여 다보</w>
경 은</w>
车 子</w>
行 榜</w>
绊 脚石</w>
提 倡</w>
排 行榜</w>
总 体</w>
孙 鹤
19 00</w>
호 감</w>
타 리</w>
책 정</w>
주 방</w>
재 임</w>
에 스</w>
수 도
다 정</w>
공동 선언</w>
가리 키</w>
资格 证</w>
背 叛</w>
布 斯</w>
同 一个</w>
파이 낸
러 기</w>
根 源</w>
明 淑</w>
抵 押</w>
张 照</w>
古 巴</w>
反 对
w ti</w>
4 3
카 자
정기 국회</w>
이 양</w>
오 락</w>
아랍 에미리트</w>
내 다보</w>
기 해</w>
运动 会</w>
走 私</w>
说 服
皇 家</w>
现 政权</w>
火 山</w>
大 法官</w>
可 疑</w>
不 下</w>
10 2</w>
정 례</w>
저 스</w>
시 찰</w>
세 자</w>
사 기
부 사장</w>
보 시</w>
내 수
국가 경쟁력</w>
간신 히</w>
露 面</w>
p la
호 기심</w>
하 버드
상임 위</w>
묘 지</w>
당 도</w>
高 潮</w>
说服 力</w>
要 说</w>
美 的</w>
电 线</w>
更 正</w>
前 夕</w>
c t</w>
줄 줄이</w>
준 이치로</w>
조 급</w>
원 작</w>
말 자</w>
과 천</w>
강 철</w>
理 工</w>
恰 当</w>
主导 权</w>
不 肯</w>
m b
카 지
중 소</w>
정 장</w>
아 랍</w>
걷 기</w>
带 头</w>
中 国
一 百</w>
一 审</w>
현대 중공업</w>
자 백</w>
울 타리</w>
어 버리</w>
송 파구</w>
분 과</w>
기 권</w>
通 道</w>
粗 糙</w>
派 出</w>
李 宪
时 限</w>
大 致</w>
价 钱</w>
하 룻
출 판사</w>
제 동</w>
작 지</w>
삼 촌</w>
금 지
국정 운영</w>
가르 침</w>
阿里 郎</w>
败 为
败为 胜</w>
庆 熙</w>
复 制</w>
凯 恩</w>
下 雪</w>
t ion</w>
ac e</w>
200 m</w>
필 름</w>
초 조</w>
재 물</w>
으 라고</w>
세 관</w>
상 속</w>
보 내주</w>
머릿 속</w>
대 항</w>
长 辈</w>
硬 币</w>
斯 蒂
富 人</w>
n g</w>
0 4</w>
이상 인</w>
영 사</w>
연합 군</w>
볼 넷</w>
라 마</w>
난 방</w>
가 문</w>
进 程</w>
哈 萨
中 国队</w>
패 러
중앙 통신</w>
조 차도</w>
자신 도</w>
이틀 간</w>
와 중</w>
아 먹</w>
방송 국</w>
과 실</w>
공 짜</w>
卓 越</w>
人 大</w>
아 홉</w>
시 가
배 구</w>
국 력</w>
自 律</w>
浓缩 铀</w>
朴 周永</w>
困 扰</w>
총 파업</w>
주 차장</w>
상 생</w>
부 끄럽</w>
배 당</w>
국가 보안법</w>
가 족
雷 曼</w>
零 下</w>
言 语</w>
惨 败</w>
总 理
强 势</w>
富 豪</w>
国 力</w>
世界 化</w>
g en
19 49</w>
문 장은</w>
谋 求</w>
蝴 蝶</w>
根 本上</w>
报 名</w>
哈 哈</w>
향 수</w>
총 명</w>
주 차</w>
연 료
변 형</w>
내 신</w>
남 대</w>
穿 过</w>
沃 思</w>
奉 献</w>
t e</w>
m i</w>
20 18</w>
후 원금</w>
쿠 웨이트</w>
안 과</w>
악 영향</w>
씨 름</w>
스토 랑</w>
쇼 크</w>
무 인</w>
레 스토랑</w>
기 재</w>
고 만</w>
경쟁 률</w>
狐 狸</w>
本 金</w>
幼 儿</w>
周 日</w>
一 体</w>
at e</w>
카지 노</w>
제 권</w>
잔 디</w>
어 머</w>
경 비
糊 涂</w>
打 败</w>
募 捐</w>
不 怕</w>
프리미 엄</w>
칼 라</w>
사 병</w>
군 단</w>
걸 맞</w>
味 儿</w>
周 六</w>
为 首</w>
i v
dm a</w>
편 집
크 로스</w>
살아 있</w>
西 欧</w>
短 短</w>
困 惑</w>
청 중</w>
청 약</w>
전 장</w>
자 선</w>
임 진
이 언</w>
불 균형</w>
민 영</w>
두 께</w>
酒 吧</w>
福 田</w>
点 点</w>
ar a</w>
학 비</w>
이 크</w>
양 말</w>
도 모</w>
담당 자</w>
관 세
额 头</w>
赌 场</w>
歌 词</w>
反 恐</w>
ic a</w>
hs bc</w>
1 11</w>
행 성</w>
충 동</w>
인 건
인건 비</w>
원 시</w>
우리 집</w>
왕 복</w>
대 주</w>
그 레이드</w>
개 도국</w>
进 修</w>
船 上</w>
核 查</w>
李荣 杓</w>
张东 健</w>
属 实</w>
专 科</w>
e e
황 금
키 아</w>
제네 바</w>
인 간
수 차례</w>
내 장</w>
끼 치</w>
确 切</w>
服务 业</w>
居 住
安 全部</w>
发 性</w>
共同 点</w>
停 车</w>
世 人</w>
폭 넓</w>
주 춤</w>
사 채</w>
발 명</w>
노 예</w>
나 돌</w>
경제 인
附 属</w>
量 级</w>
被 子</w>
缺 少</w>
基 本上</w>
协 议书</w>
几 十</w>
신 성</w>
손 발</w>
새 기</w>
반 의</w>
김 기
铜 牌</w>
识 别</w>
珍 珠</w>
东 欧</w>
표 지</w>
정보 통신</w>
데 일리</w>
고 아</w>
경제인 연합회</w>
게 이
西 洋</w>
时 说</w>
携 手</w>
征 服</w>
信 仰</w>
천연 가스</w>
차 피</w>
이 차</w>
의 주</w>
유 소</w>
어 차피</w>
쌍 둥이</w>
소 행</w>
부르 크</w>
면 허</w>
较 少</w>
玛 丽</w>
数 万</w>
手 套</w>
帐 篷</w>
小 区</w>
安 心</w>
动 不动</w>
천 국</w>
유 적</w>
숨 에</w>
만 수</w>
그래 야</w>
곡 식</w>
老 百姓</w>
棋 手</w>
手 上</w>
反 感</w>
事 宜</w>
자 취</w>
북 방한
북방한 계선</w>
급 성</w>
공 산</w>
难 度</w>
邻 国</w>
电 器</w>
발 길</w>
무 릅
무릅 쓰</w>
메 우</w>
韩 明淑</w>
象 征
自 称</w>
狮 子</w>
培 育</w>
叫 做</w>
w n</w>
한 잔</w>
하이 브리
취 업자</w>
자 위대</w>
봉 하</w>
문 학
学生 会</w>
南 海</w>
借 给</w>
파 손</w>
오스트 리아</w>
사 장님</w>
귀 하</w>
陪 同</w>
长 久</w>
金融 界</w>
精 心</w>
竞 赛</w>
监 听</w>
延 迟</w>
印 刷</w>
中 韩</w>
m on
6 6
0 9</w>
원 생</w>
연 방
성균 관대</w>
보 트</w>
보 도
뱅 크</w>
배 터리</w>
长 安</w>
焦 急</w>
拉 斯</w>
年 龄
头 部</w>
个 体</w>
2 60</w>
효 성</w>
해결 책</w>
제 압</w>
에게 만</w>
슬 림</w>
백 두산</w>
귀 엽</w>
구 르</w>
行 事</w>
碎 片</w>
剥 夺</w>
书 面</w>
정 수</w>
자 진</w>
자 니</w>
유 가족</w>
술 집</w>
수 시</w>
빈곤 층</w>
부 위원장</w>
무 실</w>
陆 地</w>
而 然</w>
激 增</w>
功 劳</w>
优 良</w>
탐 지</w>
친 분</w>
찬 란</w>
인 대</w>
연 기자</w>
엉 뚱</w>
스 프
생 사</w>
러 시아
대 피</w>
대 성</w>
科 科</w>
深 圳</w>
涌 入</w>
歌 声</w>
年龄 段</w>
地 利</w>
哈萨 克斯坦</w>
n as
ar f</w>
후쿠 다</w>
증 강</w>
점 령</w>
장 마</w>
이 윤</w>
땅 값</w>
대 의원</w>
감 청</w>
送 往</w>
腰 部</w>
耀 眼</w>
快 要</w>
大 奖</w>
哎 呀</w>
c ap
정 복</w>
오래 전</w>
실 상</w>
신 수</w>
막 상</w>
국정 감사</w>
麦 凯恩</w>
自然 而然</w>
筹 备</w>
基 金
众 席</w>
r& d</w>
2 300</w>
요 약</w>
신 비</w>
법 인세</w>
리 먼</w>
대통령 직</w>
단 거리</w>
隐 形</w>
掠 夺</w>
奖 赛</w>
大 奖赛</w>
해 병대</w>
포 즈</w>
청 구
중앙 정부</w>
조 업</w>
일본 어</w>
이라크 전쟁</w>
우 다</w>
수 산
쇼트 트랙</w>
겨 지</w>
该 片</w>
管 道</w>
理查 德</w>
牛 仔</w>
明 桓</w>
小伙 子</w>
原 有</w>
da y</w>
품 종</w>
유 연
연 도</w>
심 심</w>
명 확히</w>
말 다툼</w>
국제 기구</w>
规 划</w>
法 学院</w>
旅 游
当 今</w>
취 업
전 산
인민 회의</w>
이 윤
야 생</w>
안 일</w>
백 령
백령 도</w>
대응 책</w>
깨 비</w>
결 점</w>
皮 革</w>
杀 死</w>
斯 坦
技 巧</w>
心 意</w>
安 德
向 着</w>
ob ama</w>
징 수</w>
자 만</w>
일 가</w>
랑 프리</w>
그 랑프리</w>
국 고</w>
金正 男</w>
歌 唱</w>
李宪 宰</w>
搬 家</w>
安 贞
地 狱</w>
右 翼</w>
투 구</w>
전화 번호</w>
유 골</w>
성 남시</w>
밀 고</w>
귀 중</w>
거 북</w>
邮 局</w>
转 动</w>
虐 待</w>
自由 泳</w>
演 艺
悲 惨</w>
两 岸</w>
히 로
퍼 팅</w>
직 업
제 어</w>
심 의
실 세</w>
분 향</w>
모 로</w>
随 行</w>
苦 难</w>
用 水</w>
泄 漏</w>
惊 慌</w>
反 正</w>
克 兰</w>
w on
콤 한</w>
삼성 동</w>
부 재</w>
베 풀</w>
몰 락</w>
달 콤한</w>
가 입자</w>
门 店</w>
贫 富</w>
补 贴</w>
潜 水
意 气</w>
尔 斯</w>
密 集</w>
司 令</w>
ac k</w>
제 대</w>
인 파</w>
인 삼</w>
용 하</w>
업 그레이드</w>
소 연</w>
비 례
격 리</w>
马 路</w>
韩 服</w>
某 人</w>
小 规模</w>
头 儿</w>
基金 会</w>
参 与
压 制</w>
全 州</w>
三 成</w>
청 바지</w>
저 지르</w>
대 입</w>
단 숨에</w>
경 의</w>
龙 星</w>
数 百万</w>
太 平</w>
做 生意</w>
二 氧化
워싱 턴
요 법</w>
아리 랑</w>
성 상</w>
는 다며</w>
교육 과</w>
가 늠</w>
网 友</w>
狭 窄</w>
李东 国</w>
新 婚</w>
开 启</w>
义 士</w>
20 50</w>
재 기</w>
연 이</w>
상 한</w>
법 률
번 거</w>
반 격</w>
낚 시</w>
경 축</w>
谈 到</w>
特 网</w>
牛 皮</w>
容 量</w>
因 特网</w>
后 果</w>
卸 任</w>
争 夺
h u
프라 임</w>
재 선</w>
인 기
이 공
생산 성</w>
새 삼</w>
별 개</w>
난 관</w>
罢 免</w>
公 益</w>
6 5
1 15</w>
푸 드</w>
재 활</w>
우 편
신 호
삼성 화재</w>
동 국대</w>
金 升
相 爱</w>
测 定</w>
柴 油</w>
攀 登</w>
学 分</w>
姜 某</w>
写 作</w>
포 트</w>
올라 오</w>
여 객
엄 격히</w>
복 도</w>
법 규</w>
观 众席</w>
他 家</w>
事 业
피 트</w>
컨 소시
컨소시 엄</w>
최고 인민회의</w>
체 격</w>
재산 세</w>
우 파</w>
세 탁
생 물
난 이</w>
공 중
공 언</w>
负 增长</w>
装 有</w>
厨 师</w>
休息 日</w>
举 重</w>
호 선</w>
착 공</w>
제 철</w>
인 격</w>
여 객</w>
악 성</w>
스 튜
버 튼</w>
采 购</w>
评 选</w>
创 新</w>
侯 赛
之 急</w>
s e</w>
17 18</w>
0 3</w>
합 동
플로 리
토 막</w>
시 야</w>
승 낙</w>
빼 놓</w>
멋 지</w>
预 订</w>
树 叶</w>
极 限</w>
挫 折</w>
尽 力</w>
国 库</w>
加 班</w>
众 不同</w>
与 众不同</w>
一 心</w>
파 고</w>
친 북</w>
주 임</w>
언 행</w>
시행 령</w>
상상 력</w>
맞 물</w>
나뭇 잎</w>
기 준
근 접</w>
공 평</w>
脸 部</w>
殖 民
残 疾</w>
挣 扎</w>
孙鹤 圭</w>
品 尝</w>
侯赛 因</w>
합 성</w>
절 하</w>
이 민
우 자</w>
용 산
외 자</w>
오페 라</w>
시 련</w>
사무 국</w>
무 술</w>
만 성</w>
노 르
근 대</w>
구 현</w>
공 작
거 진</w>
간 호</w>
突 破
法 学</w>
手 臂</w>
全 程</w>
호흡 기</w>
책임 감</w>
접 하</w>
비 관</w>
부 실
반 장</w>
리 듬</w>
가 정의</w>
融 化</w>
绘 画</w>
柳 明桓</w>
坚 固</w>
告 终</w>
m or
해 수
왕 조</w>
시 멘트</w>
슬 프</w>
소 유
삼성 생명</w>
복 식</w>
미 니
구제 금융</w>
게 이트</w>
补 助</w>
组 建</w>
立 足</w>
杯 子</w>
不 惜</w>
하 구</w>
자 회</w>
윤 곽</w>
생 생
상 기</w>
비 누</w>
비 공개</w>
더 하</w>
认 同感</w>
查 看</w>
弹 头</w>
封 闭</w>
kb o</w>
피 어</w>
여 수</w>
시 하</w>
손 질</w>
소 망</w>
밧 줄</w>
막 내</w>
돋 보이</w>
대 나무</w>
노 골
기 색</w>
거 실</w>
간 장</w>
가까 스로</w>
路 边</w>
美 容</w>
更 快</w>
忽 然</w>
应 付</w>
原则 上</w>
9. 11</w>
흐 스탄</w>
환 산</w>
카자 흐스탄</w>
엄 청
보 좌</w>
레이 크</w>
顶 峰</w>
金 山</w>
审 理</w>
回 头</w>
原 先</w>
供 应
회의 실</w>
아 군</w>
노 트</w>
교수 팀</w>
火 焰</w>
手 脚</w>
大 笑</w>
19 68</w>
프란 시스코</w>
출 현</w>
축 복</w>
천 사</w>
지역 구</w>
장 담</w>
아 시</w>
사이 드</w>
果 实</w>
开 支</w>
현 물</w>
핑 계</w>
피 부
의 외로</w>
실 종자</w>
辉 煌</w>
泽 东</w>
毛 泽东</w>
小 泉</w>
实 话</w>
健 全</w>
ws j</w>
c a</w>
찬 양</w>
주가 지수</w>
예 년</w>
엄청 나</w>
번 쩍</w>
끌어 들이</w>
교 도</w>
青 蛙</w>
戒 烟</w>
戏 剧性</w>
反 弹</w>
中 央
파 원</w>
특 파원</w>
주 회사</w>
이 러
로 움</w>
광 역</w>
雨 水</w>
那 次</w>
视 觉</w>
见 面
胡 同</w>
特 权</w>
温 泉</w>
概 括</w>
时 局</w>
拍 照</w>
总 罢工</w>
剧 院</w>
万 一</w>
증 후
자 영
이 즈</w>
생 존
상 륙</w>
디 테일</w>
고 작</w>
겹 치</w>
갤 러리</w>
간 직</w>
摄 影
司法 部</w>
폭 파</w>
주 유소</w>
잠 실</w>
자유 형</w>
보 살</w>
무 소속</w>
농 지</w>
音 机</w>
线 路</w>
整 齐</w>
宇航 员</w>
夸 大</w>
卡 尔</w>
制 订</w>
인 출</w>
이동 하</w>
월 평균</w>
원 서</w>
안 도</w>
비 우</w>
반 등</w>
나 뉘</w>
국 외</w>
深 度</w>
治 愈</w>
无 比</w>
干 练</w>
商 场</w>
取 胜</w>
dm b</w>
임 하</w>
우 량</w>
상 호
공 익</w>
갈 비</w>
각 성</w>
领 带</w>
白 翎</w>
煤 气</w>
法 制</w>
殖民 地</w>
敞 开</w>
师 团</w>
决 权</w>
b us
이 어
연 이어</w>
어 이</w>
소 음</w>
동 북</w>
경 희
경 과</w>
각 별</w>
神 奇</w>
技 能</w>
尽 头</w>
타 당</w>
천 장</w>
시가 총액</w>
빨 래</w>
각 색</w>
嫉 妒</w>
2 200</w>
탄 두</w>
차 고</w>
증후 군</w>
조선 족</w>
전 수</w>
전 세계</w>
이공 계</w>
은 폐</w>
실 시간</w>
머 무르</w>
동 구</w>
더 듬</w>
개 교</w>
运 作</w>
设 法</w>
球 门</w>
班 长</w>
灾 民</w>
实 性</w>
为 难</w>
전 세</w>
요 리
쓸데 없</w>
선 행</w>
过 激</w>
赶 快</w>
块 钱</w>
하 향</w>
시 군</w>
빔 밥</w>
비 빔밥</w>
느 껴
느껴 지</w>
년 간</w>
그 물</w>
가전 제품</w>
重 性</w>
老 年人</w>
消 灭</w>
概 率</w>
投 标</w>
悲 痛</w>
in a</w>
c dma</w>
지 체</w>
장 르</w>
자영 업자</w>
압 축</w>
산 세</w>
구 원</w>
개발 도
薄 弱</w>
羞 愧</w>
眼 中</w>
有 机</w>
总理 室</w>
宽 容</w>
三 角</w>
c or
6 7
4 9
하 지않</w>
우 뚝</w>
안정 환</w>
마 냥</w>
突 发</w>
渗 透</w>
奔 驰</w>
交 货</w>
종 결</w>
외교 소식통</w>
승 수</w>
도 산</w>
넥 타이</w>
과 격</w>
鸠 山</w>
海 啸</w>
带 到</w>
三 人</w>
in g
1 17</w>
할 인
이 익
엉 망</w>
신 상</w>
디 스크</w>
난 로</w>
衡 量</w>
毛 巾</w>
桌 上</w>
一 共</w>
u p</w>
it al</w>
허 정무</w>
증 서</w>
이 터</w>
시중 은행</w>
서 명
경 수로</w>
격 상</w>
강 성</w>
감독 원</w>
간 호사</w>
爱 心</w>
家 务</w>
出 乎</w>
企 业界</w>
5 8
3 5%</w>
호 조</w>
찬 사</w>
지 주회사</w>
일 명</w>
소 심</w>
구 직</w>
과 다</w>
간 절</w>
阳 市</w>
近 平</w>
演 绎</w>
松 树</w>
收 据</w>
忠 实</w>
布 朗</w>
倾 斜</w>
习 近平</w>
t h</w>
해 운</w>
한 대</w>
하버드 대</w>
집 권
아 시안</w>
신 라</w>
수 여</w>
성 당</w>
배 우자</w>
나 들</w>
김 수
구 실</w>
광 경</w>
旗 下</w>
急 忙</w>
型 车</w>
평화 협정</w>
주 간지</w>
서 른</w>
사 양</w>
법 령</w>
꼬 집</w>
급 적</w>
가 급적</w>
点 半</w>
泛 滥</w>
沿 岸</w>
更 改</w>
制 止</w>
한 복</w>
톈 진</w>
전 등</w>
영 남</w>
대리 인</w>
기 일</w>
공 의</w>
개 업</w>
遗 物</w>
轻 水</w>
语 气</w>
细 心</w>
派 系</w>
拉 面</w>
原 地</w>
信 件</w>
产 业
专 心</w>
不 变</w>
f p</w>
판 문점</w>
총 기</w>
억 압</w>
생활 비</w>
박 차</w>
기 물</w>
累 计</w>
多 边</w>
养 育</w>
一 刻</w>
197 7</w>
조선 일보</w>
이라 서</w>
외교 가</w>
옵 션</w>
아 래
시 드니</w>
배 분</w>
반 경</w>
기념 식</w>
국 영</w>
马 克</w>
蛋 白
时 间
收 音机</w>
想 吃</w>
客 厅</w>
하룻 밤</w>
침 입</w>
조 로</w>
우 연</w>
애 초</w>
식 탁</w>
슈 팅</w>
리 서치</w>
나 르</w>
국 왕</w>
공 교</w>
担 当</w>
差 点</w>
实 权</w>
南 京</w>
别 说</w>
一 向</w>
iph one</w>
19 65</w>
촉 발</w>
얼 룩</w>
생 중계</w>
보 카</w>
들 판</w>
铭 记</w>
薪 水</w>
桥 梁</w>
未 满</w>
斯 特</w>
安贞 桓</w>
호 르
프 트</w>
최 소화</w>
제 사</w>
절 제</w>
일 년</w>
북 도</w>
花 旗</w>
流 血</w>
发 火</w>
丽 水</w>
n av
체 하</w>
증 대</w>
존 엄</w>
전 시장</w>
이 구</w>
원 더</w>
도 자기</w>
난 자</w>
选 票</w>
解 说
航 母</w>
置 之
悉 尼</w>
怎 能</w>
忍 耐</w>
大 批</w>
囚 犯</w>
叶 子</w>
二氧化 碳</w>
3 0.
집 필</w>
주민 등록
여 관</w>
시장 점유율</w>
스트 라</w>
베이 터</w>
김 없이</w>
解说 员</w>
美 兰</w>
星期 一</w>
商 讨</w>
出 众</w>
一 角</w>
핀 란드</w>
전 송</w>
장 관
시간 씩</w>
말 라
기 차
기 동</w>
공 청
条 纹</w>
众 人</w>
k ing</w>
io r</w>
10 6</w>
패 션
지 옥</w>
장 남</w>
신 한</w>
선거 관리위원회</w>
블라 디
무 사히</w>
매 달리</w>
만 료</w>
고위 급</w>
饱 受</w>
轮 廓</w>
财 源</w>
h i
호 평</w>
이영 표</w>
유치 원</w>
신 흥
소 파</w>
브 러
벼 락</w>
몸 값</w>
넘 어지</w>
경제 력</w>
这 辆</w>
越 多</w>
细 致</w>
殿 堂</w>
晓 明</w>
感 想</w>
100 0
행정 수도</w>
플라 스틱</w>
저 렇게</w>
신 행정수도</w>
수 년</w>
사 임</w>
반 갑</w>
미 묘</w>
미 군기지</w>
무 용
노 하우</w>
餐 桌</w>
轻轻 地</w>
贯 彻</w>
装 满</w>
职 责</w>
气 息</w>
殖 民</w>
李 成
对 阵</w>
奖 者</w>
噪 音</w>
不 该</w>
一 批</w>
파 서</w>
지 자</w>
접 전</w>
장 려</w>
장 구</w>
인 조</w>
인 센
위 법</w>
오 세</w>
아이 티</w>
아 난</w>
독 려</w>
越 大</w>
确 诊</w>
正 直</w>
强 盗</w>
多 多</w>
u t</w>
ic bm</w>
하 인</w>
퇴 장</w>
주 의
울 음</w>
열 렬</w>
악 순환</w>
실 명</w>
복 사</w>
루 즈</w>
남 아프리카</w>
김 미
기 이</w>
갈 래</w>
终 结</w>
无 情</w>
奥 地利</w>
保 健
하나 님</w>
평 창</w>
크 스</w>
중 고교</w>
솔 로</w>
성 적
버 블</w>
모 닝</w>
대 면</w>
다 스</w>
날 마다</w>
기획 예산</w>
관 용</w>
거 들</w>
阻 挡</w>
退 伍</w>
相 投</w>
沙 发</w>
比 利
화 두</w>
중 학생</w>
연 락
아시아 태평양</w>
스포 츠
메이 션</w>
동맹 국</w>
단 번에</w>
蛋白 质</w>
疏 远</w>
男 生</w>
f f
7 6
3 4.
풍 속</w>
패 키
커 스</w>
산 정</w>
민 정
리 치</w>
때 로</w>
때 때로</w>
께 하</w>
공 교육</w>
驾驶 员</w>
足 联</w>
行 走</w>
疲 倦</w>
气 味</w>
审判 员</w>
代理 人</w>
u l</w>
o r</w>
흐 리</w>
황 당</w>
환경 부</w>
욕 구</w>
오 렌
어지 럽</w>
아 주머니</w>
섬 세</w>
기획 사</w>
거 품
黄 长
芬 兰</w>
教 皇</w>
回 想</w>
可 乐</w>
口 头</w>
反 败为胜</w>
劳 务</w>
主 页</w>
함 께하</w>
타 의</w>
외국 인
안 주</w>
아메 리카</w>
식 민지</w>
속 옷</w>
설 날</w>
사령 탑</w>
발 병</w>
마 니</w>
계 도</w>
踪 者</w>
爆 炸
比 价</w>
宣传 处</w>
失 踪者</w>
화폐 개혁</w>
충 전</w>
제 3
이병 헌</w>
의 논</w>
영화 관</w>
수출 액</w>
수 없</w>
손 길</w>
관 절</w>
고령 화</w>
指 纹</w>
悄 悄
嗓 音</w>
右 手</w>
g re
5 5
항 만</w>
커뮤니 티</w>
전 복</w>
입 각</w>
이 순
어 긋</w>
숙 박</w>
샌 프란시스코</w>
사 흘
반 해</w>
매 듭</w>
막 지</w>
똑 똑</w>
단 가</w>
결 실</w>
饲 料</w>
金 基
近 代</w>
贬 低</w>
疑 似</w>
暴 风雨</w>
信 息
任 意</w>
6 500</w>
회 식</w>
조 카</w>
정 통
욕 망</w>
성 공
비례 대표</w>
불 허</w>
법 정
리스 크</w>
두 드리</w>
骚 乱</w>
预 赛</w>
连 锁</w>
摸 索</w>
慢 性</w>
开 工</w>
两 条</w>
an k</w>
한 결
표 절</w>
유 사시</w>
미 모</w>
망 신</w>
낙 하산</w>
김 희
기 름
경영 진</w>
걸 음
黄长 烨</w>
胜 者</w>
私 学</w>
板 门店</w>
月 球</w>
就 业者</w>
大 江</w>
书 桌</w>
햇 살</w>
피 터</w>
표 본</w>
페 리</w>
정몽 준</w>
재 학</w>
딱 딱</w>
도 다</w>
나 오기</w>
국가 정보</w>
重 组</w>
烤 肉</w>
无 理</w>
斗 志</w>
外 套</w>
서 지</w>
버 전</w>
바 구니</w>
매 월</w>
라 면서</w>
근 원</w>
고 양이</w>
现代 史</w>
有 事</w>
점 심
무 수</w>
루 이</w>
동 자</w>
维 生素</w>
甜 蜜</w>
手 艺</w>
博 尔</w>
保 安
一 身</w>
i e</w>
화 나</w>
한국 대사관</w>
한 양대</w>
코 끼리</w>
제 비</w>
일 축</w>
올 리
승 무원</w>
봉 사
领 事
需 品</w>
进 化</w>
立 性</w>
爱 国
日 刊</w>
微 妙</w>
开 辟</w>
女 的</w>
塔 尔</w>
南 极</w>
8 8
포 스터</w>
액 체</w>
발 부</w>
도 깨비</w>
기 억
阵 地</w>
汗 水</w>
抢 走</w>
惨 案</w>
广 东省</w>
多 长</w>
冲 动</w>
gn i</w>
ga .com</w>
c k</w>
3 5.
3 2.
보건 복지부</w>
레이 저</w>
들어 있</w>
대 운</w>
끄 러
꼬 마</w>
교 의</w>
道 奇</w>
珍 惜</w>
演 变</w>
抓 获</w>
录音 带</w>
d d
6 4
19 53</w>
현대 건설</w>
풍 선</w>
주 축</w>
정 답</w>
일 류</w>
용 돈</w>
세계 선수권</w>
발 판</w>
링 크</w>
광 복
견 고</w>
走 廊</w>
贵 方</w>
老 龄化</w>
央 行</w>
倒 下</w>
ic s</w>
한 우</w>
중앙 수사
조성 하</w>
조선 중앙통신</w>
재 수</w>
인센 티브</w>
이 슬</w>
응 용</w>
유 능</w>
예 민</w>
백 질</w>
반 감</w>
맛 보</w>
단 백질</w>
고 교생</w>
馆 长</w>
难 得</w>
被 告</w>
突破 口</w>
旧 金山</w>
尖 锐</w>
共 计</w>
依 旧</w>
w er</w>
10 7</w>
혼 선</w>
폭 설</w>
조용 한</w>
장 정</w>
장 례
연구 기관</w>
상 위권</w>
보 태</w>
미 팅</w>
대우 건설</w>
남 과</w>
고 등
进 而</w>
赞 助
自 信心</w>
次 级</w>
柔 道</w>
据 此</w>
上 垒</w>
g 2</w>
don ga.com</w>
페 인트</w>
알 선</w>
사 극</w>
부 호</w>
목 걸이</w>
리 콜</w>
레 어</w>
대 생</w>
边 缘</w>
耻 辱</w>
磋 商</w>
法 语</w>
旁 观</w>
封 建</w>
压 倒</w>
北 道</w>
使用 者</w>
上 将</w>
휘 두르</w>
전 차</w>
엄 정</w>
능 력
긴장 감</w>
개 방
闯 入</w>
金 善
西 江</w>
航 行</w>
租 金</w>
海 拔</w>
月 光</w>
早 早</w>
挪 用</w>
奴 隶</w>
凯 利</w>
커 튼</w>
체 온</w>
진 흥
전 향</w>
이 쪽</w>
비 평</w>
동 강</w>
诊 疗</w>
削 弱</w>
军 演</w>
자 외선</w>
시 스트</w>
수 기</w>
문 과</w>
무 언
더 스</w>
대 포</w>
군사 훈련</w>
犯 规</w>
李 秀
寺 庙</w>
乡 村</w>
조 속</w>
장 갑</w>
의 외</w>
유 망</w>
연 행</w>
애 니
상 화</w>
발 발</w>
두 뇌</w>
던 데</w>
균형 발전</w>
갈 이</w>
车 展</w>
有 益</w>
方 言</w>
主 席
专 机</w>
下 水</w>
ne is</w>
ase an</w>
출 하</w>
초 빙</w>
적 시</w>
우주 선</w>
김정 운</w>
고 액</w>
가 늘</w>
马 里</w>
饺 子</w>
稳 定性</w>
沃 卡</w>
带 走</w>
套 装</w>
善 意</w>
仅 有</w>
n ing</w>
5 3
풍 우</w>
조 례</w>
소비자 물가</w>
부장 판사</w>
단 절</w>
노 랫
过 日子</w>
眼 球</w>
席 位</w>
好 奇
好奇 心</w>
par k</w>
k ia</w>
해 방
퍼 트</w>
코 리
일 일</w>
아 부</w>
신 조</w>
시 각
무 용</w>
뒤 섞</w>
나 타</w>
葡萄 牙</w>
浴 场</w>
排 球</w>
开 门</w>
体 质</w>
이 만</w>
유 창</w>
드 래
노골 적</w>
금 과</w>
국제 화</w>
过 失</w>
视 角</w>
行 性</w>
汤 姆</w>
大 运河</w>
基 于</w>
咳 嗽</w>
克 里</w>
传 授</w>
世 代</w>
su v</w>
s on</w>
진 급</w>
실 과</w>
수 업
마스터 스</w>
관 성</w>
감 찰</w>
空 缺</w>
生产 量</w>
巴 巴</w>
以 北</w>
7 7
포 위</w>
캔 들</w>
이 룩</w>
스 캔들</w>
보 너스</w>
미 네
달 아나</w>
鬼 怪</w>
袜 子</w>
王 室</w>
仲 裁</w>
人 意</w>
in ter
9 9
현 의</w>
정 화</w>
오 이</w>
신 속히</w>
불 명</w>
봉 사자</w>
도로 가</w>
项 链</w>
郑云 灿</w>
电 话
活 泼</w>
录 制</w>
划 分</w>
m an
a h</w>
파 기</w>
탐 구</w>
캄 보
카 리스
취 향</w>
총 련</w>
인 명</w>
발 령</w>
미 세</w>
늑 대</w>
남 방</w>
계 자</w>
金正 银</w>
车 上</w>
白 头
朴 知
操 场</w>
큐 멘
추 월</w>
저 절로</w>
온 난
영등 포구</w>
사 카</w>
민족 주의</w>
리조 트</w>
든 든</w>
돌 풍</w>
던 가</w>
다 큐멘
농 업
국민 투표</w>
运 输
赛 跑</w>
淹 没</w>
整 合</w>
掩 饰</w>
抚 养</w>
想 象
应 有</w>
定 义</w>
坏 事</w>
卵 子</w>
争夺 战</w>
下 任</w>
프 랭
카리스 마</w>
진 통</w>
증 기</w>
조선 시대</w>
엘리 베이터</w>
시 공</w>
소 신</w>
대 도시</w>
다큐멘 터리</w>
군 수</w>
面 目</w>
赶 到</w>
缘 分</w>
筹 码</w>
煤 炭</w>
深 化</w>
朴知 晟</w>
教 练
崔 秉
代表 部</w>
交易 日</w>
丹 东</w>
7 5%</w>
준 결승</w>
주 실</w>
온난 화</w>
안 시</w>
실 용
부 신</w>
도 우</w>
구 절</w>
개 미</w>
花 儿</w>
牵 连</w>
法律 界</w>
开 口</w>
商 业
同 情</w>
合格 者</w>
폐 합</w>
충 원</w>
전 력
애니 메이션</w>
블 록</w>
면 역</w>
국가 대표팀</w>
缺 席</w>
深 深</w>
想象 力</w>
尼 尔</w>
固 然</w>
刑 法</w>
c ar
증 원</w>
재 배치</w>
일본 도</w>
운 하</w>
비 틀</w>
모 래
대출 금</w>
건설 업체</w>
非 典</w>
队 友</w>
门 员</w>
白头 山</w>
守 门员</w>
大 关</w>
加 盟</w>
分 界线</w>
专 属</w>
goo d</w>
d e</w>
치 유</w>
소 폭</w>
모 퉁이</w>
런 히</w>
다 는데</w>
금 고</w>
공 로</w>
青 岛</w>
钓 鱼</w>
象征 性</w>
约 翰
热 带</w>
果 然</w>
攻击 性</w>
尽 早</w>
大 连</w>
复 兴</w>
回 复</w>
专 职</w>
현 금
행 장</w>
적 당히</w>
벨 기
반 가</w>
답 안</w>
离 家</w>
画 廊</w>
榜 样</w>
崔秉 烈</w>
多 亏</w>
后 代</w>
下 台</w>
w s</w>
st r
패키 지</w>
캄보 디아</w>
성장 동력</w>
뒤 쪽</w>
나 빠지</w>
공 업
검 진</w>
가 시
가 드</w>
胜 地</w>
液 体</w>
想 不</w>
多 哈</w>
坟 墓</w>
危 险
id e</w>
4 6
10 9</w>
팡 이</w>
줄 거리</w>
준 화</w>
상 주</w>
대 본</w>
营 业
李 仁
无 知</w>
周 一</w>
3 8.
현 정</w>
해 로</w>
한 화
전통 제권</w>
작 전통제권</w>
다 국적</w>
韩 升
踏 板</w>
英 镑</w>
胸 部</w>
纳 入</w>
田 真</w>
犯 罪
放 射
护 理</w>
季 后
季后 赛</w>
僵 硬</w>
便 是</w>
4 2
호르 몬</w>
창 단</w>
용 의자</w>
온 천</w>
수 신</w>
비 참</w>
민 중</w>
길 고</w>
가 속</w>
贝 克</w>
行 政
灵 堂</w>
拿 走</w>
想 着</w>
忠 诚</w>
天 皇</w>
同 年</w>
e x</w>
캐 주
지 형</w>
아 카
선 체</w>
반 입</w>
나이 키</w>
경 솔</w>
长 城</w>
角 逐</w>
极 了</w>
山 谷</w>
屁 股</w>
发 电
原 始</w>
勾 结</w>
共 鸣</w>
不 和</w>
하마 터
하마터 면</w>
직 책</w>
잠 자리</w>
의 기
소 설
기 체</w>
금 전</w>
钻 石</w>
自治 区</w>
置之 不理</w>
礼 堂</w>
演 讲
海 报</w>
沙 滩</w>
比利 时</w>
害 人</w>
发 电站</w>
专业 性</w>
g b</w>
7 8
7 500</w>
혼 인</w>
합 격자</w>
캐주 얼</w>
취재 진</w>
정 반대</w>
임대 료</w>
웅 장</w>
연 한</w>
실 업자</w>
수 강
사 직</w>
바닷 물</w>
무언 가</w>
구 축
评论 家</w>
紧 随</w>
坚 守</w>
公 立</w>
元 素</w>
亲 眼</w>
청 용</w>
주 당</w>
여 행사</w>
싸 이</w>
셀 러</w>
세 습</w>
求 职</w>
柬 埔
柬埔 寨</w>
批 发</w>
多样 化</w>
分 布</w>
g 7</w>
4 00m</w>
3. 5</w>
1 ,
한국 계</w>
출 자
부 부장</w>
백 지</w>
방 콕</w>
뭉 치</w>
국 한</w>
구 호
공 수</w>
称 之
称之 为</w>
犹 如</w>
李 凤
将 要</w>
5 4
한 전</w>
학 대</w>
코 엑스</w>
전 성</w>
법 조
문화 유산</w>
메 가</w>
루 니</w>
追 击</w>
缓 期</w>
热 量</w>
曼 谷</w>
暴 行</w>
总 店</w>
忧 郁</w>
军 舰</w>
价 值
3 20</w>
폭 풍우</w>
키 나와</w>
오 키나와</w>
영 예</w>
단 락</w>
공공 부문</w>
脚 下</w>
素 质</w>
治 理</w>
本 田</w>
c s
해 경</w>
총리 실</w>
위 하</w>
약 탈</w>
변 론</w>
벨기 에</w>
모 험</w>
매 물</w>
강 자</w>
长 期
赞 扬</w>
见面 会</w>
搞 笑</w>
小 额</w>
3 6.
한 효</w>
왜 냐
왜냐 하면</w>
시 마</w>
손 바닥</w>
소 박</w>
설 령</w>
도 리어</w>
당 뇨
김 주
기 현</w>
幽 默</w>
取 代</w>
下 游</w>
ib m</w>
호 화</w>
해 커</w>
주 입</w>
용 모</w>
선 임
상 응</w>
급 제</w>
面 粉</w>
面 子</w>
陈 旧</w>
金 泰
政 变</w>
提 拔</w>
强 奸</w>
布 鲁
大 卫</w>
人 格</w>
형 세</w>
행 동
충청 권</w>
심 상</w>
시간 대</w>
부 주의</w>
배 급</w>
미 혼</w>
면 도</w>
采 集</w>
站 出来</w>
电 气</w>
田 野</w>
父 子</w>
撰 写</w>
强 队</w>
容 纳</w>
周 五</w>
发 抖</w>
冷 却</w>
자원 봉사</w>
익 히</w>
이 수</w>
에 너
신 저</w>
만 주</w>
달 려가</w>
감 행</w>
遮 住</w>
袖 子</w>
版 本</w>
渔 民</w>
小 说
审 核</w>
外 围</w>
剧 变</w>
3 7.
한 가운데</w>
처 하</w>
전 교</w>
작 곡</w>
앞 장서</w>
시 진</w>
부딪 치</w>
멋 있</w>
네 이
경기 회복</w>
饰 品</w>
镜 头</w>
都 市</w>
西 服</w>
放 假</w>
场 景</w>
地 名</w>
世 袭</w>
키 오</w>
증 명서</w>
중앙 청사</w>
접 견</w>
만 장
노르 웨이</w>
관 문</w>
경기 부양</w>
科 学院</w>
海 峡</w>
星期 五</w>
明 知</w>
教育 费</w>
决 策</w>
a bc</w>
2 10</w>
한국 팀</w>
취임 식</w>
인 지도</w>
신 한
身 心</w>
美 貌</w>
探 讨</w>
打 碎</w>
小 麦</w>
女 婿</w>
只 顾</w>
j un
3 600</w>
0 7</w>
현 대사</w>
파 고
중앙수사 부</w>
저작 권</w>
여 고</w>
쌓 이</w>
불 이익</w>
만 회</w>
둥 지</w>
기 습</w>
기 다
겨 나</w>
霸 权</w>
透明 性</w>
相 撞</w>
法 令</w>
情报 局</w>
只 想</w>
卫生 间</w>
化 肥</w>
3 30</w>
회 답</w>
초 고</w>
유 아</w>
스케 이트</w>
서울 시
사 전
민 원</w>
느 슨</w>
꼬 박</w>
공 권력</w>
계 산
龙 山区</w>
童 话</w>
目 睹</w>
响 应</w>
厌 恶</w>
做 饭</w>
一 台</w>
한 자리</w>
어 긋
습 기</w>
농 도</w>
猜 测</w>
强 者</w>
二 十
一 路</w>
wor ld</w>
st x</w>
nav er</w>
n go</w>
7 50</w>
형 상</w>
편 의
중앙 대</w>
세 대
맞 대결</w>
귀 띔</w>
구 성원</w>
결 렬</w>
重 演</w>
浓 度</w>
星期 六</w>
战 略
导 游</w>
宠 物</w>
功 夫</w>
信 任
侧 面</w>
侦 察
5 50</w>
저 서</w>
아 랫
신 분
세계 로</w>
빙 상</w>
분 주</w>
벤 처
마이 크</w>
공 황</w>
防 战</w>
践 踏</w>
解 说</w>
新 义
新义 州</w>
攻 防战</w>
指 南</w>
乃 至</w>
ust r</w>
3 3.
19 69</w>
1 2%</w>
1 18</w>
통 폐합</w>
직 권</w>
재산 권</w>
우 주인</w>
비 단</w>
두 세</w>
냉 각</w>
교육 과정</w>
草 地</w>
腰 带</w>
炼 油</w>
洪 明
明 智</w>
无 辜</w>
大 豆</w>
口 罩</w>
六 个</w>
v ip</w>
한국 형</w>
청 하</w>
수 영장</w>
빼 내</w>
다 문화</w>
노사 관계</w>
그 토록</w>
개발도 상국</w>
麻 浦</w>
饭 碗</w>
走 去</w>
诱 导</w>
沙 子</w>
机 动</w>
悠 久</w>
巴 塞
公 众</w>
中 间
不 符</w>
jy p</w>
e d
컴 백</w>
최 상</w>
생 전</w>
상 표</w>
상 고</w>
변 질</w>
반 사</w>
미 남</w>
단 골</w>
金 秀
证 词</w>
胡 子</w>
展 览会</w>
女 友</w>
h a</w>
한 몫</w>
플래 시</w>
케이 스</w>
저 쪽</w>
오 사카</w>
수 정안</w>
사진 과</w>
부 금</w>
버 드</w>
도시 락</w>
공 판</w>
火 星</w>
根 除</w>
校 服</w>
投票 率</w>
弹 力</w>
康 复</w>
坚 实</w>
光 芒</w>
장 성
언제 든</w>
야 심</w>
스 무</w>
도 도</w>
당뇨 병</w>
담 장</w>
꼴 찌</w>
김 윤
교 복</w>
金 南
轰 炸</w>
纪 律</w>
看 似</w>
直 属</w>
生 前</w>
沿 海</w>
气 质</w>
核 计划</w>
查 询</w>
新闻 网</w>
政治 局</w>
心 动</w>
女 孩子</w>
地 人</w>
分 泌</w>
优 雅</w>
히 트</w>
팽 창</w>
스 파이</w>
성적 표</w>
길 가</w>
身 价</w>
误 差</w>
生 命
小 提琴</w>
乘 务员</w>
b i</w>
이 광
옷 감</w>
손 목</w>
사 치</w>
가 톨
金 荣
远 离</w>
忧 郁症</w>
小 组
信 封</w>
传 染</w>
하 자면</w>
하 얗</w>
진 도</w>
여 신</w>
붉 은색</w>
말 하자면</w>
꼼꼼 히</w>
그 거</w>
被 告
当 场</w>
山 路</w>
周 期</w>
历 代</w>
先 例</w>
作 弊</w>
万 台</w>
u cc</w>
회 상</w>
파 가</w>
입장 권</w>
인천 국제공항</w>
의 견
원 형</w>
양 해
루 트</w>
드 세</w>
강 당</w>
각 료</w>
가 산</w>
组 装</w>
清 晨</w>
录 用</w>
士 官</w>
厚 度</w>
亨 利</w>
f re
혼 다</w>
해외 여행</w>
차별 화</w>
중 견</w>
어 의</w>
신문 사</w>
라 드</w>
대 란</w>
공 존</w>
洗 澡</w>
形 容</w>
全 额</w>
종 로</w>
정 세균</w>
원 안</w>
우 즈
버 섯</w>
물러 서</w>
교 외</w>
거 리
贵 族</w>
暴 雪</w>
指挥 官</w>
手 腕</w>
小 朋友</w>
处 处</w>
填 写</w>
su per</w>
5 km</w>
초 월</w>
여 기자</w>
어긋 나</w>
실 효</w>
수 반</w>
사 립</w>
모터 쇼</w>
메이 드</w>
등 기</w>
동 양
다 저스</w>
다 물</w>
능 숙</w>
날 아
그래 요</w>
辛 格</w>
电 报</w>
权 益</w>
6 8
00 km</w>
화 보</w>
자민 련</w>
우승 컵</w>
에 이스</w>
소 가죽</w>
성 립</w>
교도 소</w>
강 타</w>
간 절히</w>
金 桂
花 纹</w>
犹 太
大 象</w>
叹 息</w>
해 협</w>
해 오</w>
한국 산</w>
이 군</w>
예상 치</w>
얼 른</w>
언론 인</w>
았 었</w>
세 차</w>
상 임</w>
북 극</w>
베 네
국방 위</w>
가 혹</w>
足 足</w>
断 绝</w>
政 客</w>
小组 赛</w>
对 付</w>
块 儿</w>
动物 园</w>
儿 童
화 살</w>
파고 들</w>
추 첨</w>
차 트</w>
우선 순위</w>
불 쌍</w>
분 규</w>
구축 함</w>
遣 送</w>
踢 球</w>
捷 克</w>
损 坏</w>
挥 舞</w>
总 数</w>
性 恋</w>
年 制</w>
尺 度</w>
尤 为</w>
同 性恋</w>
假 装</w>
nas a</w>
활 동
현실 화</w>
체 코</w>
적 대
인 상
옹 호</w>
시 술</w>
명 가</w>
근 절</w>
국방 위원회</w>
공 보</w>
거품 이</w>
描 绘</w>
必 需品</w>
巨 头</w>
堵 塞</w>
出 示</w>
화 탄소</w>
켈 리</w>
추 이</w>
지역 별</w>
연예 계</w>
보 육</w>
대 대</w>
고 정
这 边</w>
结 尾</w>
确 定性</w>
深 厚</w>
浓 缩</w>
打 听</w>
弱 者</w>
任 职</w>
主办 方</w>
화 원</w>
특 집</w>
의사 당</w>
슬 로
별 장</w>
냄 비</w>
남 극</w>
꾸 준</w>
高 校</w>
清 理</w>
海 湾</w>
想 想</w>
对 华</w>
同 声</w>
兹 别
公 款</w>
以 免</w>
乌 兹别
학 우</w>
짜 기</w>
잘 되</w>
실 험
셀 로나</w>
샤 프</w>
골 짜기</w>
重 申</w>
航 天</w>
称 呼</w>
没 法</w>
星期 日</w>
化 为</w>
争 先
g u
197 1</w>
현 대화</w>
파 주</w>
운동 가</w>
여 원</w>
알아 듣</w>
선수 촌</w>
문 대</w>
동 서</w>
내려 앉</w>
送 来</w>
法 则</w>
恳 谈会</w>
怀 着</w>
千 年</w>
w in
t ra
화 요일</w>
질 책</w>
제 지</w>
우 스
씨 앗</w>
수 소</w>
베 르
다 르지</w>
照 明</w>
武 术</w>
年 中</w>
尔 兰</w>
外 相</w>
余 额</w>
中 共</w>
一 手</w>
특 급</w>
택 배</w>
쳐 주</w>
짜 증</w>
전 경</w>
양 성
앞 날</w>
비 웃</w>
미 련</w>
맞 선</w>
透 社</w>
路 透社</w>
筷 子</w>
爱 尔兰</w>
波 及</w>
款 式</w>
懂 事</w>
垃 圾
出 租</w>
人民 军</w>
200 5
19 5</w>
한 방</w>
하루 하루</w>
준 우승</w>
정 점</w>
장 만</w>
외 지</w>
엿 보</w>
상 무
브로 커</w>
벗 기</w>
문화 관</w>
마 운드</w>
기 득
급 급</w>
钉 子</w>
衷 于</w>
草 坪</w>
舰 尾</w>
维 斯</w>
热 衷于</w>
暗 杀</w>
在 意</w>
发 给</w>
厌 烦</w>
一 号</w>
d is
3 m</w>
혼 합</w>
임 이</w>
이 목</w>
오 너</w>
에서 나</w>
수출 입</w>
불 쾌</w>
분 유</w>
동 유럽</w>
당 성</w>
남 아시아</w>
고 함</w>
贞 恩</w>
清 醒</w>
抗 日</w>
开 放
入 选</w>
价值 观</w>
临 床</w>
4 2.
1 23</w>
편 법</w>
제 국주의</w>
재 빨리</w>
잣 대</w>
임 의</w>
육 체</w>
우즈 베
연구 결과</w>
색 채</w>
명 사</w>
당 대</w>
꾸 짖</w>
领导 力</w>
责任 感</w>
晋 级</w>
拥 挤</w>
成 年人</w>
总 局</w>
可 靠</w>
体 温</w>
000 m</w>
효 율성</w>
파 르</w>
지휘 관</w>
자 율
인수 합병</w>
설 레</w>
등 불</w>
遏 制</w>
熄 灭</w>
步 行</w>
旋 律</w>
恐 后</w>
很 远</w>
争先 恐后</w>
t n
k r
200 0
징 금</w>
아 깝</w>
상 거래</w>
분 만</w>
떨 리</w>
대통령 선거</w>
농 부</w>
남 학생</w>
기 록
감 탄</w>
避 难</w>
选 区</w>
自 民
自民 联</w>
李孝 利</w>
日 报社</w>
扣 除</w>
前 线</w>
st ar</w>
f l
폴 리
출 처</w>
출 제</w>
유명 환</w>
엔 지
양해 각서</w>
속 출</w>
무 례</w>
도 처</w>
麦 当
游 览</w>
活 动
此 类</w>
有 史
有史 以来</w>
卡 特</w>
严 重性</w>
1 m
한미 관계</w>
부 주</w>
법 원장</w>
공정거래 위원회</w>
集 合</w>
赞 同</w>
网 络
无 党派</w>
方 便
初 恋</w>
f a
합의 서</w>
하 와이</w>
찌 개</w>
장 차</w>
워싱턴 포스트</w>
열 대</w>
아시아 나
아시아나 항공</w>
선 회</w>
사우 디</w>
반 론</w>
다 던</w>
금 속
가 위</w>
零 售</w>
闪 烁</w>
脑 筋</w>
竞 技</w>
歌 谣</w>
李 正
明 治</w>
明 明</w>
实 验
四 川
화 시</w>
투표 율</w>
잠 자</w>
어 때</w>
양 안</w>
실물 경제</w>
선 발
보 람</w>
밤 중</w>
모 형</w>
대 문
노 래
교 양</w>
鸡 肉</w>
进 出</w>
过 渡</w>
给 出</w>
歌 迷</w>
实 业</w>
安全 性</w>
大 自然</w>
回 帖</w>
发 制
发制 人</w>
利 落</w>
乌 云</w>
o k</w>
1 4%</w>
친 서</w>
절 정</w>
아메 리
상임 이사국</w>
상 세히</w>
바르 셀로나</w>
무 명</w>
도 출</w>
공청 회</w>
编 入</w>
熬 夜</w>
叫 声</w>
현지 시각</w>
총 체</w>
인 맥</w>
용산 구</w>
어 오</w>
습 격</w>
서울 대
동 건</w>
董 事</w>
自 立</w>
水 质</w>
损 伤</w>
四川 省</w>
唯 独</w>
关 上</w>
中 长期</w>
ar t</w>
학 습
특 기</w>
주 교</w>
재 질</w>
자 초</w>
연 중</w>
론 가</w>
闭 幕</w>
选 择
日 军</w>
奶 粉</w>
史 蒂
区 内</w>
加利福 尼亚</w>
t t
회 고</w>
특 권</w>
자 락</w>
우즈베 키스탄</w>
언 스</w>
수 해</w>
비 정상</w>
대 기
경 질</w>
私 营</w>
烈 士</w>
枯 竭</w>
干 旱</w>
头 痛</w>
基 亚</w>
均 匀</w>
交 情</w>
不 合</w>
下 巴</w>
nat o</w>
입 법
인터 내셔널</w>
금융 제재</w>
경기 부양책</w>
重 量级</w>
绅 士</w>
硬 派</w>
生 人</w>
月 刊</w>
妥 善</w>
外 泄</w>
倾 注</w>
不 懈</w>
2 700</w>
한 결</w>
전 철</w>
웹 사이트</w>
대 위</w>
남 조선</w>
词 汇</w>
答 辩</w>
洪明 甫</w>
强 硬派</w>
工 艺</w>
勇 俊</w>
乎 乎</w>
专 注</w>
一 期</w>
e p</w>
합 당</w>
타이 거</w>
존 슨</w>
인 색</w>
이 천수</w>
수 영
소 공동</w>
모 방</w>
맹 세</w>
딸 기</w>
드 름</w>
나 리</w>
饲 养</w>
长 江</w>
邪 恶</w>
遗 址</w>
西 区</w>
缘 故</w>
礼 服</w>
海 战</w>
沦 落</w>
四 季</w>
叙 述</w>
决 不能</w>
乌兹别 克斯坦</w>
3 9.
특 정
지원 금</w>
연 가</w>
더 이상</w>
놀 리</w>
鲜 花</w>
饿 死</w>
选 者</w>
老 金</w>
沸 腾</w>
挪 威</w>
彩 色</w>
如 实</w>
保 育</w>
항공 모함</w>
충 당</w>
초 원</w>
절 도</w>
교 활</w>
경희 대</w>
用 心</w>
清 洁</w>
支 柱</w>
拖 欠</w>
5 7
홈 경기</w>
형 법</w>
현대 상선</w>
인 내</w>
엇 갈리</w>
악 용</w>
경기 대회</w>
法 治</w>
李 敏
挡 住</w>
将 士</w>
희 귀</w>
특 혜</w>
빈 소</w>
본 능</w>
본 관</w>
만 장</w>
당 직</w>
개 량</w>
着 呢</w>
核 燃料</w>
构 思</w>
小 公</w>
外 籍</w>
名 次</w>
6 50</w>
현대 백화점</w>
해수 욕
해수욕 장</w>
질 적</w>
장미 란</w>
월 가</w>
영 세</w>
야 구
석 의</w>
비 축</w>
북 방</w>
밤 낮</w>
명 백
首 播</w>
颁 发</w>
裁 者</w>
皮 书</w>
服 兵役</w>
早 饭</w>
平 安
展 出</w>
尔 德</w>
关 怀</w>
保险 金</w>
ion al</w>
b ab
후 계자</w>
한 발</w>
평 도</w>
카 를</w>
춤 추</w>
정 거장</w>
인 성</w>
열 애</w>
악 몽</w>
아이 스크
아이스크 림</w>
소 스</w>
사회 복지</w>
복 이</w>
방 화</w>
마 차</w>
긴 급
零 食</w>
语 法</w>
蚊 子</w>
端 正</w>
漆 黑</w>
浮 现</w>
推 卸</w>
心 理学</w>
卖 出</w>
ne w</w>
19 64</w>
흠 뻑</w>
휴 직</w>
환 기</w>
플로리 다</w>
페 스티
파 다</w>
우 석</w>
애 리조
안 색</w>
상 향</w>
명예 훼손</w>
두 환</w>
구 시</w>
공 개
难 受</w>
胞 胎</w>
款 待</w>
分 期</w>
公 务</w>
先 发制人</w>
w p</w>
k s</w>
활 성</w>
초 고속</w>
중 형</w>
저 항
일 등</w>
유 익</w>
원 권</w>
상 속
복 판</w>
视 力</w>
脑 袋</w>
老 化</w>
纳 税</w>
泰 安</w>
李 舜
日 来</w>
怀 里</w>
废 墟</w>
右 边</w>
动 工</w>
分 割</w>
16 %</w>
철도 공사</w>
차 종</w>
집행 유예</w>
질 투</w>
주 범</w>
여 정</w>
액 정
아카 데
수 레</w>
마 한</w>
로맨 스</w>
동 거</w>
과 이</w>
运动 场</w>
致 使</w>
点 击</w>
方便 面</w>
教 养</w>
张 成
大 哥</w>
l pg</w>
합 의문</w>
참 패</w>
직 선</w>
지구 촌</w>
연 못</w>
맹 렬</w>
频 率</w>
醒 来</w>
职 场</w>
感 叹</w>
左 边</w>
及 格</w>
传 送</w>
투 리</w>
탐 색</w>
일 산</w>
양 키스</w>
수 백만</w>
따라 가</w>
당 론</w>
갈 망</w>
警察 局</w>
系 列
的 心</w>
比 如</w>
晚 会</w>
张 美兰</w>
广 大</w>
天 地</w>
全球 性</w>
你 的心</w>
丝 绸</w>
5 2
4. 5</w>
직 속</w>
증 설</w>
중 장</w>
위 의장</w>
우 트</w>
성 금</w>
법 도</w>
대통령 후보</w>
글 라스</w>
阶 段
阶段 性</w>
紧 迫</w>
火 热</w>
流 产</w>
据 点</w>
후 문</w>
하 하</w>
평화 체제</w>
제 자리</w>
아 나
봉 주</w>
몸 싸움</w>
명예 회장</w>
따라 잡</w>
드라 이버</w>
기업 가</w>
设 在</w>
萨 科</w>
苗 条</w>
耐 克</w>
棒 球场</w>
新 社</w>
托 弗</w>
工 作者</w>
周 密</w>
南 朝鲜</w>
克里斯 托弗</w>
人 种</w>
5 9
1 33</w>
헤 치</w>
한국 말</w>
팽 팽
창 밖</w>
지 탱</w>
정책 위의장</w>
이재 민</w>
서울 시청</w>
브러 더스</w>
목 재</w>
대 회의</w>
걸 치</w>
运 营
签 字</w>
河 流</w>
崔 泰
小 平</w>
列 举</w>
훗 날</w>
참 조</w>
정규 리그</w>
인 위</w>
오렌 지</w>
신 라
방 역</w>
바 깥
밀어 붙이</w>
마 토</w>
국 경
가 파르</w>
近 年</w>
跃 升</w>
罗 南</w>
李东 官</w>
无 故</w>
抢 劫</w>
奥 斯
최 장</w>
진상 규명</w>
제 보</w>
제 법</w>
장 악
요 란</w>
예 컨대</w>
염 원</w>
실 마리</w>
성 급</w>
석 상</w>
민주 화
당 정
금 리
고 의
경 지</w>
개막 전</w>
让 给</w>
独 家</w>
李舜 臣</w>
改 良</w>
希 腊
客 气</w>
严 惩</w>
휴 업</w>
페스티 벌</w>
칼 럼</w>
정치 개혁</w>
재 무
자 비</w>
아 우
실 버</w>
신 나</w>
스 틸</w>
배 기</w>
미국 측</w>
무 책임</w>
끝 없이</w>
교 황</w>
降 到</w>
说 吧</w>
获 奖者</w>
标 榜</w>
扭 转</w>
平 日</w>
审 问</w>
国 民党</w>
假 币</w>
保 卫</w>
人 性</w>
一 首</w>
c ity</w>
필요 도</w>
피 탈</w>
캐 피탈</w>
인 접</w>
우 대</w>
설 마</w>
서양 속담</w>
부 적절</w>
국 화</w>
개발 연구원</w>
酒 后</w>
逗 留</w>
轻 视</w>
简 洁</w>
学 到</w>
1 22</w>
페 어</w>
섭 씨</w>
라 니</w>
감 시
面 具</w>
需 求
装 修</w>
离 子</w>
相 逢</w>
牌 子</w>
水 雷</w>
农 作物</w>
传 言</w>
피 자</w>
탈 세</w>
코 오
추 가
중 부</w>
제 일
재 연</w>
외국 어
아메리 칸</w>
신 의주</w>
부 러
복 숭
방송 통신</w>
둥 성</w>
真 好</w>
无 需</w>
打 招呼</w>
所有 权</w>
怀 念</w>
开 枪</w>
大 雪</w>
启 用</w>
反 战</w>
公 然</w>
充 电</w>
不 无</w>
형 님</w>
진 동</w>
윤 리
운 서</w>
시 종</w>
섹 스</w>
부 끄러
단 연</w>
느 니</w>
낙 태</w>
낙 선</w>
국 보</w>
邓 小平</w>
悄 悄</w>
大 阪</w>
乌 克兰</w>
9 8
품 질
장 하</w>
아 랑
세계 선수권대회</w>
서 술</w>
박 자</w>
뒤 집
나 날</w>
기 수</w>
공 화</w>
가 꾸</w>
礼 拜</w>
照 相机</w>
流 利</w>
朝 着</w>
接 任</w>
挑 剔</w>
执 照</w>
f e
don ga</w>
헨 리</w>
이 변</w>
우 익</w>
안 목</w>
선 장</w>
부 상자</w>
발 족</w>
루 이스</w>
대 규</w>
끊 기</w>
银 行
洗衣 机</w>
楼 梯</w>
指 甲</w>
当 务
当务 之急</w>
奖 项</w>
头 疼</w>
多 方</w>
保 卫
使用 费</w>
五 年</w>
中 队</w>
15 2</w>
호 도</w>
해 양
평 상시</w>
케 스트라</w>
침 실</w>
이 여</w>
오 케스트라</w>
어 머
시 드</w>
스카 우트</w>
나 미</w>
구 로</w>
朴 素</w>
抱 有</w>
底 下</w>
听 课</w>
全 家</w>
保 守
v e
총 알</w>
젓 가락</w>
외 무장관</w>
여 력</w>
애 국
암 살</w>
시 사
분 수</w>
리바 운드</w>
라 진</w>
군 함</w>
金 润
金 海</w>
祭 祀</w>
理 工科</w>
海 警</w>
樱 花</w>
收 尾</w>
忽 略</w>
太 小</w>
卢 建
保 密</w>
c g
b ang</w>
학 살</w>
표 출</w>
악 마</w>
실 직</w>
신 병</w>
소 형차</w>
산 악</w>
발 주</w>
명 함</w>
경상 수</w>
객 실</w>
领事 馆</w>
辩 解</w>
美 男</w>
畅 销</w>
演艺 界</w>
极 力</w>
机 关
开 花</w>
内 存</w>
信 守</w>
직 인</w>
직 결</w>
수학 능력
수학능력 시험</w>
선 양</w>
민간 단체</w>
미 르</w>
모 양
먼 스</w>
되 살</w>
단 독
날 씬</w>
고 무
가속 화</w>
高 手</w>
胚 胎</w>
献 身</w>
烧 毁</w>
水 道</w>
放 任</w>
收 录</w>
增 添</w>
土 壤</w>
同 等</w>
可 笑</w>
主席 国</w>
1 3%</w>
후 손</w>
택 지</w>
제 인</w>
우 지</w>
왕 실</w>
시 력</w>
밀 집</w>
롭 히</w>
괴 롭히</w>
李炳 宪</w>
排 骨</w>
指 向</w>
同 居</w>
s m
19 66</w>
1 1%</w>
해 설</w>
크 업</w>
최 종
정치 국</w>
인 단</w>
세계 은행</w>
메이 크업</w>
떠 돌</w>
대 일</w>
가 이드</w>
终 止</w>
波 浪</w>
没 落</w>
民 营</w>
庆 幸</w>
地 皮</w>
共 存</w>
총 력</w>
초 로</w>
위기 설</w>
상 쾌</w>
보 상금</w>
민 정</w>
메 릴
裴 勇俊</w>
草 莓</w>
德 性</w>
归 还</w>
坦 率</w>
医 学院</w>
动 身</w>
事 发</w>
上 限</w>
v er</w>
표 방</w>
잉 크</w>
일 정
인 회</w>
이틀 째</w>
에 어</w>
소 인</w>
병 상</w>
미 널</w>
메이 커</w>
마이크 로
누 락</w>
내려 놓</w>
내 성</w>
김 포</w>
교 묘</w>
齐 心</w>
韩升 洙</w>
防 线</w>
该 国</w>
罗 那</w>
棒 球队</w>
架 子</w>
明 细</w>
巴塞 罗那</w>
复 出</w>
c p</w>
환 불</w>
평 일</w>
토 양</w>
케 네
첫 사랑</w>
진 위</w>
재 일
이제 야</w>
위 배</w>
원 동력</w>
노랫 소리</w>
깨 우</w>
기 선</w>
维 亚</w>
水 域</w>
水 位</w>
根 本性</w>
回 报</w>
侦察 机</w>
人 人</w>
회 당</w>
하 늘
폐 막</w>
참 견</w>
정 정</w>
자 와</w>
이 륙</w>
용 준</w>
드라 이브</w>
다 케
내 륙</w>
洗 涤</w>
撤 退</w>
工 商</w>
崔 真实</w>
保卫 部</w>
中 等</w>
两 者</w>
n a
15 k</w>
투 신</w>
총 국</w>
중 상</w>
저 분</w>
이산 화탄소</w>
의 거</w>
운 전자</w>
외 롭</w>
연 평도</w>
사 비</w>
단 기간</w>
경 복
견 본</w>
가 미</w>
过 高</w>
讲 台</w>
花 朵</w>
百 年</w>
油 漆</w>
搬 迁</w>
原 告</w>
匈 牙
冷 冻</w>
中 型</w>
포 먼스</w>
퍼 포먼스</w>
지 름</w>
제 약
정 성
전문 지</w>
재 의</w>
위 임</w>
소 포</w>
사 냥
반 출</w>
경제 발전</w>
각 형</w>
观 赏</w>
羽 毛
群 岛</w>
方 位</w>
摇 滚</w>
差 价</w>
威 士
r o</w>
풀 기</w>
창 원</w>
찬 물</w>
정 전
자리 잡</w>
음 식물</w>
요 즈음</w>
예술 가</w>
열 중</w>
여 태</w>
소 총</w>
소 유권</w>
뻔 하</w>
바닷 가</w>
루 미
국 도</w>
食 欲</w>
领 事</w>
面 条</w>
薛 琦
薛琦 铉</w>
紫 外线</w>
派 对</w>
效 性</w>
掌 权</w>
分 量</w>
一 律</w>
s ch
im e</w>
han a</w>
핑 크</w>
특 성상</w>
터무 니
터무니 없</w>
크라 이나</w>
진 열</w>
지 극히</w>
우 크라이나</w>
예 견</w>
어 시스트</w>
쓰 러지</w>
손 잡</w>
생생 하</w>
불러 일으키</w>
볼 트</w>
국 세</w>
被告 人</w>
欣 然</w>
本 能</w>
抬 头</w>
微 弱</w>
孕 妇</w>
委 任</w>
双 胞胎</w>
十 足</w>
再 度</w>
@ donga.com</w>
9 5%</w>
6 15</w>
좀 더</w>
이동 관</w>
이 걸</w>
영 감</w>
열 성</w>
미 화</w>
면 하</w>
더 럽</w>
기술 자</w>
구 치</w>
香 味</w>
词 语</w>
规 范</w>
要 领</w>
破 格</w>
皇 后</w>
白 皮书</w>
犹太 人</w>
扔 掉</w>
往 后</w>
存 折</w>
名 词</w>
做 梦</w>
16 5</w>
해 리</w>
출 퇴근</w>
이 인
연 정</w>
선 과</w>
벼 랑</w>
발 자국</w>
등 재</w>
김 근
기 뢰</w>
그 루
风 筝</w>
金 鲜</w>
船 体</w>
次 于</w>
李凤 柱</w>
教 导</w>
国际 法</w>
取 出</w>
再 现</w>
停 业</w>
亲 手</w>
一 等</w>
홍 보
형사 처벌</w>
행 사장</w>
한국 개발연구원</w>
토 마토</w>
철 로</w>
주 선</w>
주 무</w>
영화 배우</w>
분 포</w>
도 피</w>
겨 루</w>
가 마</w>
虚 拟</w>
自 发</w>
积 分</w>
时 常</w>
斯蒂 芬</w>
排 挤</w>
古 老</w>
伤 者</w>
享 有</w>
下 场</w>
1 37</w>
준 공</w>
종 식</w>
적 기</w>
영 사관</w>
수 사관</w>
손 톱</w>
문 예</w>
당 뇨</w>
남 녀
군사 령
가 두</w>
防 疫</w>
转 嫁</w>
赔 偿金</w>
诺 基亚</w>
拉 斯
山 脉</w>
多 余</w>
写 下</w>
修 建</w>
使 命</w>
촉 각</w>
올림픽 위원회</w>
영 상
수 퍼</w>
산 자</w>
비 비</w>
등 등</w>
들 일</w>
꿈 치</w>
권 익</w>
구 이</w>
광 석</w>
水 量</w>
榜 首</w>
昆 虫</w>
揽 子</w>
心 脏
差 额</w>
客 车</w>
商 议</w>
分 权</w>
为 时</w>
一 揽子</w>
평 당</w>
퇴 직
태 평</w>
인 준</w>
의 전</w>
완 주</w>
분 비</w>
백 서</w>
배 신</w>
박사 학위</w>
대 법</w>
科 学
盘 子</w>
烹 饪</w>
匈牙 利</w>
制 性</w>
内 战</w>
传 到</w>
不 时</w>
w fp</w>
u h</w>
1 13</w>
창 피</w>
인 척</w>
순 찰</w>
선 상</w>
복 종</w>
限 定</w>
造 船
猛 增</w>
州 长</w>
官 邸</w>
孤 儿</w>
大 叔</w>
光 线</w>
停 电</w>
保护 法</w>
u f
r i
ki m</w>
하이브리 드</w>
트레이 닝</w>
초 보</w>
재 보</w>
재 무부</w>
자 영업</w>
인 식
약 국</w>
부 속</w>
바 겐</w>
마 술</w>
띄 우</w>
권 하</w>
高 盛</w>
船 长</w>
猴 子</w>
特 兰
民 俗</w>
杰 夫</w>
李 基
未 成年</w>
冰 场</w>
一 动</w>
. kr</w>
청 소년
천 문</w>
집중 력</w>
종 가</w>
잔 액</w>
자 정</w>
일 상
알 루미
선 글라스</w>
봉 지</w>
들어 보</w>
동 봉</w>
녹 차</w>
골 퍼</w>
고의 로</w>
消 防
注 意
注意 力</w>
放 量</w>
放 映</w>
意 想</w>
怪 物</w>
安 山</w>
哈 尔
匆 匆</w>
制 约</w>
4 0.
15 8</w>
1 20
해 발</w>
한 껏</w>
필 자</w>
터 치</w>
지 명
재 청</w>
원 정
예술 의</w>
영 이</w>
법 대</w>
기 호</w>
기 업체</w>
규 범</w>
陷 阱</w>
百分 之</w>
捐 献</w>
山 峰</w>
出生 于</w>
内 陆</w>
全 境</w>
ad e</w>
14 8</w>
평 론가</w>
투 명성</w>
쿠 데
제작 사</w>
정 동</w>
장애 물</w>
자유 민주주의</w>
서 랍</w>
봉사 활동</w>
미 달</w>
도 무지</w>
노 키아</w>
기관 장</w>
구 애</w>
곧 장</w>
风 暴</w>
记 忆
撤 销</w>
慰 问</w>
弃 权</w>
开 端</w>
围 巾</w>
s a
1 45</w>
회 색</w>
하 느
하느 님</w>
초 대형</w>
처 형</w>
찬 반</w>
지 리
오래 되</w>
어 때
어때 요</w>
앞 쪽</w>
싱 크
심 문</w>
신 랑</w>
석 사</w>
무 진</w>
면 밀</w>
대표 이사</w>
나 절</w>
金 星</w>
熊 猫</w>
江 陵</w>
李英 爱</w>
断 定</w>
抽 屉</w>
心脏 病</w>
弊 端</w>
喝 醉</w>
台 上</w>
医 药</w>
冤 枉</w>
京 都</w>
买 入</w>
s or
it ter</w>
허 점</w>
토 니</w>
케 리</w>
중 유</w>
준 이</w>
우리 신문</w>
요미 우리신문</w>
양 당</w>
럼 프</w>
도 덕
공산 주의</w>
裸 体</w>
网 页</w>
稳 固</w>
社 交</w>
狠 狠</w>
无 意</w>
变 为</w>
体 能</w>
一 个
2. 5%</w>
15 5</w>
1 34</w>
헝 가리</w>
한 파</w>
한 승수</w>
중 량</w>
장 중</w>
임대 주택</w>
인 구
이 런
이런 저런</w>
월 간</w>
업무 보고</w>
신한 은행</w>
번 식</w>
고 상</w>
건 데</w>
가 결</w>
重 油</w>
辅 助</w>
背 着</w>
抵 制</w>
投 掷</w>
小说 家</w>
同 步</w>
劝 说</w>
亚 特兰
b a
4 800</w>
하 천</w>
포 진</w>
콜 롬
신흥 시장</w>
술 자리</w>
보 내지</w>
명 세</w>
만들 어지</w>
드 리
도 적</w>
대 여</w>
다 스리</w>
그 랜
长期 化</w>
行 进</w>
检察 长</w>
来 信</w>
报 答</w>
打 倒</w>
交 叉</w>
es t</w>
6 3
2 m</w>
하 얼
하얼 빈</w>
제3 국</w>
정권 교체</w>
정 찰
절 이</w>
의사 소통</w>
여름 철</w>
봉 우리</w>
병 역
변 화
베 리아</w>
동 점</w>
눈 부시</w>
국무 위원</w>
高 阳市</w>
面 部</w>
道 德性</w>
逐 年</w>
辅 导
贯 性</w>
股 权</w>
江 北</w>
村 民</w>
建 设
实 质</w>
上 游</w>
上 流</w>
피 고인</w>
쿠데 타</w>
정 박</w>
장 동건</w>
일 주</w>
이 글</w>
역사 교과서</w>
성 폭력</w>
방 류</w>
밤 늦</w>
멍 청</w>
둘 레</w>
금 세</w>
간 단히</w>
社 团</w>
破 例</w>
物 产</w>
湖 水</w>
橡 胶</w>
标 题</w>
柜 台</w>
新 郎</w>
换 算</w>
报 考</w>
咕 嘟</w>
含 义</w>
光 彩</w>
以 防</w>
亚 利
l ng</w>
1 m</w>
포 부</w>
재 신임</w>
자원 봉사자</w>
세계 무역
민간 기업</w>
미 숙</w>
메 르</w>
동 을</w>
노 란색</w>
괴 물</w>
갈 색</w>
败 者</w>
负 于</w>
草 原</w>
电 车</w>
沉 着</w>
李光 宰</w>
有 空</w>
大 风</w>
后 半
分 解</w>
严 峻</w>
하 마</w>
출 항</w>
중 근</w>
원 점</w>
아시아 경기대회</w>
미 용</w>
명 소</w>
首 映</w>
袖 手
袖手 旁观</w>
职 能</w>
纳 税
直 径</w>
大 腿</w>
坡 州</w>
地 亚
吻 合</w>
史 密
临 时
op ec</w>
1 21</w>
헌법 소원</w>
카 롭</w>
중 장
줌 마</w>
제 휴</w>
이 점</w>
어 민</w>
야 구장</w>
암 시</w>
아 줌마</w>
쓸 쓸</w>
서 강대</w>
상 과</w>
부정 행위</w>
배 출
대 공</w>
날 카롭</w>
격 파</w>
감 고</w>
面 对面</w>
课 堂</w>
班 级</w>
滑 雪
工程 师</w>
小 孩儿</w>
始 人</w>
夜 里</w>
再 三</w>
也 门</w>
一 点点</w>
청 주</w>
책 자</w>
수산 식품</w>
사 담</w>
막 바지</w>
렐 라</w>
당 사국</w>
꺼 지</w>
그리 움</w>
구 심</w>
교수 님</w>
공 장
거부 권</w>
霍 温</w>
降 落
降落 伞</w>
老 朋友</w>
破 灭</w>
潜水 艇</w>
收 容</w>
接 下来</w>
宋 慧
四 年</w>
亚利 桑
출 연
찾 아보</w>
차관 급</w>
적십 자</w>
의 선</w>
아나 운서</w>
싶 어하</w>
스 텔</w>
선 대</w>
분 장</w>
분 권</w>
베 개</w>
반 짝
규 율</w>
轻 微</w>
装 甲
蚂 蚁</w>
精 神
来 得</w>
推 杆</w>
拥 护</w>
投 降</w>
悄悄 地</w>
微 不
延 伸</w>
尹 增
宋慧 乔</w>
地 毯</w>
四 十</w>
体 化</w>
p dp</w>
19 51</w>
테 랑</w>
최 저
지 능</w>
운 전사</w>
온 화</w>
연 례</w>
언제 쯤</w>
애 국</w>
신 데
신데 렐라</w>
비 위</w>
박 탈</w>
대한 상공회의소</w>
다 롭</w>
까 다롭</w>
铃 木</w>
较 为</w>
要 买</w>
肺 炎</w>
构 造</w>
显 现</w>
无 礼</w>
无 所
损 失
大 林</w>
围 墙</w>
反 响</w>
入 侵</w>
促 成</w>
乞 丐</w>
m p</w>
1. 3</w>
핸드 폰</w>
하루 빨리</w>
팔 자</w>
인수 위원회</w>
유 인
외 의</w>
어 찌
양 주</w>
수 혜</w>
반 납</w>
바라 지</w>
까 맣</w>
기획 관</w>
검 열</w>
金 振</w>
通 往</w>
足 球赛</w>
财 界</w>
童 年</w>
稍 有</w>
激 光</w>
柱 子</w>
办公 楼</w>
严 密</w>
s t</w>
출 혈</w>
제 방</w>
정 오</w>
애 틀</w>
시 애틀</w>
스 미스</w>
모 레</w>
똑똑 히</w>
고 독</w>
雕 刻</w>
辅 佐
辅佐 官</w>
该 项</w>
税 法</w>
眼 儿</w>
夏 普</w>
份 额</w>
交 付</w>
ni x</w>
17 %</w>
하 의</w>
하 드
킬로 미터</w>
청 원</w>
중앙 회</w>
전 시작</w>
육 지</w>
야 단</w>
앉 히</w>
식 별</w>
시 끄럽</w>
소비 량</w>
샘 플</w>
먹 자</w>
각 도</w>
绿 茶</w>
安 门</w>
天 安门</w>
台 阶</w>
中 学生</w>
19 61</w>
1 28</w>
환 전</w>
포 탄</w>
펼 쳐지</w>
쪼 개</w>
이 따
알루미 늄</w>
비 장</w>
북 핵문제</w>
법정 관리</w>
곡 절</w>
高 山</w>
雅 图</w>
野 外</w>
遇 难</w>
该 书</w>
西 雅图</w>
裁 减</w>
早 点</w>
教 界</w>
不 知
不 止</w>
한 테
첼 시</w>
중 고
입 성</w>
응 답
위 스키</w>
어 려
어려 워지</w>
소 드</w>
보 법</w>
명백 히</w>
들 썩
납 세</w>
雷 斯</w>
闪 闪</w>
重 逢</w>
轮 流</w>
羊 毛</w>
特 级</w>
彼 得</w>
参 选</w>
허 술</w>
해설 위원</w>
항 모</w>
태 영</w>
직 접
자 이</w>
이용 자</w>
선 인</w>
서 고</w>
뼈 대</w>
미 성
면 밀히</w>
낙 엽</w>
국 빈</w>
건설 업</w>
高 血压</w>
自 来
男 子
爱 的</w>
沦 为</w>
奋 斗</w>
处 理
周 岁</w>
合 物</w>
划 时代</w>
亲 爱的</w>
举 止</w>
一 再</w>
t y</w>
1. 5%</w>
1 27</w>
패 권</w>
최 하위</w>
종합 주가지수</w>
자 처</w>
음 소리</w>
용 역</w>
에 피
약 진</w>
아 우</w>
쌍 용
신청 서</w>
세 무</w>
동 계</w>
당 근</w>
광복 절</w>
麦当 劳</w>
美 中</w>
打 着</w>
所 未
总 管</w>
平 常</w>
切 尔
出 血</w>
cap ital</w>
4 8.
하 키</w>
조 수</w>
정 략</w>
저 마다</w>
작 전
이 천</w>
염 증</w>
어 야만</w>
만 족
동 조</w>
다 가가</w>
내 전</w>
고 국</w>
默 默
金 斗</w>
运动 鞋</w>
迈 出</w>
装甲 车</w>
称 号</w>
监 禁</w>
栅 栏</w>
排 放量</w>
强 风</w>
地 球
原 产地</w>
依 赖
8 5
2 800</w>
참 고인</w>
자 회사</w>
이 경
연구 가</w>
에피 소드</w>
박 용
민주화 운동</w>
달 여</w>
步 枪</w>
接 见</w>
异 性</w>
卖 掉</w>
传 给</w>
화 답</w>
파 행</w>
집 안일</w>
지 력</w>
의 향</w>
열 람</w>
아 냐</w>
사 육</w>
바이 올
물 살</w>
물 산</w>
목 동</w>
남자 아이</w>
경복 궁</w>
개 최
锋 相对</w>
针 锋相对</w>
物 理学</w>
爱 人</w>
深 感</w>
教 士</w>
摄 取</w>
开 创</w>
基 本
名 分</w>
包 袱</w>
万 洙</w>
dra m</w>
c b</w>
포 스트
평 판</w>
추 장</w>
지 않
지않 아</w>
이 든지</w>
연 세</w>
엄 하</w>
어 야
아이 스</w>
반 문</w>
바이올 린</w>
몰 수</w>
목 요일</w>
면 회</w>
머 지않아</w>
남 매</w>
기 종</w>
궁 금
국가 안전보장</w>
국 보법</w>
과학 기술
곤 충</w>
경 호
건 네
간 접
顿 时</w>
繁 殖</w>
矿 石</w>
版 权</w>
无 形</w>
数 额</w>
工 夫</w>
寂 寞</w>
大 成</w>
大 吃
发 票</w>
南 山</w>
协 同</w>
환 급</w>
피 격</w>
절 박</w>
육 상
안 양</w>
보 따
바람 은</w>
과 반
고 혈압</w>
고 갈</w>
게 으
개발 사업</w>
行 程</w>
空 虚</w>
洲 际</w>
治 疗
威士 忌</w>
国 宝</w>
千 里</w>
hy nix</w>
8 9
호 기</w>
체 화</w>
엘 라</w>
앞 바다</w>
삼성 증권</w>
무 모</w>
동 경</w>
다이 빙</w>
기 질</w>
계획 도</w>
강 씨</w>
老 家</w>
羽毛 球</w>
罗 德</w>
特 纳</w>
标 语</w>
来 回</w>
拉 链</w>
投资 额</w>
开 朗</w>
宅 地</w>
奢 侈</w>
克 莱
v i
s l
흉 기</w>
하나 은행</w>
파 편</w>
튜 브</w>
통합 신당</w>
콘 크
이동 국</w>
씌 우</w>
스 카</w>
송 승
성 범죄</w>
루 타</w>
닭 고기</w>
고 등</w>
马 德
重 伤</w>
辩 护</w>
育 儿</w>
无 名</w>
收 看</w>
成 龙</w>
忘 掉</w>
开 学</w>
尝 到</w>
家 畜</w>
四 川</w>
功 率</w>
健 全
8 500</w>
50 1</w>
혹 독</w>
하락 세</w>
정 시</w>
전 광
아카데 미</w>
수 품</w>
산업 화</w>
마이크로 소프트</w>
도 둑
기 슭</w>
귀 한</w>
권 총</w>
구 출</w>
额 外</w>
金升 渊</w>
礼 节</w>
玩 耍</w>
步 入</w>
标 签</w>
新 增</w>
搬 运</w>
尽 如
尽如 人意</w>
地 形</w>
发 来</w>
制 服</w>
희 미</w>
요 르
예 멘</w>
열 지</w>
어 미</w>
아니 에요</w>
시 시
시 대
선 점</w>
밀 수</w>
대 학과</w>
낙 후</w>
가 옥</w>
车 票</w>
板 球</w>
智 贤</w>
层 次</w>
害 羞</w>
学 术
太 高</w>
大 坝</w>
后 方</w>
各 项</w>
出 发
党 部</w>
以 南</w>
乡 下</w>
tw itter</w>
pr t</w>
코 믹</w>
치 즈</w>
장 대</w>
유연 성</w>
소 멸</w>
성 별</w>
봉 급</w>
벤처 기업</w>
미 처</w>
무 분별</w>
김 광
계 좌
가 명</w>
鸟 儿</w>
节 制</w>
老 鹰</w>
继承 人</w>
第 七</w>
球 杆</w>
校 内</w>
朝鲜 人</w>
希腊 队</w>
市 道</w>
场 外</w>
只 需</w>
原 封
d y</w>
4. 5%</w>
표 류</w>
자유 무역</w>
원 소</w>
시 원
선 언
서 늘</w>
비 도</w>
번 번
발표 가</w>
모 자라</w>
등 극</w>
경제 팀</w>
金正 恩</w>
美 人</w>
离 去</w>
盗 窃</w>
环 节</w>
玄 贞恩</w>
堵 住</w>
商 标</w>
前 科</w>
体 格</w>
c s</w>
19 2</w>
18 %</w>
학생 과</w>
태 료</w>
커뮤니 케이션</w>
치 중</w>
최고 급</w>
제 청</w>
재 범</w>
어린 애</w>
안 배</w>
소 외</w>
사 발</w>
빨 간
빨간 색</w>
불 어넣</w>
불 량
부 엌</w>
몸 집</w>
만 평</w>
동물 원</w>
과 태료</w>
결 별</w>
道 而
简 历</w>
游 戏
歉 意</w>
发 射
功 臣</w>
刑 警</w>
公 营</w>
3. 5%</w>
2 600</w>
1 26</w>
한미 연합
필 사</w>
정 력</w>
재 차</w>
유리 창</w>
송 도</w>
버 거</w>
리 얼</w>
단 풍</w>
驻 华</w>
限 期</w>
达 州</w>
现 出</w>
环 球</w>
此 项</w>
攻 读</w>
心 头</w>
包 揽</w>
农 地</w>
作 曲
훔 치</w>
초 라</w>
조 롱</w>
장 훈</w>
응답 자</w>
유 진</w>
스 킨</w>
생 리</w>
너 머</w>
꼼 짝</w>
경 계
거 취</w>
闭 路</w>
辅 佐</w>
终 身</w>
电 费</w>
焚 香</w>
枫 叶</w>
揭 开</w>
抚 摸</w>
弟 子</w>
告 白</w>
原封 不动</w>
印 有</w>
分 化</w>
其 说</w>
兰 特</w>
供 货</w>
会 费</w>
4 5.
헛 되</w>
햄 버거</w>
함 경
콘크 리트</w>
요 동</w>
석유 화학</w>
불 씨</w>
배 역</w>
박 상
국 물</w>
野 蛮</w>
里 斯</w>
输 出</w>
紫 菜</w>
宋 承
冰 冷</w>
4 5%</w>
폐 기물</w>
파 탄</w>
타 도</w>
준 표</w>
성 미</w>
삼 키</w>
보따 리</w>
마 을
드 가</w>
단체 전</w>
네 오</w>
나 귀</w>
과 반</w>
限 于</w>
遗 漏</w>
累 积</w>
法 新社</w>
新 人
文化 部</w>
播 放
德 尔</w>
异 口
异口 同声</w>
始 于</w>
圣 地亚
压 缩</w>
亚特兰 大</w>
互 助</w>
an g
19 30</w>
혜 진</w>
평 평</w>
치 닫</w>
우 기</w>
소 세</w>
사 교육비</w>
마 사</w>
대 륙
꺼 풀</w>
고 안</w>
金 贤</w>
清 廉</w>
氧 气</w>
枕 头</w>
朴 成
晴 朗</w>
推 定</w>
工作 制</w>
在 职</w>
咨 询
危险 性</w>
北 京
关 键
中 风</w>
l and</w>
5 00
3. 1</w>
15 1</w>
15 00m</w>
진 한</w>
여 간</w>
스 판</w>
세 이브</w>
사 촌</w>
사 절</w>
부 품
맞 대</w>
리 나</w>
遗 忘</w>
西 大门</w>
混 凝
混凝 土</w>
数十 万</w>
开 头</w>
店 里</w>
尹增 铉</w>
大 队</w>
同 一天</w>
史密 斯</w>
冲 绳</w>
其 间</w>
先 行</w>
人 间</w>
m o</w>
is u</w>
d er
호 적</w>
이순 신</w>
이라 고는</w>
오 브</w>
예 우</w>
분 계선</w>
문 턱</w>
극 본</w>
酱 油</w>
裁 军</w>
落 叶</w>
综合 症</w>
痊 愈</w>
独 裁者</w>
火 花</w>
抄 袭</w>
所有 者</w>
埃 因
埃因 霍温</w>
吸 烟
借 此</w>
en ce</w>
6 9
4 6.
19 62</w>
입 소</w>
일 절</w>
아 비</w>
선 전
상 한
산 맥</w>
블라디 미르</w>
박 이</w>
바 우</w>
문 득</w>
매 가</w>
기득 권</w>
기 입</w>
豪 感</w>
自 豪感</w>
研究 室</w>
拇 指</w>
军 用</w>
하 진</w>
정 운
음악 회</w>
산 길</w>
사 제</w>
브 레이크</w>
법 치</w>
발 산</w>
국제 금융</w>
구 슬</w>
골 든</w>
고 급
青 色</w>
财 物</w>
胡 乱</w>
瓶 子</w>
流 氓</w>
江 边</w>
怀 抱</w>
字 母</w>
多 于</w>
地 域</w>
兽 医</w>
上 下班</w>
휴 전</w>
황 우석</w>
폐 해</w>
타 면</w>
케 냐</w>
출 판
전 속</w>
우편 물</w>
수 요일</w>
부 유
발 랄</w>
능 가</w>
날 이</w>
나 날이</w>
괜 히</w>
관리 본부</w>
과 감히</w>
공 통
群 山</w>
第 一年</w>
没 事</w>
旅 日</w>
列 为</w>
分析 师</w>
分 红</w>
仁 川
与 其说</w>
핵 연료</w>
청 과</w>
죽 지</w>
응 원단</w>
수 목</w>
세계 기록</w>
서 인</w>
비 탈</w>
박 종
루 머</w>
담 그</w>
그리 워하</w>
교 류
颤 抖</w>
视 野</w>
要 点</w>
熟 人</w>
摘 得</w>
张 紫
7 9
1. 6</w>
퇴 치</w>
카 타르</w>
전문 의</w>
일 쑤</w>
인권 위원회</w>
수 배</w>
불 안
무 색</w>
로 우</w>
로 고</w>
궁금 증</w>
개 원</w>
가 설</w>
好 听</w>
大吃 一
大吃一 惊</w>
圣地亚 哥</w>
出 自</w>
倒 数</w>
优 美</w>
中 南美</w>
不 绝</w>
행 군</w>
학생 회</w>
페 널
코리 안</w>
장 모</w>
애 쓰</w>
아시아 나</w>
서 식</w>
부 추기</w>
번번 이</w>
등 반</w>
낭 만</w>
굴 지</w>
거 물</w>
说 实话</w>
搭 乘</w>
总 计</w>
常 驻</w>
在 场</w>
兰 克
伤 痛</w>
000 t</w>
파 인</w>
클 린</w>
중 남미</w>
유 머</w>
연기 력</w>
승 의</w>
스위 크</w>
발 리</w>
바 나
마 오
남 산</w>
광 둥</w>
관 론</w>
飘 扬</w>
预 示</w>
放 置</w>
排 列</w>
手 工</w>
宫 殿</w>
借 助</w>
优 质</w>
us e</w>
희 박</w>
타 석</w>
절 벽</w>
운 운</w>
스코 어</w>
사 납</w>
복 싱</w>
베 스트
무 책</w>
모 터</w>
담 합</w>
黄 瓜</w>
金 贤
邀 请
较 小</w>
福 宫</w>
点 头</w>
景 福宫</w>
拉 圭</w>
房 产</w>
平 线</w>
占 有</w>
퍼 붓</w>
진 수</w>
앤 드</w>
서 너</w>
받아 들
받아들 여지</w>
마오 쩌
국 감</w>
고 운</w>
迟 迟</w>
薪 金</w>
渔 业</w>
柿 子</w>
旺 盛</w>
教练 组</w>
措 辞</w>
开 馆</w>
四 强</w>
名 片</w>
切尔 西</w>
佩 戴</w>
2 100</w>
0. 5%</w>
최 전방</w>
창 의
영 수</w>
선 별</w>
배 용준</w>
무역 협회</w>
로맨 틱</w>
대 들</w>
답 장</w>
나 들이</w>
끓 이</w>
里 克</w>
过 早</w>
时 任</w>
斯 盾</w>
宙 斯盾</w>
娃 娃</w>
十 几</w>
作 风</w>
东 山</w>
s at</w>
h eu</w>
a 4</w>
1 16</w>
천 은</w>
중 개</w>
일상 생활</w>
은 편</w>
여 세</w>
애 매</w>
실 리
스 페
상 수</w>
부 적</w>
묵 묵
맞 은편</w>
당 면</w>
김태 영</w>
고 양시</w>
音 响</w>
野 兽</w>
移 居</w>
步 骤</w>
大 蒜</w>
堕 胎</w>
历史 性</w>
亚洲 杯</w>
为 时
世 勋</w>
不知 所
万 分</w>
一 日</w>
19 63</w>
허 약</w>
풍 요</w>
치 인</w>
전화 기</w>
응 급
어 내</w>
애리조 나</w>
알렉 산
브 라이
발 레</w>
당 당히</w>
공 습</w>
고속 철도</w>
겸 허</w>
要 紧</w>
海 面</w>
暂 定</w>
平 坦</w>
就 业率</w>
像 样</w>
优 越</w>
1 36</w>
핸드 볼</w>
집 어넣</w>
정보통신 부</w>
오 토</w>
스카 이</w>
서 민
부유 층</w>
满 意
控 制
抗 争</w>
布 料</w>
工业 园</w>
决 胜</w>
兼 职</w>
公 正
之 上</w>
5 500</w>
1 24</w>
풍 조</w>
포 용</w>
트레이 드</w>
크 리스</w>
압 류</w>
안 중근</w>
승 패</w>
사 모</w>
불 화</w>
부채 질</w>
박 희
명 숙</w>
린 치</w>
경찰 청장</w>
隔 壁</w>
金 秉
配 备</w>
迁 都</w>
身 影</w>
谷 物</w>
背 包</w>
生 物
播放 器</w>
委 屈</w>
堤 坝</w>
去 年末</w>
公正 性</w>
仅 次于</w>
7 4
함 성</w>
재 개발</w>
이 수
의원 총회</w>
원 기</w>
시 내
세 기의</w>
부담 금</w>
배 양</w>
명 기</w>
만 금</w>
김근 태</w>
가 락
饭 后</w>
静 坐</w>
议 事
行 星</w>
背 上</w>
河 边</w>
水 洗</w>
战 友</w>
将 近</w>
同 盟国</w>
兼 任</w>
u e</w>
g lo
c t
15 6</w>
힘 쓰</w>
출 두</w>
지 독</w>
자 립</w>
용 화</w>
연 수원</w>
실 성</w>
매 몰</w>
느 라고</w>
농 촌
난 리</w>
그 레이</w>
귀 족</w>
권 장</w>
韩 晓明</w>
金 光
酷 暑</w>
西 装</w>
激 情</w>
泥 土</w>
橄 榄
常 用</w>
天 文</w>
卞 良</w>
单 价</w>
公 报</w>
s o</w>
학 규</w>
친 하</w>
저 조</w>
인 테
신 사
수 년간</w>
민 수</w>
마오쩌 둥</w>
도 안</w>
공직 사회</w>
고 히</w>
고 건</w>
겨울 철</w>
강 인</w>
跌 破</w>
觉 悟</w>
悠 闲</w>
小 型车</w>
媒 介</w>
婆 婆</w>
地球 村</w>
喝 水</w>
周 三</w>
틀 랜
트로 피</w>
커 버</w>
채 찍</w>
전화 통화</w>
애 틀랜
신 고서</w>
소 말
소말 리아</w>
색 의</w>
상 도</w>
사 슬</w>
바이 어</w>
노 련</w>
走 来</w>
梦 幻</w>
发 烧</w>
劣 势</w>
人 工
一 双</w>
ur e</w>
15 3</w>
활 발
자금 난</w>
인 계</w>
육 아</w>
원정 경기</w>
원자력 기구</w>
우 미</w>
온 스</w>
오 르
얽 매</w>
양 파</w>
안 군</w>
모 델
고 야</w>
간 식</w>
门 外</w>
跨 越</w>
渔 村</w>
开 张</w>
全 方位</w>
僵 局</w>
c a
화 교</w>
특 색</w>
태양 광</w>
지 급
조선 인</w>
위 조
외 화
올 라서</w>
오른 손</w>
오 죽</w>
연구 실</w>
아 시
방 미</w>
땅 바닥</w>
동 호
韩 某</w>
进口 额</w>
虚 构</w>
索 马里</w>
穿 戴</w>
生 育
深 处</w>
曲 折</w>
效 益</w>
宋 斗</w>
安 逸</w>
大 将</w>
向 上</w>
卡 塔尔</w>
s cm</w>
1. 8</w>
희 망
카 르</w>
친 일</w>
지하 철
지배 구조</w>
자 손</w>
위 성
우 치</w>
아 티
살 포</w>
본 국</w>
받 들</w>
문 안</w>
다 우</w>
노동 신문</w>
领 海</w>
车 祸</w>
网络 版</w>
粉 色</w>
枪 声</w>
度 假
差 池</w>
在 乎</w>
减 产</w>
全 智贤</w>
佛罗里 达</w>
화 대</w>
판 교</w>
시 국</w>
발전 과</w>
물리 학</w>
물 려
물려 받</w>
기 강</w>
국제 축구연맹</w>
黑 社会</w>
错 觉</w>
进口 车</w>
谢 意</w>
神 圣</w>
疙 瘩</w>
画 报</w>
弥 漫</w>
前 所未
健全 性</w>
j e
4 9.
2 13</w>
한 중일</w>
풍 자</w>
판 타지</w>
염 색</w>
산 화</w>
사업 가</w>
빗 물</w>
무 실점</w>
국제 원자력기구</w>
가치 관</w>
胃 口</w>
特 种</w>
没 有用</w>
检 查
往 前</w>
张成 泽</w>
小 船</w>
存 者</w>
多 哥</w>
卧 室</w>
三 角
l l
행 적</w>
한 복판</w>
페 루</w>
부 름</w>
만 년</w>
기 부금</w>
경 관</w>
静 静
附加 值</w>
自来 水</w>
电 波</w>
清 新</w>
招 募</w>
打 入</w>
半 夜</w>
动 力
借 用</w>
不知所 措</w>
一 千</w>
화 목</w>
출자 총액</w>
찰 스</w>
절 묘</w>
연 령
긴 박</w>
그 머니</w>
风 力</w>
领导 者</w>
购 入</w>
解放 军</w>
源 泉</w>
振 作</w>
头 球</w>
噩 梦</w>
双 眼</w>
加 纳</w>
会 员国</w>
价 格
今 年初</w>
亲 身</w>
as t</w>
후 인</w>
화 분</w>
행 방</w>
할 당</w>
학 장</w>
풍 토</w>
죄 인</w>
전 두환</w>
입 문</w>
요 정</w>
연 고</w>
소 추</w>
불 의</w>
무 지
면 허
뜻 밖에</w>
답 사</w>
까 마
김영 남</w>
기억 력</w>
과 학원</w>
配 角</w>
连 日</w>
要 么</w>
竞争 者</w>
真 伪</w>
托 马斯</w>
感 染
团 体
受 不了</w>
借 钱</w>
ee z</w>
손 학규</w>
선 심</w>
빌 미</w>
베스트 셀러</w>
베 스</w>
联 军</w>
盛 大</w>
瓷 器</w>
来 讲</w>
末 期</w>
无 缘</w>
性 情</w>
外 边</w>
参 赛
去 掉</w>
创 始人</w>
冷 面</w>
人 权
不得 已</w>
9 5
한 적</w>
패션 쇼</w>
텍 스</w>
초 등</w>
증 오</w>
유 키오</w>
위 태</w>
월 보</w>
역 내</w>
알 리
싱크 탱크</w>
신분 증</w>
수 재</w>
분 석
변호 인</w>
맴 돌</w>
마 드
마드 리드</w>
관 도</w>
공 상</w>
进 驻</w>
辞 典</w>
货 款</w>
耶 稣</w>
留 给</w>
更 替</w>
摇 晃</w>
安 置</w>
原 案</w>
升 职</w>
促 销</w>
作 文</w>
os t</w>
kor e
8 4
케네 디</w>
침 수</w>
지 칭</w>
죽 기</w>
적십 자사</w>
오 산</w>
연 습
식 욕</w>
사 라지</w>
부 들</w>
배출 량</w>
배 드
배드 민
배드민 턴</w>
문화 회관</w>
교도 통신</w>
곤 경</w>
계 관</w>
결 석</w>
骗 子</w>
肥 料</w>
租 赁
眼 皮</w>
特 辑</w>
擅 自</w>
报 价</w>
情 形</w>
增 设</w>
口 中</w>
友 谊
分 店</w>
减 排</w>
v s</w>
9 2
침 공</w>
초 당</w>
차 입</w>
지 퍼</w>
자 전</w>
엄 숙</w>
어 수선</w>
실 습</w>
신 하</w>
수 직</w>
미 일</w>
며 칠
나 흘</w>
공 구</w>
魔 术</w>
成 都</w>
心 理
往 事</w>
威 廉</w>
团体 赛</w>
信息 化</w>
临时 工</w>
不 远</w>
fo r</w>
토 고</w>
천 진</w>
중 개
유 서</w>
웃 돌</w>
안 장</w>
서 신</w>
빌 라</w>
벚 꽃</w>
바나 나</w>
렬 히</w>
대 문구</w>
감 대</w>
飞 来</w>
金 美
训练 场</w>
眉 毛</w>
深 思</w>
江 泽
水 上</w>
木 材</w>
心理 战</w>
养 老金</w>
便 利
云 台</w>
b ig
콜롬 비아</w>
치 매</w>
청 렴</w>
주민등록 번호</w>
정 모</w>
쟁 의</w>
임 수</w>
육 로</w>
여객 기</w>
신 혼
보도 자료</w>
무 승부</w>
누 설</w>
낮 아지</w>
转 身</w>
肯 尼亚</w>
结 成</w>
纵 火</w>
爱 上</w>
波 涛</w>
水 资源</w>
板 桥</w>
庭 院</w>
带 给</w>
各 处</w>
原子 弹</w>
农 家</w>
作曲 家</w>
任 意
一 山</w>
3 10</w>
회 도</w>
통신 사</w>
중 증</w>
죄 수</w>
정전 협정</w>
은 사</w>
신라 호텔</w>
수 부</w>
소 액</w>
밀 도</w>
만 삭</w>
대 두</w>
끌어 안</w>
缔 结</w>
最 高级</w>
抽 签</w>
执 教</w>
录 像
应 试</w>
好 人</w>
外 地</w>
凶 器</w>
农 田</w>
他 俩</w>
人权 委</w>
人 次</w>
二 大</w>
两 边</w>
3 g</w>
종합 대책</w>
조직 력</w>
정상 의</w>
재정 적자</w>
일 손</w>
위 폐</w>
요 지</w>
여 분</w>
비 명</w>
무 고</w>
다 거나</w>
개 표</w>
难 者</w>
自 私</w>
相 继</w>
格 鲁
断 然</w>
布莱 尔</w>
容 器</w>
地 铁
变 形</w>
与会 国</w>
50 m</w>
흘러 가</w>
하 차</w>
측 도</w>
일 전</w>
인민 군</w>
울 음소리</w>
안 방</w>
무 얼</w>
네 스코</w>
기 울
软 弱</w>
美 国队</w>
组 织
江泽 民</w>
格 森</w>
开 来</w>
喊 声</w>
原 委</w>
健 身</w>
任意 球</w>
中央 会</w>
항공 편</w>
터 미널</w>
차 츰</w>
중앙 정보
정 례
세 법</w>
로 리</w>
드러 지</w>
동물 을</w>
격 식</w>
香 蕉</w>
轰 炸
津 江</w>
娱 乐
吉 亚</w>
入 球</w>
上 升
jun ior</w>
in e
허 벅
총 상금</w>
이 행하</w>
유 린</w>
울 릉
양 국간</w>
샤 워</w>
봉 송</w>
공작 원</w>
가 다듬</w>
议事 堂</w>
认 出</w>
短 缺</w>
生育 率</w>
手 提
小 幅</w>
官 室</w>
周 前</w>
全 新</w>
书 信</w>
p da</w>
헤 어
평 온</w>
택 하</w>
주 지사</w>
좁 히</w>
인 디
이 호</w>
유 래</w>
요르 단</w>
성 명서</w>
산 악
덩 치</w>
그 립</w>
가 열</w>
窗 帘</w>
火 力</w>
此 地</w>
拷 问</w>
低 头</w>
二 手
临 津江</w>
초 가</w>
진 보
지 영</w>
주 심</w>
장성 택</w>
인 어</w>
이민 자</w>
위기 감</w>
운 수</w>
득 세</w>
대북 제재</w>
금 강</w>
鸭 子</w>
长 途</w>
逃 走</w>
英 才</w>
简 短</w>
玫 瑰
提 示</w>
师 傅</w>
合 法
利 润
刚 好</w>
倍 受</w>
信 函</w>
헤 드</w>
필 연</w>
쪽 지</w>
주 미</w>
응 급</w>
오 자와</w>
연료 봉</w>
수 없이</w>
불 고기</w>
방 도</w>
반 죽</w>
문 책</w>
늦 어지</w>
누 이</w>
경제 권</w>
결 집</w>
生 理</w>
特 工</w>
深深 的</w>
格鲁 吉亚</w>
杜 绝</w>
巴 西
多样 性</w>
可 取</w>
出发 点</w>
产 权</w>
书 包</w>
힘 차
힘차 게</w>
한국 전쟁</w>
중 의원</w>
입 당</w>
인 문</w>
이것 저것</w>
오 줌</w>
무 궁
멀 쩡</w>
마 법</w>
로 프</w>
딱 지</w>
디 오
그러 므로</w>
개 관</w>
轰炸 机</w>
请 愿</w>
泡 影</w>
欺 负</w>
期 待
搜 集</w>
搁 置</w>
原 野</w>
加利福 尼亚州</w>
制造 商</w>
元 首</w>
f e</w>
4 4.
1 38</w>
흡 사</w>
흉 내</w>
합 작
한 명숙</w>
풍 성</w>
틀 랜드</w>
제 철
장 갑
유 네스코</w>
빅 뱅</w>
병 합</w>
구 비</w>
건너 가</w>
개 편안</w>
강 북</w>
각 광</w>
金 色</w>
金 斯</w>
连 环</w>
认 同</w>
盛 行</w>
心 地</w>
尔 顿</w>
合 同
去 留</w>
充 当</w>
亚 麻</w>
不 慎</w>
kt x</w>
al l
& g</w>
화물 차</w>
집 무실</w>
입 체</w>
열 거</w>
수 납</w>
산 출</w>
단 편</w>
내 부
그루 지
군사 분계선</w>
공 해</w>
고 파</w>
갈아 입</w>
革 命
金美 贤</w>
特 尔</w>
朴智 元</w>
和 睦</w>
周 四</w>
创造 性</w>
促 使</w>
il l
특별 위원회</w>
충 청</w>
축구 팀</w>
저 주</w>
잔 소리</w>
입 학
아랑 곳</w>
심 야</w>
선 뜻</w>
새 들</w>
사 수</w>
받 치</w>
메 달
마 우스</w>
달 콤</w>
난 제</w>
기 약</w>
问 到</w>
选 任</w>
苦 头</w>
臀 部</w>
维 新</w>
米 尔</w>
祖 父</w>
病 床</w>
申 告</w>
汉 城市</w>
富 川</w>
实 时</w>
信 号
以 为
丰 收</w>
h p</w>
화 염</w>
한 판</w>
포지 션</w>
최 연소</w>
총 각</w>
의 구심</w>
수 심</w>
부 스</w>
날아 오</w>
기 리</w>
공 감대</w>
곤 혹</w>
马 丁</w>
道而 驰</w>
补 偿金</w>
背 道而驰</w>
神 父</w>
点 心</w>
欢 乐</w>
打 点</w>
封 面</w>
告 栏</w>
亲 人</w>
히 말라
헤 매</w>
헐 값</w>
컨 벤
촬 영장</w>
총 격</w>
직 구</w>
인 물들</w>
은 밀</w>
얼 음
수 인</w>
손 짓</w>
사회 단체</w>
사람 됨</w>
부 장관</w>
봉 건</w>
무 작정</w>
막 론</w>
나 사</w>
깨 어나</w>
구 인</w>
경 작</w>
高 峰</w>
部 下</w>
调 解</w>
画 片</w>
爱 乐</w>
弯 曲</w>
坏 人</w>
伯 格</w>
d re
프린 트</w>
접 목</w>
전 투
재 간</w>
안 나</w>
수 상자</w>
쇼 트</w>
성 애</w>
브리 지</w>
부지 런</w>
로 이드</w>
대 법원장</w>
단 언</w>
누 비</w>
구 매력</w>
감 산</w>
预 售</w>
责 备</w>
想 你</w>
岛 上</w>
复 合</w>
利 己</w>
内 向</w>
与会 者</w>
i h
3 80</w>
홈 쇼핑</w>
통신 망</w>
즉 석</w>
조 장</w>
정신 력</w>
이 아</w>
요리 사</w>
예 수</w>
어 야지</w>
양 념</w>
브 란
민 사</w>
모양 새</w>
극 대화</w>
远 东</w>
轻 便</w>
表 露</w>
突 袭</w>
海 鲜</w>
厌 倦</w>
假 冒</w>
폭 죽</w>
적 절히</w>
일 삼</w>
열 세</w>
안 대</w>
아무 렇</w>
스 윙</w>
소 용
사 령</w>
미술 품</w>
마 누
동맹 관계</w>
대 야</w>
노동 계</w>
깊 어지</w>
공 휴일</w>
高 原</w>
高 利
钓 鱼
金 炯</w>
赞助 商</w>
相 符</w>
监 察
浓 厚</w>
没 用</w>
放 学</w>
奥 队</w>
夺 取</w>
国 奥队</w>
唠 叨</w>
协 作</w>
制作 人</w>
交易 法</w>
互 不</w>
d l</w>
히말라 야</w>
형 과</w>
특 허
자 연히</w>
인 드</w>
이 색</w>
유 가
옥 상</w>
영 의</w>
세계무역 기구</w>
발사 체</w>
미 미</w>
몽 땅</w>
리 본</w>
뒷 면</w>
다 고는</w>
꼼꼼 하</w>
국정 조사</w>
곤두 박
곡 선</w>
경쟁 자</w>
경 품</w>
高 温</w>
高 低</w>
雪 花</w>
辞 退</w>
车 间</w>
荡 荡</w>
社会 性</w>
灰 姑娘</w>
本 事</w>
折 断</w>
姜 万洙</w>
地铁 站</w>
关 押</w>
公 会</w>
下 榻</w>
as se
피 살</w>
플 랜</w>
퇴 원</w>
톡 톡
카 스</w>
인 심</w>
유 망
오 세
신 세계
스탠 더
서울 지검</w>
노동 시장</w>
꽃 잎</w>
구 한</w>
飞 翔</w>
顶 点</w>
锦 实</w>
辱 骂</w>
费 城</w>
调查 官</w>
瑞 拉</w>
球 星</w>
无 异
无异 于</w>
收益 性</w>
孤 单</w>
存 储
委 内
委内 瑞拉</w>
冠 军
充 实</w>
l o</w>
9 7
품 격</w>
출 세</w>
최 우수
양 양</w>
뽐 내</w>
방송 인</w>
면 세
득 실</w>
도 망
다 급</w>
군 정</w>
공 시
경 시</w>
顽 强</w>
长 相</w>
论 者</w>
蜂 蜜</w>
木 板</w>
得 票
康 锦实</w>
埋 怨</w>
圣 经</w>
动力 车</w>
冷 清</w>
保 住</w>
从 头</w>
下 山</w>
3 700</w>
화 사</w>
풍 습</w>
포 시</w>
클 릭</w>
정운 찬</w>
전 월</w>
의 연</w>
외국 기업</w>
심 혈</w>
신세계 백화점</w>
스탠더 드</w>
수 월</w>
세 밀</w>
별 리</w>
방 출</w>
망 설
덕 수</w>
남 동</w>
기념 행사</w>
그루지 야</w>
권위 주의</w>
가 만</w>
高利 贷</w>
门 槛</w>
苍 蝇</w>
源 地</w>
消费 量</w>
母 舰</w>
正当 性</w>
损失 额</w>
手 枪</w>
快 餐</w>
弗 格森</w>
实 名</w>
变 身</w>
十 二
信 贷</w>
f an
1 32</w>
타 락</w>
콜 린</w>
정 가</w>
액 세
법 제</w>
번 갈
번갈 아</w>
발표 회</w>
메달 리스트</w>
만 리
마이크 로</w>
두 기</w>
담 판</w>
녹 이</w>
귀 화</w>
가 공
预 备
行 情</w>
菲 利
缝 隙</w>
维 尔</w>
涨 幅</w>
沈 阳</w>
日 趋</w>
如 山</w>
埋 头</w>
回 升</w>
反 面</w>
s di</w>
bab y</w>
프리 킥</w>
파이낸 셜
파이낸셜 타임스</w>
재정 지출</w>
이 에게</w>
사이 클</w>
번 복</w>
박 진</w>
도 회</w>
금 물</w>
고 하</w>
가 장
锦 赛</w>
脱 落</w>
细 腻</w>
犯罪 者</w>
杰 克</w>
智 囊
智囊 团</w>
战 败</w>
50 29</w>
17 5</w>
14 9</w>
팔 기</w>
테러 리스트</w>
친 인척</w>
최 태
제철 소</w>
정 쟁</w>
전 성기</w>
유 용한</w>
엊 그제</w>
수 엘라</w>
세탁 기</w>
서울 역</w>
산 타</w>
베네 수엘라</w>
随 即</w>
渡 过</w>
实 用
劫 持</w>
p a
ai r</w>
3 800</w>
후 방</w>
혼 게이
혼게이 자이</w>
켜 지</w>
체 포
조정 관</w>
정 제</w>
어머 님</w>
신 기술</w>
숙 박
선언 문</w>
비 례</w>
로 다</w>
니 혼게이자이</w>
노 벨</w>
낯 설</w>
김미 현</w>
공 금</w>
경제 대국</w>
足 协</w>
赠 品</w>
试 射</w>
访 问
西 海岸</w>
男 友</w>
深 切</w>
柳 时
排 出</w>
念 头</w>
年 幼</w>
常 规</w>
使 者</w>
pp m</w>
g ra
화 랑</w>
허벅 지</w>
해 병</w>
포스트 시즌</w>
타 입</w>
집 요</w>
직 격
직격 탄</w>
전쟁 터</w>
이 형
이 겨
이겨 내</w>
원 산</w>
예 금
엔 트리</w>
얼 굴
양도 세</w>
야 권</w>
싱 싱</w>
소수 민족</w>
문화 체육관</w>
만장 일치</w>
레 일</w>
다 채</w>
雷 诺</w>
迷 惑</w>
购买 力</w>
肯 尼
肯尼 迪</w>
红 灯</w>
知 名
知名 度</w>
洋 葱</w>
李 容
拿 下</w>
征 用</w>
圆 形</w>
功 课</w>
农 药</w>
万 能</w>
한 총련</w>
지배 하</w>
중 진</w>
유 령</w>
속 셈</w>
생 태
방 과</w>
반 군</w>
바 가지</w>
뮤 직
명 심</w>
드 나들</w>
더욱 더</w>
고 서는</w>
韩 美日</w>
闪 电</w>
这 天</w>
趋 于</w>
空 袭</w>
泄 洪</w>
没 完</w>
星期 二</w>
新 疆</w>
捕 捞</w>
投 身</w>
扩 建</w>
尼 古
好 消息</w>
大 都会</w>
否 决权</w>
农 户</w>
伯 利亚</w>
人 事
举 办
下 旬</w>
4 7.
타 파</w>
책 무</w>
종 사자</w>
정부 기관</w>
새 만금</w>
반 정부</w>
무 관심</w>
망설 이</w>
독 창</w>
네이 비</w>
나 눔</w>
껴 안</w>
교 란</w>
轮 椅</w>
跌 幅</w>
订 货</w>
老 将</w>
按 钮</w>
并 购</w>
动 手</w>
利润 率</w>
免 税
ic k</w>
패 스트
찾아 보기</w>
전문 직</w>
적 립</w>
일 식</w>
유 전
여 느</w>
압 구
버 지
국무 원</w>
국 부</w>
공 표</w>
脱 掉</w>
无 几</w>
开 盘</w>
和 平
上升 率</w>
19 67</w>
튿 날</w>
타 당성</w>
저 명</w>
장 가</w>
자 꾸
이 튿날</w>
연 탄</w>
어 학</w>
어 오르</w>
앞 당기</w>
생 소</w>
사 우스</w>
비 대</w>
몰 입</w>
멜 로</w>
동 남아시아</w>
도 사</w>
끊임 없</w>
긴 밀히</w>
광 활</w>
관 저</w>
결 정
道 知事</w>
衍 生</w>
萎 靡</w>
自由 滑</w>
美 林</w>
火 爆</w>
每 场</w>
地 主</w>
分 给</w>
克 劳
下 令</w>
一 瓶</w>
ub e</w>
파 라
커 피
주 문서</w>
점 원</w>
선 봉</w>
블 룸
블룸 버그</w>
들 끓</w>
超 大型</w>
西 伯利亚</w>
菊 花</w>
绰 号</w>
着 想</w>
曲 子</w>
政治 性</w>
当事 者</w>
弃 物</w>
山 林</w>
就 达</w>
发 病</w>
半 身</w>
利 好</w>
伸 展</w>
3 40</w>
정보 당국</w>
재 즈</w>
여 단</w>
승 복</w>
사기 꾼</w>
부 디</w>
메 스</w>
말 대</w>
만 연</w>
라 크</w>
딱 하</w>
다케 시</w>
농 약</w>
끄 덕</w>
기차 역</w>
교 토</w>
清 扫</w>
废 弃物</w>
子 孙</w>
动 画片</w>
s r
b oo
5 7.
제 리</w>
점 잖</w>
잭 슨</w>
잔 류</w>
어 촌</w>
어 두
양 육</w>
쇠 퇴</w>
샌 드
비밀 번호</w>
비 통</w>
방문 객</w>
발 사가</w>
미 의</w>
리 지</w>
딜 러</w>
도 요</w>
년 층</w>
국제 대회</w>
구 체화</w>
고구 마</w>
가장 자리</w>
露 天</w>
金永 南</w>
退 学</w>
莲 花</w>
繁 忙</w>
教 工</w>
打 来</w>
太 子</w>
大 体
大体 上</w>
储 蓄
停 课</w>
人 情</w>
东 德</w>
万 里</w>
is m</w>
ai l</w>
15 0
휠 체
휠체 어</w>
하 순</w>
풀 코</w>
입 시
위 층</w>
수 억</w>
범 하</w>
배 럴</w>
방 대</w>
미 끄
마음 씨</w>
도 래</w>
냉 장</w>
군 도</w>
金 明
通 缉</w>
这 间</w>
谈 谈</w>
装 作</w>
蕾 舞</w>
芭 蕾舞</w>
自由 化</w>
灵 感</w>
撤 出</w>
总 之</w>
后 援</w>
w a
o m
ch ina</w>
특 강</w>
태 산</w>
타 개</w>
콜 로
인사 말</w>
이 봉주</w>
유통 업체</w>
여자 아이</w>
시험 장</w>
시 크</w>
시 반</w>
속 성</w>
섭 섭</w>
샤 오
사법 처리</w>
미 분양</w>
대한 축구협회</w>
노 화</w>
국립 대</w>
국 사</w>
구 형</w>
광 명</w>
광 대</w>
과 로</w>
건 장</w>
达 克</w>
资 方</w>
自 觉</w>
腐 烂</w>
终 究</w>
成 败</w>
当事 国</w>
当 代</w>
延 边</w>
商 谈</w>
哨 所</w>
友谊 赛</w>
关 口</w>
个 儿</w>
万 金</w>
or i</w>
후 기</w>
주 거
은행 권</w>
유 관</w>
우 습</w>
스트라이 커</w>
스튜 디오</w>
서초 동</w>
불 타</w>
부지 런히</w>
베 테랑</w>
뮤 직</w>
렁 이</w>
따 름</w>
과 대</w>
검 사장</w>
강 릉</w>
驾 车</w>
领 悟</w>
陶 瓷</w>
绝 食</w>
生 疏</w>
毛 衣</w>
扰 乱</w>
心 事</w>
当 地人</w>
宋承 宪</w>
凉 快</w>
o s</w>
8 6
1 31</w>
최고 위</w>
중 생</w>
재 학생</w>
재 중</w>
운동 선수</w>
영 재</w>
어 조</w>
심 기</w>
신용 장</w>
생산 라인</w>
멜 로
도 우미</w>
공 채</w>
강 점
队 服</w>
量 刑</w>
退 还</w>
董事 会</w>
经 受</w>
激 励</w>
清 朝</w>
政治 犯</w>
报 警</w>
工作 组</w>
家 境</w>
大 麦</w>
z e</w>
필 립</w>
프로 듀
크 루즈</w>
첫 해</w>
인민 일보</w>
신중 히</w>
생 겨나</w>
상 담
부 대변인</w>
보 사</w>
반 란</w>
동 률</w>
단 조</w>
김 두
국세 청장</w>
국가 기관</w>
관련 법</w>
게 나</w>
거 시
顺 着</w>
集 训</w>
贴 上</w>
西 斯</w>
耕 地</w>
穷 人</w>
科 罗
电 算</w>
玄 彬</w>
爽 快</w>
游 击
斯 顿</w>
数 亿</w>
开发 院</w>
帖 子</w>
少 量</w>
宋 旻</w>
存 储</w>
听 从</w>
华 侨</w>
劳 工</w>
习 惯
ne t
me d
2 8%</w>
흘러 나오</w>
하 노
추진 위원회</w>
진 료
잡 초</w>
유 류</w>
오 의</w>
오 보</w>
영 해</w>
아 세</w>
시 베리아</w>
순 회</w>
송승 헌</w>
선 택
분 투</w>
미 주</w>
내 보내</w>
기자 실</w>
개혁 개방</w>
강 간</w>
默默 地</w>
足 道</w>
蒸 汽</w>
草 率</w>
绽 放</w>
焦 虑</w>
江 河</w>
求 职
推 向</w>
悼 念</w>
实验 室</w>
奥 尔
大 巴</w>
大 乱</w>
不 快</w>
不 平</w>
万 岁</w>
3. 1%</w>
헤어 스타일</w>
장갑 차</w>
작 별</w>
예 절</w>
수입 차</w>
비행 장</w>
민 속
마이 너</w>
대 요</w>
노 을</w>
간 파</w>
黎 巴
黎巴 嫩</w>
该 校</w>
绝 不会</w>
破 旧</w>
相 连</w>
病 房</w>
数 次</w>
成 交</w>
好 象</w>
坐 下</w>
呵 呵</w>
周 知</w>
发 货</w>
单 打</w>
关 系
六 十</w>
公 式</w>
ce s</w>
c re
6 5%</w>
5 00m</w>
5 0.
3. 6%</w>
황 급히</w>
화 력</w>
합 참
합참 의장</w>
프 라이
의무 화</w>
용 천</w>
오 퍼</w>
오 디션</w>
신 예</w>
수 생</w>
선거 인단</w>
선 반</w>
샐 러
산업 단지</w>
물 밑</w>
데 뷔
김태 희</w>
공 허</w>
강점 기</w>
青 春
纳 尔
纠 缠</w>
李敏 镐</w>
战略 性</w>
尹 永
变 质</w>
卢 泰
医 师</w>
依 照</w>
会 展</w>
两 侧</w>
不 一定</w>
혈 액
현 행
해방 군</w>
패 밀리</w>
톡톡 히</w>
턱 없</w>
태 운</w>
종 영</w>
전시 관</w>
사고 방식</w>
방 만</w>
무 난</w>
덩 달
덩달 아</w>
노벨 상</w>
교 감</w>
공 영
강 풍</w>
路 易
衣 裳</w>
生 平</w>
爬 山</w>
灾 区</w>
朴 钟
平 原</w>
安 倍
多 功能</w>
参与 者</w>
匹 兹
匹兹 堡</w>
勤 奋</w>
出 题</w>
关键 词</w>
p b</w>
화 이</w>
해 일</w>
항 소심</w>
충 무
첫 번</w>
일 꾼</w>
외 식</w>
에너 지
삼 림</w>
빈 번</w>
근 간</w>
고 마
경제 난</w>
가 칭</w>
阳 台</w>
这 套</w>
过 敏</w>
调查 局</w>
装 扮</w>
袋 子</w>
菲 特</w>
美 德</w>
眉 睫</w>
疲 力
朴 相
悬 挂</w>
性 命</w>
平均 值</w>
巴 菲特</w>
巡 逻</w>
存 入</w>
冷 落</w>
ag e</w>
1. 7</w>
휴대 용</w>
직 시</w>
지 지도</w>
제 왕</w>
야 수</w>
액세 서리</w>
악 산</w>
쏘 나타</w>
신 상품</w>
수 뇌</w>
선 량</w>
서 전</w>
볶 이</w>
는 군요</w>
끝 없</w>
국민 통합</w>
과반 수</w>
간 과</w>
逃 亡</w>
清 爽</w>
放射 性</w>
放 到</w>
招 标</w>
应 急</w>
威 廉
向 往</w>
内 政</w>
人 鱼</w>
事务 局</w>
co mp
포 석</w>
평 준화</w>
침 략
조선 의</w>
저 축
유 용</w>
북 송</w>
미 로</w>
뮤직 비디오</w>
당 혹</w>
背 诵</w>
科罗 拉
相 亲</w>
根 据
根据 地</w>
样 式</w>
李 瑞
李 康
教科 文</w>
插 入</w>
山 大</w>
奠 定</w>
喷 出</w>
向 后</w>
双 打</w>
十 个</w>
光 泽</w>
七 八
d da</w>
험 난</w>
할 거</w>
패 전</w>
특별 검사</w>
천 군</w>
착 하</w>
이라 고도</w>
이 스트</w>
애틀랜 타</w>
소 독</w>
보험 회사</w>
롯데 호텔</w>
대 등</w>
고 약</w>
韩 币</w>
键 盘</w>
金 元</w>
记 述</w>
计 较</w>
篮 板球</w>
穆 迪</w>
气 压</w>
晋 三</w>
安倍 晋三</w>
升 至</w>
凄 凉</w>
仪 器</w>
中间 人</w>
8 7
홍 명보</w>
항 소</w>
탄 핵
코오 롱</w>
친 정</w>
참 전
짓 밟</w>
질 타</w>
질 기</w>
의원 직</w>
원 희</w>
외 우</w>
열 도</w>
어느 덧</w>
신 변</w>
비 둘
비둘 기</w>
불 분명</w>
벤 츠</w>
무 디스</w>
머 스</w>
로 즈</w>
김 상
경제 특구</w>
随 心</w>
采访 团</w>
用 餐</w>
激 化</w>
洗 手
求职 者</w>
崔泰 源</w>
好 意</w>
冲 击
傀 儡</w>
o l</w>
c r</w>
b ro
2 99</w>
한결 같이</w>
타 진</w>
유 승
열 망</w>
스프 링</w>
스탠 리</w>
상 장
빅 토
바 래</w>
만 류</w>
도 화</w>
남 발</w>
기준 시가</w>
간 편</w>
铲 除</w>
立 体</w>
看 点</w>
现 货</w>
案 例</w>
查 尔斯</w>
回 信</w>
后 裔</w>
后 天</w>
s er
1. 4</w>
1 30
포 수</w>
통 째
통째 로</w>
콜 레
출 연료</w>
차 용</w>
증 여</w>
잔 잔</w>
이 모
음 란</w>
암 호</w>
성 탄
성 취
상 습</w>
벙 커</w>
무 차별</w>
무 마</w>
레 바
돌 연</w>
뉴 스위크</w>
관 제</w>
골 문</w>
面 值</w>
阅 览</w>
议 事</w>
苦 战</w>
疫 情</w>
特 惠</w>
洗手 间</w>
杂 草</w>
未 曾</w>
循 环
名 副
名副 其实</w>
厚 的</w>
厚 厚的</w>
克 利</w>
亲 生</w>
不 决</w>
上 届</w>
一 旁</w>
won der</w>
p e</w>
하 강</w>
포 도주</w>
트 랜
콜로 라도</w>
잠 기</w>
일 왕</w>
오 피
영 결
영결 식</w>
수 뇌
상대 국</w>
상 류</w>
만 세</w>
마 틴</w>
대 서양</w>
골 고루</w>
고 프</w>
马 克
香 水</w>
重 心</w>
里 根</w>
道 琼斯</w>
追 随</w>
跟 踪</w>
背 负</w>
破 碎</w>
矫 正</w>
用 钱</w>
渎 职</w>
洗 钱</w>
标 本</w>
恐 吓</w>
强 盛</w>
强 占</w>
寺 院</w>
四 天</w>
只 用</w>
参谋 长</w>
升 高</w>
凤 凰</w>
决 不会</w>
依赖 度</w>
k b</w>
한국 노총</w>
학 급</w>
주 적</w>
조 림</w>
정책 실장</w>
정상 급</w>
이 송</w>
여 보
사 명</w>
북 구</w>
득 이</w>
드라 인</w>
동 감</w>
도 끼</w>
네 트</w>
난 무</w>
금융 계</w>
건 전성</w>
骚 扰</w>
调 料</w>
评 分</w>
蘑 菇</w>
肿 瘤</w>
特 意</w>
时 效</w>
成 品</w>
墨 水</w>
北 区</w>
产 妇</w>
m it</w>
ke do</w>
2 7%</w>
킬로 그램</w>
출 소</w>
진 찰</w>
조 개</w>
정 조</w>
정 산</w>
절 친</w>
운동 권</w>
열 병</w>
삽 입</w>
산 성</w>
굽 히</w>
계좌 추적</w>
马 车</w>
郁 陵</w>
赞 美</w>
表 态</w>
粗 暴</w>
竖 起</w>
票 价</w>
相 见</w>
火 柴</w>
毒 性</w>
极 点</w>
杀 手</w>
恶 心</w>
射 击
喇 叭</w>
名 额</w>
刹 车</w>
k er</w>
3 200</w>
표 창</w>
투 지</w>
초 소</w>
지방 정부</w>
제 소</w>
재 래식</w>
자치 구</w>
입 김</w>
아버 님</w>
소 중히</w>
불 사</w>
보 육
밤 하늘</w>
문화 부</w>
묵묵 히</w>
무 더위</w>
뜩 이나</w>
공 들</w>
가 뜩이나</w>
预 言</w>
金 宇</w>
迫 在</w>
衣 柜</w>
肉 类</w>
离 职</w>
电 灯</w>
欢 呼声</w>
强 劲</w>
康 夫</w>
学术 界</w>
外 观</w>
变 相</w>
历 经</w>
冷 水</w>
亮 点</w>
14 2</w>
14 1</w>
펜 스</w>
운 송
예 리</w>
옆 집</w>
엔지 니어</w>
안정 성</w>
실 내
신 인
수 락</w>
소유 자</w>
보험 사</w>
배 수</w>
물 갈이</w>
맞 히</w>
떡 볶이</w>
내 뿜</w>
국민 당</w>
국 교</w>
계 통</w>
高 贵</w>
自 传</w>
流 亡</w>
没 错</w>
杀人 犯</w>
怨 恨</w>
微不 足道</w>
得 上</w>
万 幸</w>
f in
5 5.
호 우</w>
정몽 구</w>
저 금리</w>
인 문
연구 센터</w>
연 임</w>
에 라</w>
안 치</w>
비 효율</w>
미 스
맞 먹</w>
리 즘</w>
도 마</w>
기 생</w>
굶 주
개발 원</w>
轻 快</w>
趣 味</w>
豫 不决</w>
犹 豫不决</w>
流 淌</w>
日 韩</w>
文 学
挣 钱</w>
房 租</w>
大 为</w>
剽 窃</w>
前所未 有</w>
克 逊</w>
人 行
b y
혼 잡</w>
하 오</w>
키 워드</w>
치료 제</w>
운동 본부</w>
숙 련</w>
사 옥</w>
비 약</w>
미국 대사</w>
굴 뚝</w>
공시 지가</w>
경제 계</w>
강 금
运 载</w>
过 年</w>
贵 重</w>
紧 身</w>
烟 囱</w>
当 选者</w>
多 方面</w>
半 径</w>
刻 画</w>
不 相
6 2
17 7</w>
헤 엄</w>
필 라
청 동</w>
자유 주의</w>
유망 주</w>
슈퍼 마켓</w>
수 산물</w>
세 입</w>
성탄 절</w>
서울대 병원</w>
생명 공학</w>
다 녀
韩 食</w>
降 雨</w>
钢 笔</w>
虫 子</w>
维 吾
维吾 尔</w>
纳 塔</w>
红 衣</w>
深 表</w>
晚 年</w>
搭 档</w>
坡 州市</w>
反 射</w>
初 步</w>
关 照</w>
4 20</w>
3 400</w>
평 이</w>
주 요한</w>
재 심</w>
연 금
업 주</w>
약 정</w>
심 층</w>
심 장
수십 만</w>
세 르
샤오 핑</w>
비 밀리</w>
부 처
보 직</w>
명 중</w>
명 실
마이 니
또 래</w>
둥 글</w>
덩 샤오핑</w>
饭 桌</w>
选 中</w>
苛 刻</w>
美 味</w>
索 纳塔</w>
海 里</w>
无 奈</w>
心 愿</w>
客 房</w>
天 国</w>
参谋 部</w>
决 定
假 日</w>
会 计
不 休</w>
ic c</w>
bus h</w>
19 55</w>
14 7</w>
파 생
트 집</w>
토 종</w>
클리 블
클리블 랜드</w>
치 킨</w>
치 레</w>
착 취</w>
차 명
절 충</w>
입 안</w>
예 매</w>
여 들</w>
어 떡
어떡 하</w>
소설 가</w>
립 스틱</w>
동아 리</w>
날 조</w>
강 가</w>
静静 地</w>
苏 格兰</w>
自 在</w>
独 占</w>
改 进</w>
收 视</w>
抽 出</w>
得 意</w>
巴西 队</w>
寒 流</w>
塞 尔</w>
卡 拉</w>
分 钱</w>
出 走</w>
儿 女</w>
一 两</w>
후 진</w>
호 재</w>
축 사</w>
최우수 선수</w>
진 구</w>
중고 차</w>
자꾸 만</w>
입 항</w>
아 첨</w>
아 차</w>
산 림</w>
빠 뜨리</w>
반 한</w>
먹 구름</w>
달 려들</w>
꿰 뚫</w>
금융 거래</w>
근 면</w>
경영 학</w>
경 합</w>
겸 비</w>
강경 파</w>
黑 白</w>
诗 歌</w>
胡 萝卜</w>
绳 索</w>
权 力
搅 拌</w>
手 球</w>
所 周知</w>
多 重</w>
原 价</w>
南 大门</w>
出 路</w>
公 诉</w>
众 所周知</w>
p i
im d</w>
후 세</w>
해 시</w>
차 갑</w>
직 급</w>
종 양</w>
자 태</w>
유 대인</w>
우 물
사 다리</w>
비 무장
비무장 지대</w>
불법 행위</w>
부산 시</w>
면 목</w>
두 통</w>
노래 방</w>
고 이</w>
고 로</w>
陆 路</w>
迂 回</w>
着 火</w>
法 国队</w>
总 量</w>
总 书记</w>
定 位</w>
守 卫</w>
大 笔</w>
图 画</w>
养 成</w>
全 年</w>
下 方</w>
15 4</w>
1 29</w>
0. 0
형 국</w>
토 리
탓 하</w>
지원 자</w>
지 치</w>
전 매</w>
잔 해</w>
원 론</w>
심 경</w>
성형 수술</w>
불 안정</w>
두 루
광 물</w>
관광 공사</w>
龙 川</w>
长 长的</w>
行 踪</w>
简 约</w>
独 立性</w>
物 证</w>
烟 雾</w>
显 眼</w>
斯 塔</w>
所 在
循环 赛</w>
实 效性</w>
大 化</w>
夜 空</w>
剧 团</w>
丢 脸</w>
上 天</w>
16 7</w>
14 4</w>
태 안</w>
친 선</w>
추 상</w>
정치 범</w>
장 시간</w>
외교 정책</w>
스티 브</w>
레바 논</w>
대 추</w>
김 대
결 핍</w>
高 官</w>
骑 马</w>
边 儿</w>
自 救</w>
甲 板</w>
爱 宝</w>
波 动</w>
杰 克逊</w>
收 成</w>
揭 幕
拉 大</w>
平 衡
ue fa</w>
h d</w>
20 4</w>
0. 5</w>
폭 동</w>
철 도청</w>
지도 층</w>
잔 혹</w>
의 정</w>
어야 겠</w>
스 르</w>
수뇌 부</w>
수 질</w>
성 군</w>
샌 디
샌디 에
삼 각</w>
불 합리</w>
불 거지</w>
부 지역</w>
무 자</w>
모 종</w>
명예 교수</w>
뛰 기</w>
돌 진</w>
까 먹</w>
거부 감</w>
除 外</w>
金 恩
玻璃 窗</w>
淇 淋</w>
标 明</w>
必 定</w>
寂 静</w>
吸 取</w>
吉 他</w>
另 有</w>
发 源地</w>
出 任</w>
不 胜</w>
v is
st or
f bi</w>
2 2%</w>
틀 어</w>
통 틀어</w>
탄 식</w>
정 유</w>
정 배</w>
잠 실
자 물
음 향</w>
야 합</w>
안전 성</w>
신 탁</w>
비 화</w>
바 리</w>
바 다의</w>
몰 아치</w>
레이 션</w>
두 껍</w>
대 비
농 구
강 만수</w>
金南 一</w>
访 者</w>
胜 诉</w>
江 水</w>
汉 堡</w>
新 生
揭幕 战</w>
惭 愧</w>
总 收入</w>
密 度</w>
多 米
喜 好</w>
哈尔 滨</w>
厕 所</w>
免税 店</w>
免 疫</w>
假 想</w>
京 义
京义 线</w>
3 3%</w>
하 네
추 후</w>
최 병
증가 세</w>
임진 강</w>
인테 리어</w>
인민 대표</w>
유 흥
위 급</w>
오피 스텔</w>
오 스</w>
역 임</w>
실무 자</w>
스 텔
수 순</w>
빅 3</w>
병 과</w>
법 학</w>
무 가</w>
르 노</w>
등 산
득 표</w>
기관 지</w>
그래 픽</w>
경제 학자</w>
非 凡</w>
轻 率</w>
贩 卖</w>
自 古</w>
精 灵</w>
禁 烟</w>
睁 开</w>
热 水</w>
瀑 布</w>
棍 子</w>
恐 龙</w>
左 翼</w>
小 溪</w>
实 惠</w>
基本 法</w>
可 行</w>
化 石</w>
冰 淇淋</w>
主 观</w>
m ic
jo h
b ar
b ank</w>
4 1.
3 300</w>
할인 점</w>
포 대</w>
직 무
작 곡
인 내심</w>
영 접</w>
시 어머니</w>
비 침</w>
믹 스</w>
땅 콩</w>
긴 축</w>
그 만이</w>
계약 금</w>
경 직</w>
견 인</w>
黄 某</w>
高 地</w>
音乐 家</w>
零 售
陪 审
跳 动</w>
赛 后</w>
考 场</w>
维 和</w>
盼 望</w>
盖 子</w>
疲 软</w>
留 言
朴 英
曼 哈
晴 天</w>
批 量</w>
导 火
医疗 费</w>
加 斯</w>
剧 情</w>
创 伤</w>
债 务
俗 话</w>
侵 略
二手 车</w>
下 月初</w>
下 决心</w>
一 任</w>
w ay</w>
2 3%</w>
추 대</w>
천 년</w>
참전 용사</w>
종합 지수</w>
전 우</w>
장악 하</w>
살인 범</w>
사 키</w>
부산 항</w>
방 사</w>
바 이유</w>
바 둑
두 바이유</w>
당 나귀</w>
김남 일</w>
가톨 릭</w>
颠 倒</w>
顺 便</w>
赛 车</w>
藏 青色</w>
缜 密</w>
生产 性</w>
演 戏</w>
波 音</w>
时间 段</w>
播 音
所在 地</w>
在 籍</w>
使 劲</w>
不 穷</w>
y g</w>
r fa</w>
16 8</w>
흉 악</w>
한 옥</w>
하 원의원</w>
프로 세
팩 스</w>
전 임자</w>
자물 쇠</w>
의 아</w>
으 리
유 임</w>
우 루
영등 포</w>
신 세대</w>
세계 시장</w>
살 림
사 나이</w>
목 적지</w>
모 여들</w>
막 연</w>
노동 운동</w>
내 도</w>
공통 점</w>
马克 思</w>
青 龙</w>
长 篇</w>
锋 利</w>
金 相</w>
遗 书</w>
通 宵</w>
选 拔
迷 人</w>
赛 中</w>
美 化</w>
第 六</w>
空 荡荡</w>
核 扩散</w>
曼哈 顿</w>
推 举</w>
挥 手</w>
想 出</w>
平 方</w>
单 调</w>
准 时</w>
信用 证</w>
kt &g</w>
허리 띠</w>
프레 스
통 관</w>
천 리</w>
적 성</w>
쟁 취</w>
자 형</w>
일 률</w>
이영 애</w>
압 록
안 산</w>
씀 이</w>
씀 씀이</w>
스 물</w>
샌디에 이고</w>
부 응</w>
김 은
구 타</w>
공 용</w>
거 름</w>
가 이
难 忘</w>
运 费</w>
获 得
获得 者</w>
背 面</w>
求 婚</w>
普 尔</w>
攀 升</w>
所 欲</w>
恳 切</w>
归 来</w>
山 里</w>
小 王子</w>
姜 东
塑 造</w>
印 刷
债 权
wo ori</w>
8 2
10 12</w>
폭력 시위</w>
포 옹</w>
패 드</w>
죽 여</w>
재 일</w>
이 력</w>
영 길</w>
양 손</w>
샌드 위치</w>
레 저</w>
꽁 꽁</w>
규 격</w>
국제 법</w>
국제 관계</w>
경 부
解 读</w>
致 意</w>
浪 潮</w>
指 令</w>
意 味</w>
各 方</w>
十 国</w>
5 2.
황 후</w>
해 안
하루 아침</w>
핏 하면</w>
틈 새</w>
저 해</w>
어떻 게
어떻게 든</w>
시 동</w>
비 뚤</w>
맞 벌이</w>
뒤 편</w>
도 금</w>
노 무</w>
내 역</w>
공 룡</w>
걸 핏하면</w>
갑 판</w>
绝 大</w>
矿 物</w>
皮 肤
深 层</w>
档 案</w>
栏 目</w>
接 吻</w>
捕 鱼</w>
把 门</w>
安 抚</w>
天 真</w>
多 伦
可 口</w>
加 拉
中 亚</w>
个 体
个 人
pla y</w>
포 화</w>
편 히</w>
카드 사</w>
출 입국</w>
청 사진</w>
인 품</w>
음 료
운동 화</w>
영 희</w>
세 라</w>
성형 외과</w>
보 스</w>
백 제</w>
류 장</w>
루 가</w>
대 청</w>
길 들</w>
기 정
그 린
그 네</w>
권 오
고 모</w>
鱿 鱼</w>
魔 法</w>
难 看</w>
这 不</w>
融 资</w>
检 讨</w>
撤 军</w>
废 话</w>
多伦 多</w>
出 院</w>
个体 户</w>
g ps</w>
3. 8%</w>
19 3</w>
10 km</w>
00 t</w>
화물 선</w>
하 와</w>
타 깃</w>
직 원
조성 한</w>
작 문</w>
워 크
실 탄</w>
시 차</w>
생 김
사회 간접
사법 부</w>
빙 빙</w>
미국 여자</w>
라 라</w>
떠 들썩
떠들썩 하</w>
네 시</w>
그 지
규제 완화</w>
공 과</w>
고 열</w>
거 머
面 包
金 景
田 地</w>
桥 洞</w>
来 访</w>
数 据
播音 员</w>
拿 来</w>
担 负</w>
实 况</w>
在 心</w>
原 作</w>
再 起</w>
侄 子</w>
争 斗</w>
le e</w>
ar e</w>
10 m</w>
협 의
헤 이</w>
해 튼</w>
프로듀 서</w>
테 크
택 시
치 장</w>
찬 바람</w>
중 화
전 가</w>
잡 담</w>
외 적</w>
오 려</w>
열 의</w>
시 도
선 조</w>
부 럽</w>
뭔 지</w>
맨 해튼</w>
노 라</w>
꼭 지</w>
교 가</w>
공 안
결승 골</w>
개인 전</w>
馒 头</w>
老 练</w>
现代 人</w>
消费 税</w>
涂 抹</w>
海 浪</w>
户 外</w>
另 行</w>
卢泰 愚</w>
分 出</w>
侵 入</w>
交 响</w>
两 用</w>
一 贯性</w>
nat ional</w>
7 3
20 5</w>
행정 관</w>
해운 대</w>
품 위</w>
판 도</w>
터 링</w>
직접 투자</w>
중 하</w>
어 링</w>
무기 력</w>
뒤 흔들</w>
내 국인</w>
김 혜
구 부</w>
고 질</w>
결 선</w>
鲸 鱼</w>
陌 生人</w>
老 公</w>
热 气</w>
满 贯</w>
活 用</w>
指 望</w>
性 子</w>
壁 画</w>
卖 店</w>
净 化</w>
公 用</w>
m ade</w>
c bs</w>
14 6</w>
활 주로</w>
핸 드</w>
핵 물질</w>
원 천
역 전승</w>
성 패</w>
석 권</w>
서 스</w>
붙 들</w>
반 품</w>
문 부</w>
도망 가</w>
닷 새</w>
교 향
교 내</w>
连 日来</w>
试 题</w>
观 者</w>
行 政部</w>
血 统</w>
瓦 解</w>
特 例</w>
水 流</w>
梅 雨</w>
无 一</w>
成 群</w>
征 求</w>
幽 灵</w>
奈 何</w>
场 内</w>
器 材</w>
吝 啬</w>
千 亿</w>
刺 绣</w>
击 者</w>
n er</w>
1 km</w>
허 구</w>
토 머스</w>
태 스크</w>
최 우수</w>
적 격</w>
이 민호</w>
어 서야</w>
신 보</w>
부 국</w>
동 창
기업 은행</w>
默 契</w>
脚 踝</w>
经济 圈</w>
经 由</w>
盒 子</w>
献 出</w>
宪 政</w>
存储 器</w>
女 主角</w>
多 媒体</w>
伤 痕</w>
9 6
학 년생</w>
필라 델
필라델 피아</w>
킬 러</w>
척 도</w>
직 물</w>
이어 받</w>
울릉 도</w>
왠 지</w>
상 권</w>
비 열</w>
병 장</w>
별 히</w>
밑 돌</w>
문 법</w>
마음 먹</w>
렉 스</w>
득 표
다 가도</w>
놀 림</w>
군 복</w>
공 론</w>
고위 관계자</w>
거시 경제</w>
각 별히</w>
金 容
逊 色</w>
肥 皂</w>
纽 带</w>
火 势</w>
混 淆</w>
榴 弹</w>
标 识</w>
收 纳</w>
打 扰</w>
幼 稚</w>
布 拉
四 国</w>
受 害人</w>
伸 手</w>
书 法</w>
we f</w>
홍 준표</w>
헤 딩</w>
허 풍</w>
최 첨단</w>
총 동원</w>
장관 회의</w>
우 두
신 정</w>
생 략</w>
빈 틈</w>
번 개</w>
발 등</w>
니 즘</w>
낙 찰</w>
깊 숙이</w>
광 택</w>
관련 국</w>
공 연장</w>
골 치</w>
고 등학생</w>
강 진</w>
가 래</w>
鲁 尼</w>
邻 近</w>
远 方</w>
辜 负</w>
私 下</w>
死亡 率</w>
有 权</w>
干 预</w>
大 满贯</w>
大 喊</w>
品 格</w>
击 退</w>
中 小型</w>
ye ah</w>
m er
f di</w>
춘 천</w>
축 이</w>
진 적</w>
정보 화</w>
점 진적</w>
작곡 가</w>
우승 자</w>
외 고</w>
어 티</w>
애 완
아 태</w>
성 가</w>
생 각
블 랙
바 싹</w>
델 타</w>
대 꾸</w>
국제 마라톤</w>
가 중
가 려
金 汉
郑大 世</w>
试 试</w>
联 手</w>
岳 山</w>
契 约</w>
听 话</w>
同 伴</w>
千 米</w>
任 用</w>
世 锦赛</w>
不 准</w>
p or
18 5</w>
14 3</w>
힘 겹</w>
현 장
하 류</w>
하 드</w>
태 연</w>
추 모
정 파</w>
입 히</w>
원 심</w>
어 휘</w>
생김 새</w>
삼성 물산</w>
비 바람</w>
머 금</w>
떳 떳</w>
도 랑</w>
노 스</w>
내 사</w>
鸭 绿
鸭绿 江</w>
随 处</w>
部 副</w>
脸 颊</w>
约 旦</w>
理 应</w>
滋 味</w>
浮 动</w>
头 绪</w>
君 子</w>
傍 晚</w>
停 下来</w>
信任 度</w>
何 处</w>
价格 比</w>
不 许</w>
不 看</w>
19 54</w>
통일 외교</w>
토 의</w>
친 근</w>
천 정배</w>
질 구
은 정</w>
웨 딩</w>
원 본</w>
악 단</w>
쉽 게</w>
손 쉽게</w>
상 류
산 모</w>
부 정부
만리 장성</w>
동 문</w>
대 주주</w>
광 양</w>
경제 인</w>
검 장</w>
가 처분</w>
骨 折</w>
诅 咒</w>
见 识</w>
英 尺</w>
监 控</w>
百 亿</w>
海 道</w>
春 风</w>
改 名</w>
投 篮</w>
托 付</w>
恶 魔</w>
引 力</w>
开 出</w>
女 神</w>
大 方</w>
光 滑</w>
亚 历
中 排</w>
oo l</w>
5 6.
16 2</w>
한 심</w>
패 자</w>
크 스
친 화</w>
친 밀</w>
추 경</w>
진 척</w>
이해 관</w>
의 약</w>
요 직</w>
알리 고</w>
상 우</w>
미 션</w>
멍 하니</w>
매 사</w>
기 압</w>
감 금</w>
间 隔</w>
逃 脱</w>
牧 场</w>
每 股</w>
朴 信
摆 在</w>
排 成</w>
必 将</w>
分 娩</w>
出 头</w>
冷 酷</w>
人 世</w>
下 课</w>
호 주머니</w>
현 수</w>
플 랜
측 량</w>
청 계</w>
철 의</w>
중앙 아시아</w>
정통 부</w>
정 운</w>
아 이고</w>
사회간접 자본</w>
반 항</w>
반 세기</w>
박 성
금 형</w>
그 쪽</w>
구 석
교 원
降 落</w>
西 南</w>
褶 皱</w>
若 想</w>
能 用</w>
编 写</w>
约 束</w>
横 行</w>
携 式</w>
弗 吉
异 国</w>
射击 场</w>
便 携式</w>
产业 化</w>
亚历 山大</w>
上 层</w>
一 朵</w>
un g</w>
s ds</w>
해 부</w>
치 사</w>
증 자</w>
조선 소</w>
음료 수</w>
신 혼</w>
선 제
면세 점</w>
돌 파구</w>
대 령</w>
配 置</w>
诉 讼
规 格</w>
补 习</w>
苏 志
暗 淡</w>
奥斯 卡</w>
名 叫</w>
18 2</w>
허 용한</w>
진상 조사</w>
장례 식</w>
일 어서</w>
인 명
이 규
웨 스트</w>
요 점</w>
어 김없이</w>
알 레
심 각성</w>
수 백
사립 대</w>
분 화</w>
부정부 패</w>
대 권</w>
김형 오</w>
구 매
隶 属</w>
英 赛</w>
芝 麻</w>
精 英赛</w>
租 税</w>
点 球</w>
淫 秽</w>
楼 房</w>
摇 摇</w>
大 炮</w>
大 夫</w>
受 挫</w>
印 花</w>
农 夫</w>
写 字</w>
公 告栏</w>
东 区</w>
헤 지</w>
항 아리</w>
충 만</w>
장 작</w>
자치 단체장</w>
이 대</w>
음 력</w>
외 관</w>
여 대생</w>
신 축
성장 세</w>
산 수</w>
벽 화</w>
문 수</w>
몰 이</w>
때 마침</w>
드래 곤</w>
대 승</w>
단 력</w>
곤두박 질</w>
곤두 세우</w>
개 항</w>
露 宿</w>
话 费</w>
裁 决</w>
蜜 蜂</w>
糕 点</w>
手 势</w>
尽 全力</w>
小 熊</w>
候选 地</w>
亲 笔</w>
上 位</w>
一 局</w>
k h
19 46</w>
폭 포</w>
투자 액</w>
치 러지</w>
취재 팀</w>
총 연합회</w>
천 구</w>
중 거리</w>
제작 비</w>
자 녀
유 람</w>
웃음 소리</w>
식 물
술 잔</w>
수 류
수류 탄</w>
바깥 쪽</w>
물 증</w>
물 색</w>
동 대문</w>
냉 동</w>
나 누
기 야</w>
급 기야</w>
국제 영화제</w>
경 청</w>
경 감</w>
路 面</w>
起 码</w>
要 职</w>
获 释</w>
登 录</w>
熙 正</w>
潮 湿</w>
潜 入</w>
救 出</w>
很 早</w>
学 士</w>
坚 信</w>
名 胜</w>
合 资</w>
兄 妹</w>
r i</w>
as s</w>
4 200</w>
20 3</w>
현 지인</w>
피 겨
피겨 스케이팅</w>
평 안</w>
채 운</w>
참 담</w>
전문 대</w>
아 더</w>
선제 공격</w>
부 식</w>
박 은</w>
궁 전</w>
骚 动</w>
面 板</w>
零 配件</w>
系列 赛</w>
粉 红色</w>
熟 知</w>
果 汁</w>
数据 库</w>
年 期</w>
师 范</w>
凝 视</w>
余 力</w>
三 位</w>
h tt
c f
b t</w>
8 50</w>
형 평
한일 관계</w>
표 시
폐 허</w>
토지 공사</w>
타이 밍</w>
철 강
참 신</w>
주 재
주 유</w>
주 스</w>
저 럭</w>
일 조</w>
원 군</w>
여 지
에 드</w>
신 앙</w>
수 구</w>
소 영</w>
서 두</w>
범 국민</w>
무 너
럭 저럭</w>
도덕 성</w>
건 평</w>
融 入</w>
文 中</w>
摆 放</w>
投 放</w>
当 做</w>
外 来</w>
包 饭</w>
刊 物</w>
w i
n bc</w>
19 47</w>
1 39</w>
핵 보유</w>
최고 가</w>
처 사</w>
지 먼트</w>
증권 거래소</w>
종 용</w>
은 주</w>
압록 강</w>
상임 위원장</w>
비 트</w>
비 스
메 신저</w>
매니 지먼트</w>
말 없이</w>
김정 남</w>
김 포
김 민
근 래</w>
계획 안</w>
里 兰
轮 到</w>
贫 困
绝 妙</w>
研 制</w>
暂 停</w>
时 分</w>
指挥 部</w>
执 导</w>
库 尔德</w>
不 算</w>
0. 1%</w>
후 생</w>
형평 성</w>
협 상
파 주시</w>
파 급</w>
우 발</w>
안 하</w>
아이 언</w>
산 산
빈 틈
부 득이</w>
보유 자</w>
목 포</w>
목 장</w>
면 화</w>
마 주
그 르</w>
구 식</w>
고 분</w>
这 会</w>
转 化</w>
糖 果</w>
积 雪</w>
段 落</w>
无 限期</w>
抑 郁症</w>
扭 曲</w>
所 致</w>
好 球</w>
吵 闹</w>
倡 议</w>
m g</w>
l u
6. 15</w>
19 10</w>
호 박</w>
필 품</w>
의료 진</w>
여름 방학</w>
숙 고</w>
서 귀
생 필품</w>
보건 기구</w>
방 패</w>
매 혹</w>
독 주</w>
데 기</w>
당 직자</w>
군 비</w>
건 재</w>
거머 쥐</w>
감 돌</w>
震 动</w>
障 碍
连 锁
赵 成
败 给</w>
诱 发</w>
记忆 力</w>
荣 获</w>
肤 色</w>
牙 队</w>
燕 岐</w>
本 钱</w>
断 言</w>
扳 平</w>
层 出</w>
商 务部</w>
假 如</w>
供 求</w>
二 战</w>
丹 尼尔</w>
不 易</w>
플랜 트</w>
평 의</w>
트 롤</w>
최 성
자 성</w>
애국 심</w>
신 체
시 구</w>
박희 태</w>
명 문대</w>
메릴 린치</w>
된 장</w>
동 등</w>
냉 면</w>
꾸 리</w>
고 삐</w>
郊 外</w>
选 手
选手 村</w>
身 着</w>
茫 然</w>
编 织</w>
粗 鲁</w>
竞 技
空 前</w>
理 论
海 滩</w>
毁 灭</w>
时 会</w>
手 下</w>
名 教授</w>
口 才</w>
卖 淫</w>
几 种</w>
内 在</w>
후 지</w>
확 실시</w>
캘리포 니
전문 성</w>
전 모</w>
응 징</w>
음 원</w>
연장 전</w>
에 릭</w>
슬 쩍</w>
소 변</w>
세대 교체</w>
서 독</w>
산 속</w>
비 운</w>
방 수</w>
멸 망</w>
마 흔</w>
마 중</w>
국가 연합</w>
격 전</w>
개방 형</w>
骑 警</w>
转 折
网 吧</w>
统 治
科 特</w>
核 弹头</w>
李 会长</w>
无 耻</w>
摇 摆</w>
挥 动</w>
心 血</w>
字 样</w>
嫌疑 犯</w>
如 愿</w>
失 利</w>
大 众
助 手</w>
人工 费</w>
买 来</w>
下 水道</w>
一 阵
하 마스</w>
폐 렴</w>
큰 길</w>
찜 질</w>
조 인</w>
전자 제품</w>
적 자
자 행</w>
유 례</w>
연 명</w>
여 주인공</w>
스트 라이</w>
속 임수</w>
불법 체류</w>
불 평등</w>
본 문</w>
물가 상승률</w>
무 의미</w>
명실 상부</w>
놀 이
기 내</w>
过 大</w>
负 有</w>
画 画</w>
濒 临</w>
潜 水</w>
春 秋</w>
推 广</w>
惠 珍</w>
复 仇</w>
听 懂</w>
听 听</w>
受 苦</w>
丢 掉</w>
p an
m at
3. 3%</w>
3 4%</w>
프레스 센터</w>
테러 범</w>
칠 하</w>
치 부</w>
쩌 민</w>
징 벌</w>
저 버리</w>
장 쩌민</w>
유 공자</w>
어 부</w>
암 석</w>
순 진</w>
사 과
반 칙</w>
냉 담</w>
김 호
공정 성</w>
고 추장</w>
계 인</w>
거 닐</w>
问 好</w>
转折 点</w>
警 戒
肉 体</w>
留 有</w>
申 正
布 尔</w>
完 毕</w>
堕 落</w>
嘴 上</w>
动 脉</w>
出 入口</w>
全 场</w>
候 鸟</w>
信 访</w>
产 部</w>
ps v</w>
big bang</w>
효 자</w>
주 공</w>
장 난
이 근
원 주</w>
역 력</w>
양도 소득세</w>
수출 기업</w>
수 정
봄 날</w>
병 풍</w>
무너 뜨리</w>
멀 티
립 대</w>
들 려주</w>
두 드러지</w>
난 징</w>
군 부대</w>
避 暑</w>
轴 心</w>
资 质</w>
绯 闻</w>
果 岭</w>
李 智
机 感</w>
得票 率</w>
山 洞</w>
地 雷</w>
喜 马拉
危 机感</w>
印 机</w>
十 二</w>
元 化</w>
代 码</w>
书 架</w>
主 犯</w>
一 大
l d
k no
편 파</w>
트 리
참모 총장</w>
용 인
양 지</w>
양 각색</w>
악 당</w>
시 설
시 리</w>
쇼트 프로그램</w>
미 드
몽 둥이</w>
렁 거리</w>
대우 조선</w>
기 점</w>
관 통</w>
관 습</w>
고 공</w>
경 쾌</w>
건 배</w>
각 양각색</w>
가 령</w>
长 征</w>
重 现</w>
通信 网</w>
赶 走</w>
警戒 线</w>
荷 尔
荷尔 蒙</w>
置 信</w>
短 裤</w>
浴 室</w>
李 云
未 经</w>
景 观</w>
大 火</w>
团 聚</w>
剥 削</w>
信 度</w>
便利 店</w>
企 划
亚洲 区</w>
po l
i an</w>
8 5%</w>
후 예</w>
호 히</w>
하 찮</w>
탐 욕</w>
잘 것
잘것 없</w>
잊 어버리</w>
임 상
이 날</w>
유 달리</w>
영 철</w>
역 풍</w>
어 쩌</w>
쌍용 자동차</w>
식 료
수사 기관</w>
바 꿈</w>
로 이
단 호히</w>
노 장</w>
극 한</w>
권 역</w>
고위 층</w>
飞 速</w>
隆 重</w>
连锁 店</w>
达 赖</w>
裂 痕</w>
航 海</w>
献 给</w>
特 殊
水 产部</w>
最 棒</w>
旺 季</w>
掉 进</w>
局 部</w>
刻 苦</w>
仁川 市</w>
举 手</w>
3. 9%</w>
훈련 장</w>
화 질</w>
한 마음</w>
직 장
제 과</w>
전 람회</w>
전 대</w>
유 한</w>
예 언</w>
수수 께
수수께 끼</w>
사 격
밥 상</w>
문 인</w>
마누 라</w>
끊 어지</w>
까 지나</w>
군 림</w>
관 인</w>
거 만</w>
金桂 冠</w>
蹄 疫</w>
路 程</w>
许 可
荣 幸</w>
良 淑</w>
病 例</w>
畅 销
王 国</w>
牢 固</w>
拉 拉</w>
口 蹄疫</w>
公 审</w>
事 事</w>
in t</w>
h er
ap p
한 여름</w>
클리 닉</w>
청 문</w>
첨 예</w>
첨 가</w>
질 질</w>
주가 조작</w>
인 신
이익 률</w>
오 도</w>
여자 오픈</w>
엄 지
세종 대왕</w>
서울 지역</w>
산 뜻</w>
사업 비</w>
비 닐</w>
부 위원</w>
부 녀
베이 비</w>
범 람</w>
민 첩</w>
교 직원</w>
교 직원
광 둥성</w>
개 그
苏志 燮</w>
统 性</w>
礼 遇</w>
数十 亿</w>
国 式</w>
可 持续</w>
发 行
卑 鄙</w>
光 顾</w>
保守 派</w>
o .
d u
19 59</w>
17 2</w>
헌 혈</w>
한국 시각</w>
한 반도
편의 점</w>
직 종</w>
지 뢰</w>
잃 어버리</w>
인도 주의</w>
용인 시</w>
영 정</w>
실 컷</w>
스 며
스며 들</w>
소 품</w>
삼 국
빨 갛</w>
불 면</w>
분 발</w>
말 문</w>
뛰어 다니</w>
기 러기</w>
공동 대표</w>
경제 상황</w>
건 국대</w>
雅 虎</w>
那 年</w>
追 问</w>
落 入</w>
腹 部</w>
羞 耻</w>
罢 了</w>
杭 州</w>
服 饰</w>
昼 夜</w>
手 榴弹</w>
字 体</w>
团 伙</w>
别 扭</w>
位 子</w>
9 4
19 1</w>
휴 게
환 원</w>
핵 무장</w>
해 인</w>
평 정</w>
테 일러</w>
최고 기록</w>
척 결</w>
전 업</w>
엉 터리</w>
서 해상</w>
사 저</w>
분 도</w>
배 열</w>
목 시계</w>
레이 터</w>
떨 치</w>
대 형
깜 빡</w>
阿 里</w>
通 关</w>
花 瓶</w>
禁 区</w>
看 成</w>
留 任</w>
牙 科</w>
汹 涌</w>
景 点</w>
无 用</w>
手提 包</w>
喧 闹</w>
허 위
한테 서</w>
퍼 레이드</w>
파 울</w>
처 신</w>
차명 계좌</w>
지구 온난화</w>
지 껄
조사 기관</w>
인민 의</w>
어 르
수 동</w>
부 흥</w>
립 스</w>
따 오기</w>
디지 털
뇌 물
남 해</w>
기 개</w>
관 학교</w>
경제 활동</w>
게 만</w>
高 科技</w>
陶 醉</w>
退 款</w>
转 机</w>
菁 龙</w>
精 确</w>
第 三
申请 者</w>
滑 稽</w>
李 菁龙</w>
文 书</w>
忌 讳</w>
家 门</w>
壮 观</w>
叛 军</w>
务 性</w>
一 侧</w>
e y</w>
17 3</w>
한 족</w>
팔 꿈치</w>
정 정
전 진하</w>
적 수</w>
재 혼</w>
었 었</w>
싸 늘</w>
숟 가락</w>
손 목시계</w>
생 방송</w>
불 복</w>
부 설</w>
법조 계</w>
배 타
다 운
다 비</w>
내려 다보</w>
내 자</w>
깃 털</w>
기 승</w>
공 천
가시 화</w>
衣 着</w>
脏 话</w>
秘 鲁</w>
目 击者</w>
流 浪</w>
洗 脸</w>
掉 落</w>
据 称</w>
必 不可
心 扉</w>
录像 带</w>
宽 大</w>
大 体</w>
哈 马斯</w>
午 夜</w>
动 态</w>
切 身</w>
作 曲</w>
举 措</w>
w r
3 6%</w>
함 수</w>
통 용</w>
터 통신</w>
자 막</w>
이 토록</w>
이 이다</w>
십 상</w>
서울 지방</w>
부 축</w>
래 스</w>
디지털 카메라</w>
디 즈
답 지</w>
다 주</w>
네 팔</w>
군사령 관</w>
马 英
进口 量</w>
运动 服</w>
质 的</w>
毕 竟</w>
失 措</w>
国 乐</w>
偏 僻</w>
一 块儿</w>
3 2%</w>
2 1%</w>
폭발 물</w>
파 란색</w>
출 력</w>
증 액</w>
전산 망</w>
신 입</w>
소용 돌이</w>
서 해안</w>
사 야</w>
브 래
분 실</w>
매 끄럽</w>
동 독</w>
냇 물</w>
공 영</w>
龙 头</w>
魔 鬼</w>
重 任</w>
车 厢</w>
谎 话</w>
调 味</w>
警 力</w>
纪念 碑</w>
秀 美</w>
盘 价</w>
照 射</w>
泰 山</w>
核 电</w>
打 断</w>
安 葬</w>
奇 妙</w>
化 合物</w>
出口 国</w>
他 正</w>
争 执</w>
不 由</w>
t n</w>
f t
7 2
톱 10</w>
타 선</w>
전 폭</w>
재 치</w>
유 시</w>
유 료</w>
예 사</w>
여 보</w>
스 키
세 단</w>
생 성</w>
비 호</w>
보험 금</w>
레이 건</w>
그지 없</w>
개혁 안</w>
鼓 起</w>
默 默</w>
造 假</w>
迟 早</w>
西 归
西归 浦</w>
稿 子</w>
登 山
物 色</w>
河 里</w>
水 田</w>
正 门</w>
李瑞 镇</w>
权 良淑</w>
操 心</w>
拉 拉
开 垦</w>
崔 成
天 花
三 明治</w>
一 会</w>
mo bis</w>
b mw</w>
19 8</w>
한 없이</w>
탈 바꿈</w>
코 앞</w>
지금 껏</w>
주 전자</w>
잡 아먹</w>
예비 역</w>
여름 이</w>
여 드름</w>
아이 스
시 트</w>
성 문</w>
빈 부</w>
밤 의</w>
라 미</w>
뚝 뚝</w>
독 성</w>
高 空</w>
高 压</w>
身 后</w>
败 北</w>
褐 色</w>
色 情</w>
破 门</w>
消 毒</w>
泊 尔</w>
文 献</w>
尼 泊尔</w>
城 里</w>
四 位</w>
切 尼</w>
传 教士</w>
优 待</w>
两 难</w>
一 书</w>
학 이</w>
포 용
창 백</w>
전 입</w>
자유 화</w>
이 바</w>
외 로움</w>
예 감</w>
여 중생</w>
양 면</w>
아 슬
스웨 터</w>
손 수건</w>
선 두
생존 자</w>
상 어</w>
보건 소</w>
무 기한</w>
따 돌리</w>
든 가</w>
동 은</w>
대 역</w>
공 명</w>
가 을
饱 和</w>
鞭 子</w>
腾 腾</w>
肮 脏</w>
班 车</w>
爱国 心</w>
清 华</w>
汇 票</w>
汇 丰</w>
残 骸</w>
拉 拢</w>
总 成绩</w>
心 爱</w>
广 东</w>
工 艺
喇 嘛</w>
利 川</w>
准 确
二 流</w>
u bs</w>
nh n</w>
mar t</w>
is e</w>
c al
18 6</w>
항 쟁</w>
합 산</w>
한국 전력</w>
한 곳</w>
쾌 히</w>
총 소리</w>
정 계
저 속</w>
이해 관계</w>
은 선</w>
예 기</w>
승 소</w>
세 브란
비 법</w>
부동산 시장</w>
발사 대</w>
밑 바닥</w>
경영 인</w>
가계 대출</w>
降 临</w>
金 先生</w>
遵 循</w>
退 货</w>
议 决</w>
虚 弱</w>
约翰 逊</w>
竹 子</w>
畅销 书</w>
滑雪 场</w>
清 凉</w>
日 经</w>
斯 州</w>
接 力</w>
打 球</w>
总统 府</w>
店 员</w>
年 会</w>
宣 誓</w>
太 快</w>
吴 某</w>
x x</w>
현 이</w>
펜 하
팽팽 하</w>
컨 트롤</w>
치료 법</w>
중 석</w>
정 사</w>
저 울</w>
융 자</w>
오 카
쑤 시</w>
신호 탄</w>
세계 보건기구</w>
사격 장</w>
분 출</w>
반 하</w>
물 꼬</w>
돋 우</w>
단 적</w>
교 신</w>
경 고
迷 住</w>
药 材</w>
科 研</w>
法 兰克
法兰克 福</w>
池 塘</w>
无 声</w>
数 千万</w>
在 野</w>
关 头</w>
停 下</w>
代 言人</w>
产 业界</w>
t en
ig n</w>
d r</w>
8 3
15 7</w>
퍼 하</w>
틀 거리</w>
천 주교</w>
중소 기업
자 가
이슬 람
실 책</w>
신 약</w>
신 구</w>
슬 퍼하</w>
선 미</w>
사 정거리</w>
무 형</w>
무 도</w>
끼 니</w>
기본 권</w>
극 성</w>
교육 정책</w>
관 하</w>
金秉 准</w>
肢 体</w>
而 易
滞 纳</w>
水 手</w>
正 华</w>
月 均</w>
户 籍</w>
徽 章</w>
开放 型</w>
大 革命</w>
w oo
s y
bi g</w>
5 1.
2 km</w>
황 색</w>
태 아</w>
체포 영장</w>
찬 스</w>
중 동
우 방</w>
우 러
외 형</w>
역 부족</w>
수 조</w>
산 적</w>
뿌 리
병 기</w>
배 척</w>
박 지은</w>
박 경
내수 시장</w>
군 축</w>
구속 기소</w>
飞 走</w>
良 才</w>
淘 气</w>
泰 陵</w>
打 死</w>
娘 家</w>
古 董</w>
动 弹</w>
养 活</w>
不 难</w>
cl in
흥 은행</w>
프랑스 어</w>
표 준
페 르
쾌 감</w>
착 실</w>
중장 기적</w>
중 견
조 흥은행</w>
조 망</w>
전 분</w>
적 막</w>
앤 디</w>
실 크</w>
소 나기</w>
선 비</w>
생 수</w>
병 아리</w>
병 들</w>
명 제</w>
등 교</w>
독 선</w>
노 태우</w>
거 르</w>
邮 政</w>
起 伏</w>
袁 正华</w>
范 畴</w>
能 干</w>
电影 界</w>
污 水</w>
果 真</w>
林 东
新 星</w>
摇 动</w>
成 效</w>
忍 不住</w>
大 势</w>
外 形</w>
咖啡 屋</w>
呼 唤</w>
可 不</w>
免 税</w>
传 真</w>
sor ry</w>
sc i</w>
5 cm</w>
4. 8%</w>
프랑 크
프랑크 푸
파 면</w>
통상 교섭</w>
집 집</w>
진 군</w>
중 장기</w>
잡 고</w>
일 컫</w>
위기 관리</w>
오 징
예 방
손 잡고</w>
복숭 아</w>
대학 원생</w>
내 막</w>
깜 찍</w>
기자 본</w>
기울 이</w>
관 직</w>
과 오</w>
강 령</w>
鸦 片</w>
阴 暗</w>
金炳 贤</w>
野 营</w>
窒 息</w>
燕 子</w>
步 兵
开 交</w>
国 事</w>
发 誓</w>
北京 市</w>
勘 探</w>
军 备</w>
不 一</w>
i r</w>
e v
b p</w>
6 5.
18 4</w>
17 6</w>
한 단</w>
초 중고교</w>
초 리</w>
주 행</w>
인권 문제</w>
인 분</w>
이 승</w>
의 실</w>
유 재
유 언
스코 틀랜드</w>
산 보</w>
사흘 간</w>
목 욕
만 년
려 보내</w>
라 인
라 다</w>
내 과</w>
首 长</w>
重 蹈</w>
迟 钝</w>
苍 白</w>
溪 谷</w>
母 乳</w>
枪 支</w>
李 根
抓 紧</w>
才 华</w>
幸 好</w>
峡 谷</w>
女 中</w>
原 动力</w>
几 百</w>
n fc</w>
19 57</w>
화 끈</w>
항 일</w>
프 레스</w>
포 천</w>
판 명</w>
테 르</w>
카운 터</w>
체 형</w>
정 취</w>
잡 음</w>
원 산지</w>
요 트</w>
아 키</w>
시 자</w>
속 마음</w>
발 가락</w>
링 컨</w>
도로 공사</w>
나 라
김영 일</w>
김 창
기름 값</w>
高 龄化</w>
预 先</w>
路 过</w>
证 言</w>
皮 包</w>
满 洲</w>
母 女</w>
正 视</w>
总 结</w>
往 上</w>
当 面</w>
崇 拜</w>
尼 奥</w>
号 召</w>
军 需</w>
保健 所</w>
不 败</w>
下 落</w>
it e</w>
gr and</w>
18 8</w>
패 하</w>
친 지</w>
추 행</w>
초 상</w>
참 새</w>
집 결</w>
중국 측</w>
제 각각</w>
인 방</w>
왕 국</w>
와 이드</w>
오 름</w>
역 경</w>
알 아내</w>
안 면</w>
신경 이</w>
식 기</w>
산 골</w>
뻔 뻔</w>
부 차관보</w>
미 경</w>
낭 독</w>
기본 법</w>
극 렬</w>
鲜 艳</w>
高 音</w>
高 素
马英 九</w>
韩 剧</w>
陈 水
陈水 扁</w>
郡 守</w>
稀 有</w>
永 吉</w>
杰 出</w>
李相 洙</w>
最 短</w>
无 穷</w>
天花 板</w>
地 方
商 工</w>
勤 劳</w>
信 誉</w>
不 爱</w>
sn s</w>
7. 5</w>
16 6</w>
한화 그룹</w>
플래 카드</w>
파 묻</w>
통 제
체 니</w>
차 마</w>
주 도
영 도</w>
시 사회</w>
수백 억</w>
벌 기</w>
마 포구</w>
대 낮</w>
나누 기</w>
교직원 노동조합</w>
고 서야</w>
预备 役</w>
账 号</w>
纸 条</w>
粉 碎</w>
祝 愿</w>
盲 人</w>
炸 鸡</w>
火 烧</w>
本 哈
本哈 根</w>
无 心</w>
新 药</w>
摩 根
挂 钩</w>
必不可 少</w>
将 军
室 外</w>
孙 女</w>
如 意</w>
哥 本哈根</w>
升 学</w>
十 天</w>
前 排</w>
企划 部</w>
代 言</w>
乘 车</w>
一 言</w>
l ine</w>
ec h</w>
c ur
bo y</w>
a u
5 10</w>
4 30</w>
19 58</w>
흥 정</w>
패러 다
패러다 임</w>
트 릭</w>
투 하</w>
크 레인</w>
자유 가</w>
이 주
이 종</w>
이 번
으 리</w>
위 촉</w>
올 스타
올스타 전</w>
시 보</w>
생각 나</w>
사 슴</w>
배 웅</w>
미 덕</w>
문 물</w>
대 중국</w>
다운 로드</w>
광 선</w>
고속 철</w>
거 시</w>
韩 政府</w>
遇 难者</w>
达 菲</w>
礼 品</w>
林 某</w>
朴 龙
影 迷</w>
彭 博</w>
大 婶</w>
内 科</w>
t s
ir is</w>
4. 7%</w>
19 9</w>
0. 2%</w>
해 답</w>
펜하 겐</w>
코 펜하겐</w>
취업 률</w>
재 희</w>
장 근</w>
이동 해</w>
여기 저</w>
었 겠</w>
억 지력</w>
시 바</w>
슬 리</w>
손 색</w>
상 용</w>
사 형
버드 나무</w>
물 기</w>
동 석</w>
대통령 비서실장</w>
끝 장</w>
규 정하</w>
계 사</w>
黄 河</w>
非 政府</w>
阳 川</w>
通 知
贵 宾</w>
衷 心</w>
耳 边</w>
留 意</w>
满意 度</w>
梅 西</w>
柠 檬</w>
星期 三</w>
无 线
捐 赠
扑 通</w>
成 功率</w>
彩 虹</w>
尼 克</w>
大 有</w>
增 幅</w>
在 所</w>
商 住</w>
发 言
友 邦</w>
体 面</w>
万 事</w>
yo ut
3 65</w>
16 4</w>
한 밤중</w>
크리스 티</w>
출 발
청구 소송</w>
창 군</w>
참 의원</w>
조 건
정 류장</w>
잔 디
워크 숍</w>
부 천</w>
봄 바람</w>
본 회의장</w>
복 역</w>
묶 음</w>
무 서
목표 치</w>
동 갑
농 민
끌 려가</w>
김 홍
고 부가가치</w>
개발 계획</w>
가 요
菲利 普</w>
花 瓣</w>
艰 辛</w>
稻 田</w>
矿 泉水</w>
案 子</w>
打 发</w>
将军 级</w>
口 处</w>
去 向</w>
pl us</w>
d b</w>
ar y</w>
카 펫</w>
철 새</w>
조 제</w>
전 제
재 계약</w>
의사 결정</w>
은행 장</w>
육 류</w>
유 언</w>
속 상</w>
상 용화</w>
사망 률</w>
사 살</w>
발표 문</w>
바 로
무력 화</w>
무 치</w>
맹 점</w>
러 블</w>
등 정</w>
독 도가</w>
대리 점</w>
고위 직</w>
麻 雀</w>
金 惠
贫 民</w>
老 实</w>
泽 一郎</w>
根 深
极 性</w>
李 准
本 队</w>
战 警</w>
感染 者</w>
形 式
度假 村</w>
安 娜</w>
多 国</w>
复 职</w>
增 值
坚 硬</w>
制作 费</w>
保安 法</w>
交 锋</w>
上 山</w>
co mm
5 8.
3 7%</w>
17 1</w>
합 리
함 량</w>
크 라이
크라이 슬러</w>
카 르
청 담
잡 아
이 온</w>
의 례</w>
신 상
수 련</w>
법 사위</w>
반 응
미드 필드</w>
미국 계</w>
모 태</w>
말 썽</w>
리 티</w>
동갑 내기</w>
김포 공항</w>
과 언</w>
飓 风</w>
象 棋</w>
清 纯</w>
气 流</w>
接 纳</w>
奶 酪</w>
喜 事</w>
光 临</w>
低 谷</w>
休 日</w>
人 品</w>
一 万</w>
ip tv</w>
clin ton</w>
3. 7%</w>
0. 2
체육 회</w>
차 남</w>
중 한</w>
중 문</w>
졸 중</w>
조 이</w>
정 대
절 개</w>
유 지
염 소</w>
아무 튼</w>
실무 회담</w>
스텔 스</w>
소방 관</w>
상 경</w>
사무 처</w>
빛 깔</w>
불 임</w>
동 월</w>
단 합</w>
뇌 졸중</w>
김 밥</w>
공 연히</w>
계 정</w>
高 某</w>
试 穿</w>
药 店</w>
管 子</w>
看 好</w>
点 钱</w>
显 露</w>
摇 头</w>
提 名人</w>
挨 饿</w>
承 包</w>
好 友</w>
头 顶</w>
发 育</w>
双 职工</w>
医 科</w>
不 动
下 层</w>
mi ra
c g</w>
현 진</w>
트로 이트</w>
지 팡이</w>
중앙 위원회</w>
원 지</w>
우 월</w>
올림픽 공원</w>
예 배</w>
에게 나</w>
알레 르기</w>
심의 위원회</w>
비 닐
브라이 언</w>
배타 적</w>
디 트로이트</w>
도 매
닥 터</w>
다녀 오</w>
과 징금</w>
공 석</w>
객 석</w>
鲁 斯</w>
非 军事</w>
语 音</w>
要 好</w>
矿 山</w>
根 基</w>
替 补</w>
拉拉 队</w>
手 掌</w>
宝 儿</w>
安 熙正</w>
奢 侈
奢侈 品</w>
只 剩</w>
务 必</w>
八 十</w>
伴 奏</w>
会 话</w>
专 卖店</w>
cs is</w>
asse t</w>
한미 일</w>
펌 프</w>
패 기</w>
점심 시간</w>
위 쪽</w>
여러 가지</w>
심리 학</w>
신 음</w>
산 하
사업 부</w>
문 재</w>
명 부</w>
기 풍</w>
궁 리</w>
결 재</w>
鱼 类</w>
降 价</w>
问 及</w>
睫 毛</w>
生 子</w>
现 实性</w>
特 里</w>
时 节</w>
时 而</w>
斯坦 福</w>
政 策
挽 留</w>
拓 宽</w>
小 窝</w>
商 家</w>
先 锋</w>
偏 爱</w>
不 法</w>
万 物</w>
we ll</w>
sp or
5 5%</w>
협 동
핵 탄두</w>
핵 우산</w>
켤 레</w>
카 터</w>
잡 스</w>
자 크</w>
자 주
윗 사람</w>
우 여
우여 곡절</w>
연 산</w>
아니 하</w>
시아 파</w>
불 로</w>
본 성</w>
바 삐</w>
물 음</w>
만 찮</w>
만 만찮</w>
막 막</w>
떠 맡</w>
너 라</w>
난 항</w>
금 메달리스트</w>
금 기</w>
검 정
갈 채</w>
가 짐</w>
高素 荣</w>
防 治</w>
镇 海</w>
郑大 哲</w>
纺 织</w>
琐 碎</w>
液 化</w>
李 亨
拥有 者</w>
微 风</w>
平 局</w>
字 幕</w>
因 子</w>
喷 射</w>
各 级</w>
养 老</w>
俊 秀</w>
会议 所</w>
不 尽</w>
uc tion</w>
ke t</w>
glo b
5 31</w>
1. 1</w>
흑 백</w>
초 계</w>
정 적</w>
정 도
자동차 회사</w>
이 력
이력 서</w>
유 착</w>
유 수</w>
연 비</w>
식 민
시 범
수 줍</w>
수 송
본 명</w>
보 고
발 라드</w>
박 수
문 신</w>
모 녀</w>
명 료</w>
마 인드</w>
따 스</w>
다 승</w>
남북 간</w>
고 충</w>
계 수</w>
갈 증</w>
鸟 类</w>
送 还</w>
行 军</w>
翼 翼</w>
竞技 场</w>
生 生</w>
炉 子</w>
溜 溜</w>
水 稻</w>
此 案</w>
核 能</w>
样 儿</w>
机 遇</w>
机 能</w>
数 百亿</w>
手 无
常 设</w>
小 泽一郎</w>
安全 网</w>
出 汗</w>
免 疫
依 法</w>
义 务性</w>
一 说</w>
o b</w>
m r</w>
6 6.
5 1%</w>
행정 도시</w>
특 례</w>
청담 동</w>
일 당</w>
오 염
심사 위원</w>
신인 왕</w>
신 촌</w>
신 규
수석 연구원</w>
모 친</w>
근 히</w>
결 권</w>
限 额</w>
金 龙
登 记
流 畅</w>
敏 捷</w>
开 战</w>
寒 风</w>
固 醇</w>
呐 喊</w>
发 作</w>
印 章</w>
俗 语</w>
亚利桑 那</w>
크 레
청 도</w>
저 귀</w>
저 고리</w>
야 근</w>
신 드
신드 롬</w>
부담 감</w>
봉 사단</w>
보 일러</w>
미 즈</w>
몰 아
로이 터통신</w>
기 서</w>
과 물</w>
개 학</w>
长 今</w>
该 剧</w>
猛 地</w>
照 料</w>
洞 穴</w>
江 省</w>
新生 儿</w>
收 盘价</w>
执 意</w>
悲 哀</w>
对 象
大 长今</w>
复 古</w>
呕 吐</w>
会 堂</w>
专 栏</w>
七八 糟</w>
te x</w>
po wer</w>
po st
i al</w>
g ro
확 연히</w>
한 기</w>
하 버드</w>
필 적</w>
필 립스</w>
퍼 뜨리</w>
정 밀
의 문
완 만</w>
불 상</w>
부 제</w>
보 잘것없</w>
배 임</w>
방 관</w>
괴 력</w>
거 미</w>
顾 虑</w>
计 时</w>
西 红
西红 柿</w>
罗 纳尔
约 瑟
清 澈</w>
最 小
最小 化</w>
摩 根</w>
持 久</w>
急 救</w>
得 来</w>
并 用</w>
小 便</w>
宝 物</w>
堪 称</w>
四 面</w>
受 访者</w>
体 检</w>
书 写</w>
丛 林</w>
혐 오</w>
허 설</w>
해 군
항 생
학 사</w>
폭 스</w>
퍼 드</w>
케 어</w>
축구 팬</w>
체 내</w>
쫓 기</w>
조 각
전 용
일 거</w>
이 쯤</w>
이 집</w>
여보 세요</w>
어 딘
어딘 가</w>
시 위
수 모</w>
선 무</w>
상황 도</w>
배 반</w>
몸 살</w>
명 랑</w>
리 허설</w>
라이 프</w>
동 산</w>
내 뱉</w>
逐 一</w>
过 错</w>
超 人</w>
蒂 固</w>
耶 鲁</w>
管 弦</w>
私 宅</w>
短 篇</w>
生物 学</w>
根深 蒂固</w>
校 生</w>
招 收</w>
恩 斯</w>
当 晚</w>
宽 敞</w>
发 酵</w>
卢建 平</w>
何 必</w>
东 南</w>
一 封</w>
win do
2. 3</w>
19 36</w>
19 %</w>
헌 정</w>
한 순간</w>
포 상금</w>
칼 슘</w>
제 패</w>
점 퍼</w>
저 물</w>
앞 줄</w>
손 잡이</w>
미래 지향</w>
무 드</w>
명 수</w>
라이 브</w>
니 스트</w>
구 불
공 전</w>
공 신</w>
가 동률</w>
高 大</w>
面 额</w>
阿 瑟</w>
郊 区</w>
讲 究</w>
花 盆</w>
经营 学</w>
禁 忌</w>
知 情
特 律</w>
每 秒</w>
林 肯</w>
打 动</w>
懒 惰</w>
底 特律</w>
带 上</w>
尹 光
字 型</w>
周 二</w>
不 善</w>
4. 6%</w>
3 km</w>
19 20</w>
환경 단체</w>
한국 전</w>
플 레</w>
프랑크푸 르트</w>
침 없이</w>
천 막</w>
차 서</w>
자 상</w>
일 면</w>
인 종
유 신</w>
원 보</w>
울 기</w>
오징 어</w>
쓸데 없이</w>
실 거래</w>
신축 성</w>
신뢰 도</w>
습 득</w>
소비 심리</w>
성 품</w>
사 교</w>
보 급
돌 기</w>
그 럭저럭</w>
구 금</w>
거 침없이</w>
거 스</w>
鞋 底</w>
零 钱</w>
闪 存</w>
铁 矿石</w>
账 簿</w>
财 长</w>
紧 接着</w>
着 装</w>
真 挚</w>
直 升</w>
特 产</w>
火 箭
漩 涡</w>
满 面</w>
气 愤</w>
此 刻</w>
橘 子</w>
栗 子</w>
彻 夜</w>
开 办</w>
名 气</w>
吉 林
兰 队</w>
为 题</w>
不 服</w>
p ac
2. 4</w>
1 kg</w>
협의 체</w>
통일 전선</w>
태 껏</w>
절 반
전 범</w>
전 년도</w>
인 부</w>
여 태껏</w>
알렉 스</w>
악 명</w>
실 효성</w>
수출 국</w>
선거 구</w>
사이 언스</w>
부장 검사</w>
버 터</w>
반 년</w>
박 재
무역 흑자</w>
맨 발</w>
도 감</w>
기념 품</w>
고마 움</w>
경 의선</w>
非 武装</w>
贺 词</w>
花 生</w>
相 识</w>
特 派</w>
流 露</w>
正 经</w>
李 政
晃 动</w>
收 藏
战 犯</w>
威 尼斯</w>
太 累</w>
写 出</w>
丝 网</w>
an t</w>
토리 노</w>
토론 토</w>
최 진실</w>
최 적</w>
재 회</w>
자산 관리</w>
이 데
암 초</w>
스 위치</w>
수업 시간</w>
보 훈
발 돋
발돋 움</w>
모 조리</w>
떠 넘기</w>
들여 오</w>
단 국대</w>
눈 동자</w>
내 쉬</w>
국제 회의</w>
간 혹</w>
道 具</w>
资 助</w>
脚 腕</w>
约瑟 夫</w>
素 妍</w>
留言 板</w>
男子 汉</w>
油 类</w>
水 深</w>
核 查
指 名</w>
抽 象</w>
扎 根</w>
并 排</w>
外 务</w>
吴 世勋</w>
决 战</w>
2. 2%</w>
하루 종일</w>
팔 면</w>
파생 상품</w>
탈 피</w>
치 어</w>
창 건</w>
주 문
인민 무력
음 주
옷 장</w>
양 과</w>
스트라이 크</w>
수 행
소 송
센 스</w>
샘 물</w>
북 대</w>
변 이</w>
번 호
묘 역</w>
릴 레이</w>
대북 지원</w>
김 우
거 푸</w>
马 山</w>
超 高速</w>
贪 心</w>
规 矩</w>
蕾 丝</w>
纳 德</w>
眼 下</w>
用 功</w>
瑕 疵</w>
清 洗</w>
梗 塞</w>
就 让</w>
对象 国</w>
在 校生</w>
加 热</w>
全 校</w>
保 育
代 谢</w>
ue p</w>
4. 3%</w>
호 스</w>
초 유</w>
쳐 들</w>
체 대</w>
차 근</w>
차 근
차근 차근</w>
지 구상</w>
전문 점</w>
장 자</w>
잡 아내</w>
자 료
인 텔</w>
유엔 군</w>
유 고</w>
영 국인</w>
실 태
섬 유
빡 빡</w>
부품 업체</w>
박 지원</w>
미 신</w>
무 소</w>
대비 책</w>
금융 당국</w>
귀 빈</w>
교 섭
계 류</w>
겸 임</w>
결 연</w>
각 하</w>
魏 圣</w>
阐 述</w>
还 清</w>
跌 倒</w>
说 说</w>
西 德</w>
胎 儿</w>
纯 真</w>
管理 层</w>
积 极性</w>
理 财</w>
注 册
李 美
德 洙</w>
工艺 品</w>
乔 布斯</w>
c all</w>
2 4%</w>
현 동</w>
허 비</w>
허 둥
톡 톡</w>
총 탄</w>
질구 레</w>
주택 은</w>
자 질구레</w>
일 회
이기 주의</w>
유가 증권</w>
예 의
역 행</w>
약 사</w>
알 몸</w>
식 단</w>
미 간</w>
린 내</w>
레 마</w>
대 구
군 자</w>
결 여</w>
가이 드라인</w>
频 频</w>
谢 罪</w>
语 调</w>
落 地</w>
肖 像
百 科</w>
疗 养</w>
申 氏</w>
班 主任</w>
漂 浮</w>
标 注</w>
机关 报</w>
接 班</w>
急 性</w>
市 值</w>
大 屠杀</w>
各 党</w>
冰 岛</w>
倒 是</w>
保 全</w>
久 性</w>
7 47</w>
5 9.
한 희</w>
표 의</w>
참모 본부</w>
지 서</w>
증 여세</w>
이 준</w>
이 운
은 하</w>
으 리라</w>
유 대</w>
위 도</w>
우루 과이</w>
영 주권</w>
엄 두</w>
아이 리스</w>
실험 실</w>
실태 조사</w>
습 도</w>
쇄 도</w>
성 심</w>
미국 식</w>
론 도</w>
레 몬</w>
도 용</w>
김 한
균 열</w>
구 걸</w>
고 나</w>
계 파</w>
강 압</w>
首 任</w>
陈 列</w>
防 水</w>
选拔 赛</w>
观 望</w>
著 作</w>
终 端
终端 机</w>
纪念 品</w>
登 顶</w>
王 牌</w>
毒 素</w>
撒 谎</w>
平 台</w>
尹 恩惠</w>
对 照</w>
宋 某</w>
命 中</w>
十 大</w>
乱 七八糟</w>
一 不
ion s</w>
4 80</w>
00 7</w>
험 담</w>
추진 력</w>
초 중고</w>
채 팅</w>
진 해</w>
주 상</w>
저 력</w>
인사 권</w>
인 하
은 커녕</w>
윤 기</w>
유 상
윈 도</w>
슬 그머니</w>
성 관계</w>
본 적</w>
병 실</w>
배 당
만 사</w>
런 스</w>
대통령 비서실</w>
경 비정</w>
개 체</w>
高 尚</w>
退 步</w>
近 代
轮 船</w>
行 的</w>
纳 粹</w>
紧 带</w>
精 致</w>
租赁 费</w>
白 雪</w>
水 源</w>
柳时 敏</w>
松 紧带</w>
无 所谓</w>
教育 界</w>
挑 战
弹 药</w>
大 师
埋 没</w>
唤 醒</w>
呻 吟</w>
公 顷</w>
一 堂</w>
re d</w>
in k</w>
20 2</w>
2 900</w>
파 수</w>
칼 날</w>
이 남</w>
의 중</w>
완 승</w>
산 봉우리</w>
도 매</w>
나 우</w>
고 원</w>
가 발</w>
酒 席</w>
生 成</w>
汉 族</w>
新人 王</w>
总 决赛</w>
总 人口</w>
叶 派</w>
初 级</w>
什 叶派</w>
3. 2%</w>
현 저</w>
팔 찌</w>
틈 타</w>
충 실히</w>
청 자</w>
진 귀</w>
정 월</w>
저 격</w>
온 돌</w>
심 포지
사용 료</w>
빙 하</w>
브리 티
반 신</w>
민 속</w>
모니 터링</w>
만 물</w>
리 하</w>
라 스
대 장
대 대로</w>
난 사</w>
군 용</w>
국제 무대</w>
교 역
교 량</w>
관리 인</w>
고 법</w>
간 결</w>
部 将</w>
玩 家</w>
毒 药</w>
杠 杆</w>
既 定</w>
斡 旋</w>
指 控</w>
慌 张</w>
感 人</w>
年 收入</w>
大 发</w>
善 心</w>
像 话</w>
住 所</w>
严 酷</w>
n or
4 4%</w>
홍 색</w>
한국 측</w>
피 아니
피아니 스트</w>
프 라이</w>
표 현
통 행
쾌 거</w>
콜 금리</w>
칼 로리</w>
치 수</w>
진 원</w>
지 화</w>
주 요
이동 욱</w>
이데 올
위원 회의</w>
연 꽃</w>
역 점</w>
언 어
선 후배</w>
보 습</w>
미 도</w>
물 놀이</w>
막 말</w>
렷 이</w>
독 촉</w>
김 해</w>
기 반
금 값</w>
관계 부처</w>
경제 성</w>
걱 정거리</w>
거 창</w>
가라 앉히</w>
造 就</w>
美联 储</w>
细 微</w>
知情 权</w>
疲力 尽</w>
核查 团</w>
权 势</w>
期待 感</w>
早 晚</w>
无线 电</w>
无 业</w>
放 过</w>
弗 兰
平 稳</w>
山 村</w>
小 鸡</w>
大 学院</w>
加 沙</w>
五 天</w>
乐 意</w>
p r</w>
ho use</w>
4 2%</w>
16 3</w>
회계 사</w>
항생 제</w>
통 통</w>
태 광</w>
철 광석</w>
창의 력</w>
재 작년</w>
잠 그</w>
작 자</w>
인권 침해</w>
워 터</w>
울 부
울부 짖</w>
식 용</w>
세 례</w>
샴 푸</w>
색 체</w>
사 채
브리티 시</w>
불 쑥</w>
변 변</w>
밑 천</w>
문 항</w>
모 유</w>
동호 회</w>
대표 선수</w>
공무원 노조</w>
거 들
路易 斯</w>
跃 进</w>
脱 发</w>
结 下</w>
狭 隘</w>
爵 士
游 击</w>
沃 德</w>
次 子</w>
李承 晚</w>
朗 读</w>
放 射</w>
开 关</w>
字 句</w>
境 界</w>
咖啡 厅</w>
升 入</w>
克萨 斯州</w>
产 经</w>
一 封信</w>
ch e
2 15</w>
19 52</w>
해 롭</w>
하 소</w>
풍 력</w>
페 트</w>
태평 로</w>
치 신문</w>
축 전</w>
징 용</w>
지하철 역</w>
장 신</w>
이데올 로
이데올로 기</w>
이 서</w>
유 교</w>
원 격</w>
양 재
수사 대</w>
백 수</w>
매 장
마이니 치신문</w>
데 프</w>
끈 기</w>
강 재
默 德</w>
铁 丝网</w>
过 半</w>
踏 步</w>
货 船</w>
负 伤</w>
读 完</w>
罪 恶</w>
维 加斯</w>
窗 子</w>
穆 罕
科罗拉 多</w>
熟 虑</w>
炮 击</w>
款 项</w>
旅 程</w>
摧 毁</w>
拉斯 维加斯</w>
徒 步</w>
形式 上</w>
少 见</w>
变 革</w>
公 交</w>
c am
후 로</w>
호 송</w>
합 창</w>
플 렉스</w>
탐 험</w>
축 하
책임 지</w>
준 호</w>
조 직원</w>
정책 실</w>
이 정</w>
양성 하</w>
씁 쓸</w>
심포지 엄</w>
식품 의약품</w>
수십 억</w>
불 륜</w>
불 공</w>
만년 필</w>
로 브</w>
노 인
금융 상품</w>
궁 지</w>
군 주</w>
교 만</w>
金 养
超 强</w>
菅 直
菅直 人</w>
珍 藏</w>
游击 队</w>
数 目</w>
埋 葬</w>
剧 烈</w>
佛罗里 达州</w>
住 宅
两 三</w>
e u
4 3%</w>
190 5</w>
합동 참모본부</w>
표시 장치</w>
치 하</w>
최고 위원회의</w>
지 질</w>
정 일</w>
전자 상거래</w>
재 적</w>
작업 장</w>
은 아</w>
연 달</w>
여 인
얼 거리</w>
실 력
식료 품</w>
사냥 꾼</w>
사 뭇</w>
부끄러 움</w>
백 두</w>
미 움</w>
물 거품</w>
멸 종</w>
로 울</w>
난 간</w>
경호 원</w>
가려 내</w>
那 场</w>
议 程</w>
蜜 月</w>
苏 丹</w>
自 满</w>
而 至</w>
络 绎</w>
纽 扣</w>
激 素</w>
湿 度</w>
洗 手</w>
性 关系</w>
孝 子</w>
处 事</w>
周 转</w>
儒 教</w>
与 会</w>
下 级</w>
c ds</w>
a x
4 8%</w>
4 7%</w>
해 자</w>
피 력</w>
폴리 에
포 항
통 쾌</w>
캐 리</w>
체 전</w>
첫 걸음</w>
재 진</w>
실 형</w>
식 수</w>
숭 배</w>
소비 재</w>
살 의</w>
비 디오
보 시오</w>
무 안</w>
만 강</w>
대 당</w>
까마 귀</w>
금 빛</w>
구 김</w>
관 전</w>
고 단</w>
경제 지표</w>
경 계선</w>
갑 작
起 步</w>
背 心</w>
符 号</w>
神 经
申正 娥</w>
爵士 乐</w>
漂 流</w>
李 胜
李 泰
宝 宝</w>
地 被</w>
商 社</w>
名 将</w>
南 瓜</w>
十 六</w>
加 州</w>
出 人
冥 想</w>
主 旨</w>
le t</w>
2 25</w>
0. 7%</w>
호 칭</w>
허 덕이</w>
편 찬</w>
큰 돈</w>
쩐 지</w>
주 먹
주 곡</w>
이운 재</w>
용 직</w>
어 쩐지</w>
어 이
어 업</w>
수사 결과</w>
쇠 약</w>
손 수</w>
보유 국</w>
베 일</w>
미 워하</w>
미 쓰
대 마</w>
는 군</w>
나 위</w>
꺾 이</w>
기 능
국립 공원</w>
거 느리</w>
附 带</w>
重 庆</w>
郑 相
通 风</w>
递 给</w>
转 入</w>
罐 头</w>
纽 约
穆罕 默德</w>
特殊 性</w>
灭 绝</w>
深 远</w>
李 元
服 刑</w>
当 性</w>
弗 里</w>
平 面</w>
客 座</w>
安 东
妥 当性</w>
大 叫</w>
在 校</w>
嘉 宾</w>
共同 社</w>
俄 亥
伤 员</w>
传 教</w>
传 媒</w>
do s</w>
4 60</w>
3 8%</w>
3 70</w>
19 4</w>
흡 연
평 양
축 산</w>
창 가</w>
차 인</w>
장 학</w>
자동차 업계</w>
인민 공화국</w>
월 세</w>
우 열</w>
역 동</w>
어 주</w>
쌀 쌀</w>
신 생
수 전</w>
서 예</w>
빽 빽
불법 자금</w>
봉 황</w>
면허 증</w>
리포 트</w>
대 상인</w>
나 약</w>
규제 개혁</w>
고 통
경 례</w>
驻 外</w>
金 荣</w>
色 体</w>
舍 不得</w>
联 络
罗 津</w>
矿 业</w>
染 色体</w>
日 夜</w>
[...]
